{
  "version": "1.0",
  "truncation": null,
  "padding": null,
  "added_tokens": [
    {
      "id": 0,
      "content": "<pad>",
      "single_word": false,
      "lstrip": false,
      "rstrip": false,
      "normalized": false,
      "special": true
    },
    {
      "id": 1,
      "content": "<eos>",
      "single_word": false,
      "lstrip": false,
      "rstrip": false,
      "normalized": false,
      "special": true
    },
    {
      "id": 2,
      "content": "<unk>",
      "single_word": false,
      "lstrip": false,
      "rstrip": false,
      "normalized": false,
      "special": true
    },
    {
      "id": 3,
      "content": "show hn:",
      "single_word": false,
      "lstrip": false,
      "rstrip": false,
      "normalized": false,
      "special": true
    },
    {
      "id": 4,
      "content": "ask hn:",
      "single_word": false,
      "lstrip": false,
      "rstrip": false,
      "normalized": false,
      "special": true
    },
    {
      "id": 5,
      "content": "launch hn:",
      "single_word": false,
      "lstrip": false,
      "rstrip": false,
      "normalized": false,
      "special": true
    }
  ],
  "normalizer": {
    "type": "Sequence",
    "normalizers": [
      {
        "type": "NFKC"
      },
      {
        "type": "Lowercase"
      },
      {
        "type": "Replace",
        "pattern": {
          "Regex": "\\s+"
        },
        "content": " "
      },
      {
        "type": "Strip",
        "strip_left": true,
        "strip_right": true
      }
    ]
  },
  "pre_tokenizer": {
    "type": "ByteLevel",
    "add_prefix_space": true,
    "trim_offsets": true,
    "use_regex": true
  },
  "post_processor": null,
  "decoder": {
    "type": "ByteLevel",
    "add_prefix_space": true,
    "trim_offsets": true,
    "use_regex": true
  },
  "model": {
    "type": "BPE",
    "dropout": null,
    "unk_token": "<unk>",
    "continuing_subword_prefix": null,
    "end_of_word_suffix": null,
    "fuse_unk": false,
    "byte_fallback": false,
    "ignore_merges": false,
    "vocab": {
      "<pad>": 0,
      "<eos>": 1,
      "<unk>": 2,
      "show hn:": 3,
      "ask hn:": 4,
      "launch hn:": 5,
      "!": 6,
      "\"": 7,
      "#": 8,
      "$": 9,
      "%": 10,
      "&": 11,
      "'": 12,
      "(": 13,
      ")": 14,
      "*": 15,
      "+": 16,
      ",": 17,
      "-": 18,
      ".": 19,
      "/": 20,
      "0": 21,
      "1": 22,
      "2": 23,
      "3": 24,
      "4": 25,
      "5": 26,
      "6": 27,
      "7": 28,
      "8": 29,
      "9": 30,
      ":": 31,
      ";": 32,
      "<": 33,
      "=": 34,
      ">": 35,
      "?": 36,
      "@": 37,
      "[": 38,
      "\\": 39,
      "]": 40,
      "^": 41,
      "_": 42,
      "`": 43,
      "a": 44,
      "b": 45,
      "c": 46,
      "d": 47,
      "e": 48,
      "f": 49,
      "g": 50,
      "h": 51,
      "i": 52,
      "j": 53,
      "k": 54,
      "l": 55,
      "m": 56,
      "n": 57,
      "o": 58,
      "p": 59,
      "q": 60,
      "r": 61,
      "s": 62,
      "t": 63,
      "u": 64,
      "v": 65,
      "w": 66,
      "x": 67,
      "y": 68,
      "z": 69,
      "{": 70,
      "|": 71,
      "}": 72,
      "~": 73,
      "¡": 74,
      "¢": 75,
      "£": 76,
      "¤": 77,
      "¥": 78,
      "¦": 79,
      "§": 80,
      "¨": 81,
      "©": 82,
      "ª": 83,
      "«": 84,
      "¬": 85,
      "®": 86,
      "¯": 87,
      "°": 88,
      "±": 89,
      "²": 90,
      "³": 91,
      "´": 92,
      "µ": 93,
      "¶": 94,
      "·": 95,
      "¸": 96,
      "¹": 97,
      "º": 98,
      "»": 99,
      "¼": 100,
      "½": 101,
      "¾": 102,
      "¿": 103,
      "Â": 104,
      "Ã": 105,
      "Ä": 106,
      "Å": 107,
      "È": 108,
      "Ê": 109,
      "Ì": 110,
      "Î": 111,
      "Ï": 112,
      "Ñ": 113,
      "Ø": 114,
      "Ù": 115,
      "à": 116,
      "á": 117,
      "â": 118,
      "ã": 119,
      "ä": 120,
      "å": 121,
      "ï": 122,
      "Ġ": 123,
      "Ģ": 124,
      "ģ": 125,
      "Ĥ": 126,
      "ĥ": 127,
      "Ħ": 128,
      "ħ": 129,
      "Ĩ": 130,
      "ĩ": 131,
      "Ī": 132,
      "ī": 133,
      "Ĭ": 134,
      "Į": 135,
      "į": 136,
      "İ": 137,
      "ı": 138,
      "Ĳ": 139,
      "ĳ": 140,
      "Ĵ": 141,
      "ĵ": 142,
      "Ķ": 143,
      "Ĺ": 144,
      "ĺ": 145,
      "Ļ": 146,
      "Ľ": 147,
      "ľ": 148,
      "Ŀ": 149,
      "ŀ": 150,
      "Ł": 151,
      "ł": 152,
      "Ń": 153,
      "Ġa": 154,
      "in": 155,
      "Ġt": 156,
      "Ġs": 157,
      "er": 158,
      "Ġc": 159,
      "on": 160,
      "re": 161,
      "or": 162,
      "en": 163,
      "Ġf": 164,
      "at": 165,
      "Ġp": 166,
      "ing": 167,
      "es": 168,
      "Ġm": 169,
      "Ġw": 170,
      "Ġh": 171,
      "it": 172,
      "Ġb": 173,
      "an": 174,
      "Ġth": 175,
      "Ġd": 176,
      "al": 177,
      "Ġo": 178,
      "ar": 179,
      "ro": 180,
      "is": 181,
      "Ġl": 182,
      "Ġin": 183,
      "Ġthe": 184,
      "ed": 185,
      "ic": 186,
      "Ġto": 187,
      "ou": 188,
      "ow": 189,
      "Ġan": 190,
      "Ġg": 191,
      "st": 192,
      "ion": 193,
      "le": 194,
      "Ġn": 195,
      "Ġe": 196,
      "Ġre": 197,
      "il": 198,
      "ac": 199,
      "ent": 200,
      "Ġfor": 201,
      "de": 202,
      "Ġof": 203,
      "Ġu": 204,
      "et": 205,
      "om": 206,
      "as": 207,
      "Ġsh": 208,
      "Ġand": 209,
      "Ġhn": 210,
      "ec": 211,
      "el": 212,
      "ra": 213,
      "Ġai": 214,
      "ol": 215,
      "Ġst": 216,
      "ut": 217,
      "âĢ": 218,
      "im": 219,
      "ig": 220,
      "ers": 221,
      "âĢĵ": 222,
      "Ġy": 223,
      "Ġv": 224,
      "Ġshow": 225,
      "ĠâĢĵ": 226,
      "iv": 227,
      "ith": 228,
      "ot": 229,
      "'s": 230,
      "Ġon": 231,
      "ation": 232,
      "ch": 233,
      "Ġis": 234,
      "Ġwh": 235,
      "Ġpro": 236,
      "Ġwith": 237,
      "ur": 238,
      "ag": 239,
      "ce": 240,
      "am": 241,
      "Ġch": 242,
      "Ġr": 243,
      "Ġyou": 244,
      "pp": 245,
      "Ġi": 246,
      "ter": 247,
      "ay": 248,
      "Ġ(": 249,
      "Ġde": 250,
      "Ġas": 251,
      "Ġne": 252,
      "20": 253,
      "un": 254,
      "id": 255,
      "ul": 256,
      "Ġco": 257,
      "Ġcom": 258,
      "em": 259,
      "Ġmo": 260,
      "ts": 261,
      "Ġus": 262,
      "us": 263,
      "th": 264,
      "ad": 265,
      "ver": 266,
      "os": 267,
      "ab": 268,
      "pt": 269,
      "ide": 270,
      "oo": 271,
      "ct": 272,
      "ear": 273,
      "um": 274,
      "Ġj": 275,
      "ir": 276,
      "Ġcon": 277,
      "est": 278,
      "ak": 279,
      "ack": 280,
      "oc": 281,
      "op": 282,
      "ly": 283,
      "Ġk": 284,
      "ate": 285,
      "Ġex": 286,
      "Ġcl": 287,
      "if": 288,
      "ity": 289,
      "Ġwe": 290,
      "ive": 291,
      "Ġbu": 292,
      "ess": 293,
      "rom": 294,
      "pen": 295,
      "ine": 296,
      "Ġag": 297,
      "Ġen": 298,
      "Ġapp": 299,
      "and": 300,
      "Ġwor": 301,
      "ure": 302,
      "ve": 303,
      "Ġtr": 304,
      "pl": 305,
      "Ġ[": 306,
      "Ġit": 307,
      "qu": 308,
      "ist": 309,
      "Ġhow": 310,
      "Ġbe": 311,
      "ill": 312,
      "ust": 313,
      "ect": 314,
      "Ġal": 315,
      "Ġcomp": 316,
      "Ġopen": 317,
      "Ġnew": 318,
      "Ġ1": 319,
      "Ġfrom": 320,
      "Ġun": 321,
      "ap": 322,
      "igh": 323,
      "are": 324,
      "Ġbuil": 325,
      "Ġyour": 326,
      "our": 327,
      "ri": 328,
      "Ġsp": 329,
      "Ġpl": 330,
      "ideo": 331,
      "Ġsc": 332,
      "ld": 333,
      "ub": 334,
      "age": 335,
      "202": 336,
      "ding": 337,
      "ast": 338,
      "Ġare": 339,
      "Ġask": 340,
      "ia": 341,
      "Ġat": 342,
      "ies": 343,
      "ang": 344,
      "ds": 345,
      "ks": 346,
      "Ġwhat": 347,
      "ment": 348,
      "ain": 349,
      "art": 350,
      "for": 351,
      "Ġint": 352,
      "Ġdat": 353,
      "Ġdo": 354,
      "ip": 355,
      "oun": 356,
      "video": 357,
      "iz": 358,
      "ant": 359,
      "der": 360,
      "res": 361,
      "ell": 362,
      "Ġcan": 363,
      "all": 364,
      "Ġsu": 365,
      "of": 366,
      "ial": 367,
      "ie": 368,
      "og": 369,
      "Ġthat": 370,
      "act": 371,
      "per": 372,
      "Ġ'": 373,
      "Ġby": 374,
      "ans": 375,
      "ort": 376,
      "Ġim": 377,
      "ib": 378,
      "Ġagent": 379,
      "Ġro": 380,
      "ram": 381,
      "Ġar": 382,
      "ard": 383,
      "Ġpr": 384,
      "Ġwhy": 385,
      "out": 386,
      "Ġgen": 387,
      "able": 388,
      "ost": 389,
      "Ġad": 390,
      "Ġcode": 391,
      "ech": 392,
      "ight": 393,
      "Ġnot": 394,
      "one": 395,
      "ice": 396,
      "ions": 397,
      "form": 398,
      "se": 399,
      "Ġdev": 400,
      "Ġinter": 401,
      "ud": 402,
      "Ġac": 403,
      "ite": 404,
      "ace": 405,
      "Ġle": 406,
      "ence": 407,
      "ign": 408,
      "ical": 409,
      "ind": 410,
      "Ġmode": 411,
      "Ġres": 412,
      "lm": 413,
      "Ġor": 414,
      "Ġsy": 415,
      "du": 416,
      "Ġgoo": 417,
      "ph": 418,
      "ire": 419,
      "Ġdis": 420,
      "Ġcont": 421,
      "ge": 422,
      "Ġweb": 423,
      "ail": 424,
      "Ġdata": 425,
      "Ġam": 426,
      "av": 427,
      "ory": 428,
      "Ġqu": 429,
      "ore": 430,
      "Ġmy": 431,
      "ry": 432,
      "Ġtool": 433,
      "Ġbl": 434,
      "ob": 435,
      "ik": 436,
      "ake": 437,
      "Ġwork": 438,
      "oft": 439,
      "Ġ202": 440,
      "Ġmodel": 441,
      "'t": 442,
      "ource": 443,
      "ach": 444,
      "ark": 445,
      "Ġem": 446,
      "ug": 447,
      "ree": 448,
      "Ġman": 449,
      "ance": 450,
      "ime": 451,
      "Ġllm": 452,
      "Ġab": 453,
      "ens": 454,
      "00": 455,
      "Ġ\"": 456,
      "ai": 457,
      "Ġte": 458,
      "Ġ3": 459,
      "ep": 460,
      "wor": 461,
      "xt": 462,
      "ase": 463,
      "up": 464,
      "Ġup": 465,
      "ws": 466,
      "ere": 467,
      "Ġtech": 468,
      "Ġ2": 469,
      "Ġeng": 470,
      "ware": 471,
      "Ġla": 472,
      "ould": 473,
      "Ġser": 474,
      "Ġsec": 475,
      "Ġgener": 476,
      "ass": 477,
      "ated": 478,
      "Ġgo": 479,
      "Ġ$": 480,
      "earch": 481,
      "Ġph": 482,
      "ff": 483,
      "co": 484,
      "Ġse": 485,
      "Ġra": 486,
      "ave": 487,
      "ning": 488,
      "Ġlin": 489,
      "Ġaut": 490,
      "gle": 491,
      "Ġusing": 492,
      "stem": 493,
      "Ġover": 494,
      "ator": 495,
      "ower": 496,
      "Ġtra": 497,
      "ays": 498,
      "ics": 499,
      "ook": 500,
      "Ġma": 501,
      "ath": 502,
      "Ġno": 503,
      "ient": 504,
      "Ġout": 505,
      "ary": 506,
      "ros": 507,
      "Ġcre": 508,
      "df": 509,
      "ative": 510,
      "ame": 511,
      "ron": 512,
      "irst": 513,
      "Ġdes": 514,
      "ous": 515,
      "ome": 516,
      "Ġbuilt": 517,
      "Ġengine": 518,
      "Ġgoogle": 519,
      "ix": 520,
      "ations": 521,
      "Ġfl": 522,
      "ult": 523,
      "ction": 524,
      "201": 525,
      "ock": 526,
      "Ġsystem": 527,
      "Ġev": 528,
      "own": 529,
      "Ġcla": 530,
      "Ġhe": 531,
      "Ġacc": 532,
      "elop": 533,
      "Ġme": 534,
      "Ġpre": 535,
      "ru": 536,
      "vie": 537,
      "Ġyear": 538,
      "ating": 539,
      "Ġaf": 540,
      "Ġdevelop": 541,
      "pe": 542,
      "Ġz": 543,
      "Ġrec": 544,
      "ile": 545,
      "Ġfe": 546,
      "Ġoff": 547,
      "Ġall": 548,
      "ual": 549,
      "ting": 550,
      "Ġhas": 551,
      "Ġabout": 552,
      "Ġimp": 553,
      "Ġcol": 554,
      "rit": 555,
      "Ġmic": 556,
      "Ġinto": 557,
      "ian": 558,
      "Ġper": 559,
      "ys": 560,
      "ber": 561,
      "Ġapple": 562,
      "ased": 563,
      "Ġcomm": 564,
      "Ġuse": 565,
      "Ġchat": 566,
      "od": 567,
      "Ġfirst": 568,
      "Ġget": 569,
      "Ġprog": 570,
      "Ġnow": 571,
      "Ġchin": 572,
      "ress": 573,
      "end": 574,
      "Ġlang": 575,
      "Ġbro": 576,
      "Ġagents": 577,
      "io": 578,
      "net": 579,
      "ude": 580,
      "Ġap": 581,
      "Ġmet": 582,
      "Ġmore": 583,
      "Ġrep": 584,
      "Ġsm": 585,
      "Ġwill": 586,
      "Ġsim": 587,
      "Ġsoft": 588,
      "Ġfree": 589,
      "Ġlear": 590,
      "yth": 591,
      "Ġrun": 592,
      "Ġlangu": 593,
      "Ġafter": 594,
      "ble": 595,
      "ish": 596,
      "ue": 597,
      "Ġstart": 598,
      "Ġtrans": 599,
      "Ġdr": 600,
      "Ġbet": 601,
      "Ġits": 602,
      "ms": 603,
      "work": 604,
      "Ġback": 605,
      "Ġsol": 606,
      "Ġx": 607,
      "ink": 608,
      "Ġcomput": 609,
      "ors": 610,
      "ound": 611,
      "Ġmin": 612,
      "Ġdec": 613,
      "Ġhum": 614,
      "Ġgu": 615,
      "Ġprogram": 616,
      "Ġsoftware": 617,
      "Ġhave": 618,
      "Ġreal": 619,
      "cl": 620,
      "ick": 621,
      "ash": 622,
      "ates": 623,
      "ike": 624,
      "uc": 625,
      "Ġfast": 626,
      "Ġmus": 627,
      "Ġclaude": 628,
      "Ġone": 629,
      "ong": 630,
      "view": 631,
      "Ġinf": 632,
      "Ġke": 633,
      "Ġever": 634,
      "bo": 635,
      "enc": 636,
      "Ġprodu": 637,
      "Ġworld": 638,
      "pdf": 639,
      "Ġpost": 640,
      "Ġvis": 641,
      "atch": 642,
      "ux": 643,
      "Ġfin": 644,
      "ject": 645,
      "Ġ4": 646,
      "urn": 647,
      "Ġpe": 648,
      "aking": 649,
      "Ġstud": 650,
      "ility": 651,
      "Ġtime": 652,
      "Ġso": 653,
      "ict": 654,
      "Ġlanguage": 655,
      "Ġ5": 656,
      "Ġwar": 657,
      "Ġtest": 658,
      "Ġsa": 659,
      "Ġpower": 660,
      "Ġbo": 661,
      "und": 662,
      "Ġbuilding": 663,
      "Ġbuild": 664,
      "cri": 665,
      "Ġnet": 666,
      "Ġmark": 667,
      "ise": 668,
      "Ġind": 669,
      "Ġmade": 670,
      "Ġsource": 671,
      "Ġany": 672,
      "Ġeu": 673,
      "con": 674,
      "source": 675,
      "erm": 676,
      "elf": 677,
      "we": 678,
      "Ġinv": 679,
      "ump": 680,
      "ren": 681,
      "lic": 682,
      "Ġmon": 683,
      "ows": 684,
      "ok": 685,
      "Ġsupp": 686,
      "int": 687,
      "Ġopenai": 688,
      "als": 689,
      "Ġgro": 690,
      "Ġcr": 691,
      "vers": 692,
      "Ġexpl": 693,
      "Ġpol": 694,
      "Ġthan": 695,
      "ages": 696,
      "its": 697,
      "Ġmodels": 698,
      "ific": 699,
      "Ġdesign": 700,
      "wn": 701,
      "bot": 702,
      "iss": 703,
      "Ġjust": 704,
      "Ġcar": 705,
      "te": 706,
      "Ġgl": 707,
      "Ġrust": 708,
      "ets": 709,
      "ering": 710,
      "lect": 711,
      "Ġgame": 712,
      "Ġed": 713,
      "unch": 714,
      "app": 715,
      "Ġhel": 716,
      "Ġunder": 717,
      "line": 718,
      "ution": 719,
      "rol": 720,
      "reat": 721,
      "anc": 722,
      "Ġsur": 723,
      "com": 724,
      "sh": 725,
      "tern": 726,
      "Ġhigh": 727,
      "Ġext": 728,
      "Ġatt": 729,
      "olog": 730,
      "Ġchina": 731,
      "Ġmem": 732,
      "ists": 733,
      "Ġinst": 734,
      "Ġmake": 735,
      "Ġsearch": 736,
      "Ġmed": 737,
      "Ġmac": 738,
      "Ġyears": 739,
      "urity": 740,
      "Ġkn": 741,
      "Ġchang": 742,
      "Ġcompan": 743,
      "ents": 744,
      "Ġgra": 745,
      "Ġcould": 746,
      "rop": 747,
      "cript": 748,
      "Ġbr": 749,
      "Ġel": 750,
      "Ġdown": 751,
      "Ġmanag": 752,
      "les": 753,
      "Ġrem": 754,
      "Ġexp": 755,
      "Ġbut": 756,
      "yp": 757,
      "ins": 758,
      "Ġins": 759,
      "Ġlinux": 760,
      "Ġmult": 761,
      "ming": 762,
      "eric": 763,
      "Ġloc": 764,
      "Ġclou": 765,
      "oy": 766,
      "Ġsl": 767,
      "Ġbig": 768,
      "Ġrele": 769,
      "Ġresearch": 770,
      "Ġmicros": 771,
      "Ġhack": 772,
      "Ġjob": 773,
      "Ġhuman": 774,
      "Ġllms": 775,
      "ql": 776,
      "ons": 777,
      "Ġpar": 778,
      "Ġanal": 779,
      "Ġdoes": 780,
      "Ġwas": 781,
      "fl": 782,
      "ple": 783,
      "Ġart": 784,
      "ric": 785,
      "atform": 786,
      "Ġcons": 787,
      "Ġwho": 788,
      "Ġlaunch": 789,
      "Ġplan": 790,
      "Ġway": 791,
      "Ġsays": 792,
      "arg": 793,
      "ek": 794,
      "ugh": 795,
      "ython": 796,
      "Ġhelp": 797,
      "Ġcoding": 798,
      "Ġsoc": 799,
      "Ġbre": 800,
      "Ġvs": 801,
      "Ġsw": 802,
      "Ġear": 803,
      "ition": 804,
      "Ġprot": 805,
      "Ġexper": 806,
      "iff": 807,
      "Ġread": 808,
      "vid": 809,
      "Ġneed": 810,
      "oss": 811,
      "Ġprom": 812,
      "ople": 813,
      "Ġdeep": 814,
      "cess": 815,
      "ience": 816,
      "Ġban": 817,
      "ond": 818,
      "ices": 819,
      "acy": 820,
      "Ġthis": 821,
      "az": 822,
      "ature": 823,
      "Ġwind": 824,
      "Ġpeople": 825,
      "gpt": 826,
      "ife": 827,
      "Ġameric": 828,
      "Ġstartup": 829,
      "Ġair": 830,
      "Ġpriv": 831,
      "ner": 832,
      "ov": 833,
      "Ġpython": 834,
      "Ġfun": 835,
      "Ġfound": 836,
      "Ġbrows": 837,
      "Ġmicrosoft": 838,
      "Ġdet": 839,
      "Ġwhen": 840,
      "ings": 841,
      "Ġsk": 842,
      "ization": 843,
      "Ġcur": 844,
      "Ġfil": 845,
      "Ġlib": 846,
      "Ġval": 847,
      "ement": 848,
      "rain": 849,
      "Ġfut": 850,
      "Ġdon": 851,
      "Ġeff": 852,
      "ital": 853,
      "ruct": 854,
      "erg": 855,
      "Ġspace": 856,
      "rypt": 857,
      "Ġsecurity": 858,
      "Ġtw": 859,
      "Ġlike": 860,
      "cp": 861,
      "Ġret": 862,
      "Ġplatform": 863,
      "Ġapi": 864,
      "Ġpers": 865,
      "Ġtechn": 866,
      "Ġend": 867,
      "ount": 868,
      "Ġpart": 869,
      "Ġass": 870,
      "Ġpub": 871,
      "Ġproble": 872,
      "ream": 873,
      "Ġfuture": 874,
      "Ġour": 875,
      "Ġmay": 876,
      "oth": 877,
      "Ġself": 878,
      "Ġautom": 879,
      "Ġtrump": 880,
      "Ġplay": 881,
      "Ġ6": 882,
      "Ġvideo": 883,
      "Ġact": 884,
      "Ġcal": 885,
      "Ġagain": 886,
      "ater": 887,
      "ax": 888,
      "ne": 889,
      "Ġchatgpt": 890,
      "old": 891,
      "to": 892,
      "Ġris": 893,
      "ful": 894,
      "Ġopt": 895,
      "Ġob": 896,
      "Ġlocal": 897,
      "ivers": 898,
      "Ġwrit": 899,
      "Ġnext": 900,
      "Ġmost": 901,
      "akes": 902,
      "ose": 903,
      "ible": 904,
      "Ġown": 905,
      "Ġ2024": 906,
      "ism": 907,
      "ale": 908,
      "Ġserv": 909,
      "Ġbec": 910,
      "rame": 911,
      "Ġscient": 912,
      "Ġbrowser": 913,
      "Ġproject": 914,
      "ull": 915,
      "Ġsch": 916,
      "vel": 917,
      "Ġ2025": 918,
      "la": 919,
      "man": 920,
      "Ġsub": 921,
      "ese": 922,
      "Ġgam": 923,
      "Ġdef": 924,
      "Ġlong": 925,
      "Ġwithout": 926,
      "ects": 927,
      "Ġsocial": 928,
      "yn": 929,
      "cover": 930,
      "Ġtheir": 931,
      "Ġuk": 932,
      "itor": 933,
      "Ġserver": 934,
      "Ġlearning": 935,
      "ling": 936,
      "200": 937,
      "uss": 938,
      "ability": 939,
      "ithub": 940,
      "Ġsupport": 941,
      "Ġer": 942,
      "Ġarch": 943,
      "Ġprogramming": 944,
      "ces": 945,
      "gh": 946,
      "Ġca": 947,
      "Ġtes": 948,
      "ify": 949,
      "ck": 950,
      "ious": 951,
      "ord": 952,
      "Ġlife": 953,
      "Ġtext": 954,
      "alth": 955,
      "Ġsuper": 956,
      "ero": 957,
      "Ġinternet": 958,
      "ied": 959,
      "pr": 960,
      "time": 961,
      "Ġshould": 962,
      "Ġevery": 963,
      "Ġturn": 964,
      "Ġtools": 965,
      "Ġgithub": 966,
      "Ġtrack": 967,
      "Ġcontrol": 968,
      "ft": 969,
      "ood": 970,
      "Ġmarket": 971,
      "ier": 972,
      "Ġsign": 973,
      "Ġframe": 974,
      "Ġstr": 975,
      "Ġ7": 976,
      "Ġstudy": 977,
      "Ġcloud": 978,
      "Ġwebs": 979,
      "Ġwindows": 980,
      "Ġcy": 981,
      "Ġnews": 982,
      "Ġadv": 983,
      "Ġgood": 984,
      "Ġknow": 985,
      "Ġif": 986,
      "ines": 987,
      "Ġdem": 988,
      "Ġcost": 989,
      "19": 990,
      "Ġent": 991,
      "Ġlearn": 992,
      "Ġmemory": 993,
      "Ġcust": 994,
      "Ġann": 995,
      "Ġdeb": 996,
      "Ġbetter": 997,
      "ploy": 998,
      "Ġstar": 999,
      "Ġmach": 1000,
      "Ġreg": 1001,
      "iness": 1002,
      "ern": 1003,
      "Ġpay": 1004,
      "Ġbus": 1005,
      "Ġform": 1006,
      "Ġ10": 1007,
      "Ġrobot": 1008,
      "Ġav": 1009,
      "Ġsome": 1010,
      "formance": 1011,
      "Ġcustom": 1012,
      "Ġpo": 1013,
      "Ġdig": 1014,
      "ps": 1015,
      "Ġhist": 1016,
      "Ġlibr": 1017,
      "based": 1018,
      "ke": 1019,
      "ery": 1020,
      "ough": 1021,
      "Ġproduct": 1022,
      "Ġeuro": 1023,
      "Ġengineering": 1024,
      "Ġ8": 1025,
      "led": 1026,
      "sc": 1027,
      "ities": 1028,
      "read": 1029,
      "Ġbest": 1030,
      "Ġelect": 1031,
      "Ġguide": 1032,
      "Ġsaf": 1033,
      "pu": 1034,
      "Ġce": 1035,
      "Ġcomputer": 1036,
      "rough": 1037,
      "Ġred": 1038,
      "Ġmaking": 1039,
      "Ġinc": 1040,
      "Ġvisual": 1041,
      "way": 1042,
      "Ġhard": 1043,
      "Ġinvest": 1044,
      "ral": 1045,
      "Ġjav": 1046,
      "Ġconf": 1047,
      "Ġdoc": 1048,
      "Ġreview": 1049,
      "ives": 1050,
      "ized": 1051,
      "Ġupd": 1052,
      "Ġlook": 1053,
      "Ġste": 1054,
      "gen": 1055,
      "Ġ9": 1056,
      "ich": 1057,
      "Ġmeta": 1058,
      "ize": 1059,
      "ency": 1060,
      "Ġant": 1061,
      "ments": 1062,
      "Ġteam": 1063,
      "ural": 1064,
      "Ġreport": 1065,
      "ross": 1066,
      "ology": 1067,
      "Ġtrain": 1068,
      "ants": 1069,
      "Ġusers": 1070,
      "Ġspe": 1071,
      "Ġperson": 1072,
      "Ġmusk": 1073,
      "att": 1074,
      "Ġbill": 1075,
      "Ġcall": 1076,
      "Ġmcp": 1077,
      "itch": 1078,
      "Ġproblem": 1079,
      "Ġeurope": 1080,
      "Ġcent": 1081,
      "Ġaltern": 1082,
      "ases": 1083,
      "ely": 1084,
      "Ġrev": 1085,
      "Ġapps": 1086,
      "ational": 1087,
      "uring": 1088,
      "Ġide": 1089,
      "Ġglob": 1090,
      "less": 1091,
      "Ġdatab": 1092,
      "ract": 1093,
      "Ġhar": 1094,
      "Ġthey": 1095,
      "Ġmedia": 1096,
      "ructure": 1097,
      "Ġdiff": 1098,
      "Ġonline": 1099,
      "Ġcop": 1100,
      "Ġdist": 1101,
      "Ġlead": 1102,
      "oad": 1103,
      "Ġsimple": 1104,
      "day": 1105,
      "ness": 1106,
      "Ġframework": 1107,
      "Ġfire": 1108,
      "Ġdel": 1109,
      "Ġgr": 1110,
      "Ġbeh": 1111,
      "Ġben": 1112,
      "ving": 1113,
      "Ġmar": 1114,
      "ellig": 1115,
      "ouse": 1116,
      "power": 1117,
      "ss": 1118,
      "vidia": 1119,
      "Ġbrain": 1120,
      "ild": 1121,
      "ration": 1122,
      "Ġset": 1123,
      "Ġthink": 1124,
      "Ġnvidia": 1125,
      "Ġkey": 1126,
      "inal": 1127,
      "Ġrepl": 1128,
      "Ġpass": 1129,
      "ues": 1130,
      "Ġmath": 1131,
      "Ġchip": 1132,
      "iving": 1133,
      "Ġperformance": 1134,
      "Ġnetwork": 1135,
      "Ġlog": 1136,
      "Ġaccess": 1137,
      "Ġdigital": 1138,
      "Ġglobal": 1139,
      "let": 1140,
      "ular": 1141,
      "book": 1142,
      "arge": 1143,
      "Ġhand": 1144,
      "use": 1145,
      "ert": 1146,
      "orn": 1147,
      "Ġattack": 1148,
      "Ġbusiness": 1149,
      "Ġstat": 1150,
      "Ġlibrary": 1151,
      "Ġsyn": 1152,
      "Ġtyp": 1153,
      "atter": 1154,
      "ox": 1155,
      "Ġsystems": 1156,
      "Ġlet": 1157,
      "Ġcreate": 1158,
      "Ġagainst": 1159,
      "Ġboo": 1160,
      "Ġdevelopment": 1161,
      "eg": 1162,
      "Ġless": 1163,
      "Ġdiscover": 1164,
      "Ġfail": 1165,
      "alk": 1166,
      "Ġmoder": 1167,
      "Ġsmall": 1168,
      "Ġhealth": 1169,
      "ma": 1170,
      "Ġquant": 1171,
      "Ġpat": 1172,
      "Ġrel": 1173,
      "Ġ19": 1174,
      "Ġcut": 1175,
      "Ġtop": 1176,
      "eck": 1177,
      "mark": 1178,
      "ty": 1179,
      "ten": 1180,
      "Ġcompany": 1181,
      "js": 1182,
      "Ġfeature": 1183,
      "Ġq": 1184,
      "Ġcommun": 1185,
      "Ġfix": 1186,
      "Ġgenerator": 1187,
      "ves": 1188,
      "reen": 1189,
      "Ġlab": 1190,
      "Ġwhere": 1191,
      "Ġdid": 1192,
      "Ġstate": 1193,
      "Ġgraph": 1194,
      "Ġfind": 1195,
      "Ġmulti": 1196,
      "Ġpublic": 1197,
      "Ġhistory": 1198,
      "Ġht": 1199,
      "Ġbook": 1200,
      "Ġref": 1201,
      "Ġid": 1202,
      "Ġintellig": 1203,
      "Ġimage": 1204,
      "erence": 1205,
      "Ġstor": 1206,
      "Ġreact": 1207,
      "rib": 1208,
      "olution": 1209,
      "Ġdi": 1210,
      "Ġgpt": 1211,
      "Ġadd": 1212,
      "Ġprocess": 1213,
      "ift": 1214,
      "Ġstop": 1215,
      "aw": 1216,
      "Ġcrypt": 1217,
      "Ġruss": 1218,
      "Ġoptim": 1219,
      "land": 1220,
      "Ġprof": 1221,
      "Ġhome": 1222,
      "Ġscientists": 1223,
      "Ġlive": 1224,
      "lex": 1225,
      "imate": 1226,
      "Ġmodern": 1227,
      "Ġhere": 1228,
      "Ġold": 1229,
      "ards": 1230,
      "els": 1231,
      "ulator": 1232,
      "ube": 1233,
      "gres": 1234,
      "Ġlight": 1235,
      "2023": 1236,
      "Ġsing": 1237,
      "Ġemb": 1238,
      "Ġgit": 1239,
      "Ġmiss": 1240,
      "Ġhy": 1241,
      "Ġwebsite": 1242,
      "Ġalternative": 1243,
      "oll": 1244,
      "Ġscience": 1245,
      "rong": 1246,
      "powered": 1247,
      "Ġlist": 1248,
      "Ġage": 1249,
      "Ġpostgres": 1250,
      "vern": 1251,
      "Ġcam": 1252,
      "eng": 1253,
      "roid": 1254,
      "Ġrequ": 1255,
      "ush": 1256,
      "pro": 1257,
      "Ġeas": 1258,
      "Ġcli": 1259,
      "Ġapplic": 1260,
      "Ġpersonal": 1261,
      "Ġsn": 1262,
      "Ġamaz": 1263,
      "ret": 1264,
      "ote": 1265,
      "Ġaud": 1266,
      "Ġthere": 1267,
      "Ġtesla": 1268,
      "Ġmachine": 1269,
      "Ġhapp": 1270,
      "Ġlay": 1271,
      "Ġsmart": 1272,
      "ini": 1273,
      "Ġthem": 1274,
      "uck": 1275,
      "Ġfr": 1276,
      "ident": 1277,
      "Ġleg": 1278,
      "Ġemail": 1279,
      "down": 1280,
      "Ġtim": 1281,
      "Ġtell": 1282,
      "Ġcap": 1283,
      "Ġmap": 1284,
      "Ġjo": 1285,
      "ns": 1286,
      "lear": 1287,
      "Ġvia": 1288,
      "board": 1289,
      "Ġday": 1290,
      "Ġver": 1291,
      "Ġtwo": 1292,
      "he": 1293,
      "ysis": 1294,
      "Ġfaster": 1295,
      "Ġtesting": 1296,
      "ade": 1297,
      "ying": 1298,
      "Ġsil": 1299,
      "Ġsam": 1300,
      "Ġsql": 1301,
      "Ġcour": 1302,
      "Ġfiles": 1303,
      "Ġland": 1304,
      "Ġgem": 1305,
      "Ġzero": 1306,
      "Ġimpro": 1307,
      "Ġterm": 1308,
      "orts": 1309,
      "Ġecon": 1310,
      "Ġdatabase": 1311,
      "dr": 1312,
      "ection": 1313,
      "ired": 1314,
      "put": 1315,
      "uch": 1316,
      "raph": 1317,
      "Ġlaw": 1318,
      "Ġ20": 1319,
      "Ġoper": 1320,
      "Ġanth": 1321,
      "stand": 1322,
      "Ġphot": 1323,
      "Ġthrough": 1324,
      "lement": 1325,
      "Ġgovern": 1326,
      "Ġceo": 1327,
      "Ġwant": 1328,
      "Ġdire": 1329,
      "Ġonly": 1330,
      "Ġkill": 1331,
      "Ġtake": 1332,
      "ils": 1333,
      "Ġamazon": 1334,
      "air": 1335,
      "Ġreve": 1336,
      "ther": 1337,
      "Ġextens": 1338,
      "Ġge": 1339,
      "Ġshare": 1340,
      "Ġearth": 1341,
      "Ġeconom": 1342,
      "hip": 1343,
      "Ġstill": 1344,
      "Ġblock": 1345,
      "iel": 1346,
      "leg": 1347,
      "ilot": 1348,
      "ety": 1349,
      "Ġdeveloper": 1350,
      "ml": 1351,
      "Ġmess": 1352,
      "icon": 1353,
      "phone": 1354,
      "ergy": 1355,
      "usion": 1356,
      "Ġlink": 1357,
      "Ġpred": 1358,
      "aces": 1359,
      "Ġchange": 1360,
      "ropic": 1361,
      "Ġintelligence": 1362,
      "ivity": 1363,
      "Ġanaly": 1364,
      "lish": 1365,
      "Ġspec": 1366,
      "Ġcoll": 1367,
      "Ġkeep": 1368,
      "box": 1369,
      "pend": 1370,
      "ved": 1371,
      "rodu": 1372,
      "Ġ100": 1373,
      "Ġsal": 1374,
      "Ġchinese": 1375,
      "Ġunivers": 1376,
      "ced": 1377,
      "rite": 1378,
      "Ġgreat": 1379,
      "ascript": 1380,
      "rome": 1381,
      "Ġrest": 1382,
      "ason": 1383,
      "ights": 1384,
      "Ġauth": 1385,
      "Ġservice": 1386,
      "Ġquantum": 1387,
      "Ġfore": 1388,
      "Ġlarge": 1389,
      "off": 1390,
      "Ġanalysis": 1391,
      "cast": 1392,
      "Ġes": 1393,
      "Ġused": 1394,
      "Ġfeed": 1395,
      "back": 1396,
      "ird": 1397,
      "aut": 1398,
      "ything": 1399,
      "Ġunderstand": 1400,
      "Ġmag": 1401,
      "ites": 1402,
      "Ġbi": 1403,
      "Ġvib": 1404,
      "ium": 1405,
      "mar": 1406,
      "Ġworks": 1407,
      "ool": 1408,
      "Ġcor": 1409,
      "izing": 1410,
      "Ġmusic": 1411,
      "ense": 1412,
      "Ġport": 1413,
      "Ġcompanies": 1414,
      "jects": 1415,
      "ser": 1416,
      "round": 1417,
      "Ġandroid": 1418,
      "Ġenergy": 1419,
      "Ġprompt": 1420,
      "oice": 1421,
      "Ġphys": 1422,
      "Ġdevelopers": 1423,
      "Ġdocum": 1424,
      "Ġanthropic": 1425,
      "be": 1426,
      "Ġmicro": 1427,
      "Ġjavascript": 1428,
      "host": 1429,
      "Ġpres": 1430,
      "Ġnon": 1431,
      "Ġvir": 1432,
      "Ġiss": 1433,
      "ules": 1434,
      "Ġsee": 1435,
      "Ġbreak": 1436,
      "Ġamerica": 1437,
      "Ġfile": 1438,
      "Ġappro": 1439,
      "fore": 1440,
      "Ġcase": 1441,
      "Ġfed": 1442,
      "na": 1443,
      "Ġ2026": 1444,
      "Ġmacos": 1445,
      "Ġgames": 1446,
      "50": 1447,
      "bit": 1448,
      "ging": 1449,
      "Ġgrow": 1450,
      "Ġast": 1451,
      "Ġnas": 1452,
      "Ġdead": 1453,
      "ront": 1454,
      "ype": 1455,
      "Ġpack": 1456,
      "Ġwin": 1457,
      "Ġbit": 1458,
      "Ġstream": 1459,
      "Ġip": 1460,
      "ulation": 1461,
      "Ġcontent": 1462,
      "Ġmanagement": 1463,
      "Ġreleased": 1464,
      "Ġprivate": 1465,
      "Ġdirect": 1466,
      "Ġdeal": 1467,
      "Ġannoun": 1468,
      "Ġgeneration": 1469,
      "Ġelon": 1470,
      "row": 1471,
      "pping": 1472,
      "'re": 1473,
      "Ġbased": 1474,
      "eth": 1475,
      "ures": 1476,
      "Ġgot": 1477,
      "Ġir": 1478,
      "Ġyout": 1479,
      "bers": 1480,
      "Ġwould": 1481,
      "Ġbot": 1482,
      "2022": 1483,
      "Ġprivacy": 1484,
      "bl": 1485,
      "ateg": 1486,
      "Ġgetting": 1487,
      "Ġthreat": 1488,
      "Ġjobs": 1489,
      "top": 1490,
      "lection": 1491,
      "Ġalg": 1492,
      "dit": 1493,
      "itect": 1494,
      "Ġbad": 1495,
      "other": 1496,
      "Ġche": 1497,
      "aper": 1498,
      "Ġquest": 1499,
      "Ġrad": 1500,
      "ality": 1501,
      "Ġindust": 1502,
      "Ġwriting": 1503,
      "ll": 1504,
      "ential": 1505,
      "Ġinteract": 1506,
      "iction": 1507,
      "Ġfull": 1508,
      "ited": 1509,
      "ank": 1510,
      "Ġtok": 1511,
      "ector": 1512,
      "oring": 1513,
      "Ġpract": 1514,
      "++": 1515,
      "Ġlat": 1516,
      "Ġenc": 1517,
      "ext": 1518,
      "gan": 1519,
      "Ġvul": 1520,
      "Ġlast": 1521,
      "ification": 1522,
      "Ġassist": 1523,
      "Ġcyber": 1524,
      "bs": 1525,
      "Ġlo": 1526,
      "Ġrunning": 1527,
      "Ġblack": 1528,
      "Ġbehind": 1529,
      "Ġsingle": 1530,
      "Ġstand": 1531,
      "Ġarchitect": 1532,
      "Ġur": 1533,
      "iven": 1534,
      "ape": 1535,
      "Ġcanc": 1536,
      "Ġtransform": 1537,
      "cing": 1538,
      "ee": 1539,
      "iver": 1540,
      "used": 1541,
      "oney": 1542,
      "Ġhead": 1543,
      "Ġmil": 1544,
      "Ġdom": 1545,
      "Ġcheck": 1546,
      "Ġgemini": 1547,
      "itive": 1548,
      "ids": 1549,
      "Ġyoutube": 1550,
      "ex": 1551,
      "ole": 1552,
      "Ġuser": 1553,
      "Ġbefore": 1554,
      "Ġintel": 1555,
      "Ġworking": 1556,
      "Ġtypes": 1557,
      "Ġmonth": 1558,
      "Ġsay": 1559,
      "Ġweek": 1560,
      "Ġbeen": 1561,
      "Ġfar": 1562,
      "atic": 1563,
      "year": 1564,
      "ones": 1565,
      "Ġfront": 1566,
      "ats": 1567,
      "Ġnum": 1568,
      "Ġstore": 1569,
      "Ġconn": 1570,
      "Ġsum": 1571,
      "Ġthough": 1572,
      "idd": 1573,
      "Ġclass": 1574,
      "Ġintrodu": 1575,
      "mo": 1576,
      "ward": 1577,
      "Ġ-": 1578,
      "the": 1579,
      "2021": 1580,
      "Ġphone": 1581,
      "Ġrisk": 1582,
      "Ġtem": 1583,
      "ally": 1584,
      "Ġchrome": 1585,
      "ribut": 1586,
      "br": 1587,
      "me": 1588,
      "iny": 1589,
      "Ġtraining": 1590,
      "af": 1591,
      "orith": 1592,
      "aling": 1593,
      "Ġbeing": 1594,
      "Ġagentic": 1595,
      "Ġbench": 1596,
      "lt": 1597,
      "min": 1598,
      "code": 1599,
      "ef": 1600,
      "ison": 1601,
      "Ġprop": 1602,
      "Ġjap": 1603,
      "Ġsolar": 1604,
      "Ġskill": 1605,
      "Ġeffect": 1606,
      "Ġupdate": 1607,
      "des": 1608,
      "mer": 1609,
      "Ġsell": 1610,
      "Ġjapan": 1611,
      "Ġlit": 1612,
      "works": 1613,
      "Ġos": 1614,
      "ask": 1615,
      "Ġalgorith": 1616,
      "pts": 1617,
      "Ġcount": 1618,
      "onom": 1619,
      "Ġnor": 1620,
      "Ġclimate": 1621,
      "Ġsat": 1622,
      "Ġface": 1623,
      "Ġimages": 1624,
      "Ġvers": 1625,
      "Ġdisc": 1626,
      "Ġdesk": 1627,
      "Ġvision": 1628,
      "Ġmanager": 1629,
      "Ġnasa": 1630,
      "Ġpi": 1631,
      "Ġhal": 1632,
      "Ġother": 1633,
      "Ġinteg": 1634,
      "pre": 1635,
      "Ġmuch": 1636,
      "ily": 1637,
      "Ġlim": 1638,
      "ograph": 1639,
      "Ġcontext": 1640,
      "iqu": 1641,
      "Ġlow": 1642,
      "Ġep": 1643,
      "Ġsaas": 1644,
      "Ġsurve": 1645,
      "Ġembed": 1646,
      "Ġextension": 1647,
      "ger": 1648,
      "Ġwon": 1649,
      "Ġwatch": 1650,
      "Ġword": 1651,
      "Ġterminal": 1652,
      "sp": 1653,
      "Ġmakes": 1654,
      "iting": 1655,
      "Ġexec": 1656,
      "Ġsuc": 1657,
      "Ġblog": 1658,
      "Ġexperim": 1659,
      "ically": 1660,
      "Ġtechnology": 1661,
      "Ġaws": 1662,
      "ests": 1663,
      "Ġconc": 1664,
      "Ġgenerative": 1665,
      "Ġvibe": 1666,
      "pus": 1667,
      "Ġsem": 1668,
      "Ġwrite": 1669,
      "Ġcompil": 1670,
      "Ġwrong": 1671,
      "Ġios": 1672,
      "load": 1673,
      "ims": 1674,
      "Ġrules": 1675,
      "Ġplans": 1676,
      "ains": 1677,
      "Ġbatter": 1678,
      "Ġnear": 1679,
      "Ġgovernment": 1680,
      "zz": 1681,
      "Ġfall": 1682,
      "Ġren": 1683,
      "raft": 1684,
      "ected": 1685,
      "2024": 1686,
      "Ġpop": 1687,
      "Ġbug": 1688,
      "Ġresp": 1689,
      "Ġemploy": 1690,
      "gest": 1691,
      "Ġfre": 1692,
      "Ġinde": 1693,
      "imal": 1694,
      "Ġcrypto": 1695,
      "wh": 1696,
      "Ġthings": 1697,
      "Ġrub": 1698,
      "val": 1699,
      "Ġter": 1700,
      "ley": 1701,
      "Ġstory": 1702,
      "Ġchall": 1703,
      "Ġbank": 1704,
      "Ġeffic": 1705,
      "ention": 1706,
      "Ġtrust": 1707,
      "Ġimplement": 1708,
      "Ġfinds": 1709,
      "ween": 1710,
      "Ġrelease": 1711,
      "ann": 1712,
      "Ġtoo": 1713,
      "Ġreason": 1714,
      "Ġchild": 1715,
      "Ġprin": 1716,
      "Ġcell": 1717,
      "ises": 1718,
      "icial": 1719,
      "Ġdeath": 1720,
      "Ġnever": 1721,
      "Ġelectric": 1722,
      "Ġsite": 1723,
      "ision": 1724,
      "Ġnative": 1725,
      "ption": 1726,
      "ified": 1727,
      "play": 1728,
      "000": 1729,
      "Ġproduction": 1730,
      "Ġdesktop": 1731,
      "ler": 1732,
      "mic": 1733,
      "Ġpush": 1734,
      "aring": 1735,
      "Ġinfra": 1736,
      "Ġident": 1737,
      "oid": 1738,
      "ony": 1739,
      "Ġbetween": 1740,
      "face": 1741,
      "wer": 1742,
      "Ġult": 1743,
      "aster": 1744,
      "Ġengineer": 1745,
      "Ġstrateg": 1746,
      "by": 1747,
      "Ġfir": 1748,
      "Ġui": 1749,
      "rag": 1750,
      "10": 1751,
      "Ġtax": 1752,
      "Ġnuc": 1753,
      "Ġshort": 1754,
      "ama": 1755,
      "Ġmob": 1756,
      "Ġtype": 1757,
      "Ġcare": 1758,
      "Ġpa": 1759,
      "Ġcalif": 1760,
      "Ġmill": 1761,
      "Ġisn": 1762,
      "Ġcoming": 1763,
      "Ġrecord": 1764,
      "ody": 1765,
      "Ġcourt": 1766,
      "Ġtur": 1767,
      "ising": 1768,
      "Ġchar": 1769,
      "Ġclient": 1770,
      "Ġgenerate": 1771,
      "'ve": 1772,
      "yle": 1773,
      "Ġgpu": 1774,
      "Ġvie": 1775,
      "formation": 1776,
      "Ġcaliforn": 1777,
      "Ġwants": 1778,
      "Ġstack": 1779,
      "Ġvoice": 1780,
      "ney": 1781,
      "Ġmoney": 1782,
      "ari": 1783,
      "Ġworkers": 1784,
      "gener": 1785,
      "lin": 1786,
      "Ġtarg": 1787,
      "Ġtheory": 1788,
      "Ġredu": 1789,
      "Ġacross": 1790,
      "Ġinside": 1791,
      "first": 1792,
      "ires": 1793,
      "tok": 1794,
      "Ġhis": 1795,
      "Ġstructure": 1796,
      "Ġprojects": 1797,
      "pped": 1798,
      "flow": 1799,
      "ci": 1800,
      "Ġ/": 1801,
      "Ġwhich": 1802,
      "ocol": 1803,
      "Ġspot": 1804,
      "Ġ30": 1805,
      "Ġvulner": 1806,
      "ends": 1807,
      "Ġloo": 1808,
      "Ġright": 1809,
      "oses": 1810,
      "Ġcomputing": 1811,
      "Ġdocument": 1812,
      "Ġcrit": 1813,
      "Ġinterview": 1814,
      "Ġavail": 1815,
      "Ġcalifornia": 1816,
      "cy": 1817,
      "ror": 1818,
      "Ġps": 1819,
      "ane": 1820,
      "ults": 1821,
      "Ġenv": 1822,
      "Ġspeed": 1823,
      "oot": 1824,
      "Ġcross": 1825,
      "Ġsecure": 1826,
      "views": 1827,
      "ynam": 1828,
      "Ġdiffer": 1829,
      "lare": 1830,
      "Ġgroup": 1831,
      "ips": 1832,
      "Ġmaj": 1833,
      "Ġlaunches": 1834,
      "Ġearly": 1835,
      "Ġmal": 1836,
      "Ġhost": 1837,
      "Ġstri": 1838,
      "ury": 1839,
      "Ġmod": 1840,
      "Ġsafety": 1841,
      "Ġindustry": 1842,
      "istic": 1843,
      "Ġeditor": 1844,
      "ental": 1845,
      "Ġjour": 1846,
      "Ġbey": 1847,
      "Ġnotes": 1848,
      "ression": 1849,
      "Ġthree": 1850,
      "ication": 1851,
      "Ġcommand": 1852,
      "Ġnuclear": 1853,
      "son": 1854,
      "tr": 1855,
      "Ġfu": 1856,
      "Ġll": 1857,
      "Ġdep": 1858,
      "Ġbeyond": 1859,
      "Ġbar": 1860,
      "2020": 1861,
      "Ġ2023": 1862,
      "Ġlaws": 1863,
      "Ġsecret": 1864,
      "Ġinfl": 1865,
      "Ġresearchers": 1866,
      "Ġamerican": 1867,
      "gra": 1868,
      "Ġtre": 1869,
      "Ġdays": 1870,
      "osing": 1871,
      "aker": 1872,
      "Ġhumans": 1873,
      "Ġstorage": 1874,
      "Ġmajor": 1875,
      "Ġshut": 1876,
      "Ġdeploy": 1877,
      "Ġconst": 1878,
      "ounder": 1879,
      "Ġacqu": 1880,
      "2019": 1881,
      "Ġimpact": 1882,
      "Ġchatbot": 1883,
      "Ġmonitor": 1884,
      "ield": 1885,
      "Ġarchitecture": 1886,
      "Ġmobile": 1887,
      "'m": 1888,
      "do": 1889,
      "ior": 1890,
      "Ġwater": 1891,
      "unt": 1892,
      "ls": 1893,
      "tle": 1894,
      "structure": 1895,
      "Ġeverything": 1896,
      "like": 1897,
      "Ġcle": 1898,
      "Ġmany": 1899,
      "coin": 1900,
      "Ġmeet": 1901,
      "Ġindia": 1902,
      "Ġexplo": 1903,
      "Ġpc": 1904,
      "Ġput": 1905,
      "Ġbas": 1906,
      "Ġalt": 1907,
      "Ġincre": 1908,
      "uit": 1909,
      "ze": 1910,
      "Ġtalk": 1911,
      "Ġsilicon": 1912,
      "Ġencrypt": 1913,
      "ded": 1914,
      "Ġrevers": 1915,
      "Ġkern": 1916,
      "Ġintern": 1917,
      "Ġprotocol": 1918,
      "Ġapplications": 1919,
      "Ġinteractive": 1920,
      "Ġiphone": 1921,
      "Ġarm": 1922,
      "Ġorig": 1923,
      "Ġorgan": 1924,
      "Ġtik": 1925,
      "Ġhol": 1926,
      "Ġshows": 1927,
      "Ġlost": 1928,
      "aging": 1929,
      "Ġcomplex": 1930,
      "Ġcopilot": 1931,
      "free": 1932,
      "etic": 1933,
      "vert": 1934,
      "ops": 1935,
      "Ġcompet": 1936,
      "Ġcris": 1937,
      "Ġbooks": 1938,
      "Ġsou": 1939,
      "Ġbuy": 1940,
      "Ġ15": 1941,
      "force": 1942,
      "Ġexperience": 1943,
      "Ġfam": 1944,
      "icy": 1945,
      "Ġequ": 1946,
      "Ġpublish": 1947,
      "cts": 1948,
      "pm": 1949,
      "Ġads": 1950,
      "eral": 1951,
      "Ġfri": 1952,
      "Ġvide": 1953,
      "osed": 1954,
      "Ġcalc": 1955,
      "ky": 1956,
      "tp": 1957,
      "Ġtiny": 1958,
      "Ġhouse": 1959,
      "Ġreturn": 1960,
      "Ġavailable": 1961,
      "Ġanother": 1962,
      "Ġofficial": 1963,
      "Ġdrug": 1964,
      "anced": 1965,
      "Ġchanges": 1966,
      "Ġschool": 1967,
      "Ġsales": 1968,
      "Ġunderstanding": 1969,
      "Ġpan": 1970,
      "iron": 1971,
      "Ġtiktok": 1972,
      "Ġml": 1973,
      "Ġmis": 1974,
      "ster": 1975,
      "Ġmeth": 1976,
      "erman": 1977,
      "Ġcommunity": 1978,
      "Ġaudio": 1979,
      "Ġsuccess": 1980,
      "âĢĻ": 1981,
      "Ġstartups": 1982,
      "Ġpattern": 1983,
      "Ġbra": 1984,
      "seek": 1985,
      "Ġhit": 1986,
      "eter": 1987,
      "Ġ12": 1988,
      "aren": 1989,
      "Ġdoesn": 1990,
      "Ġfeatures": 1991,
      "po": 1992,
      "ule": 1993,
      "Ġtal": 1994,
      "ute": 1995,
      "Ġrise": 1996,
      "une": 1997,
      "iple": 1998,
      "ossible": 1999,
      "Ġvideos": 2000,
      "ables": 2001,
      "ocks": 2002,
      "ffic": 2003,
      "Ġcity": 2004,
      "Ġwik": 2005,
      "db": 2006,
      "ders": 2007,
      "pa": 2008,
      "Ġside": 2009,
      "acing": 2010,
      "Ġroad": 2011,
      "aving": 2012,
      "Ġ50": 2013,
      "ledge": 2014,
      "erc": 2015,
      "Ġmain": 2016,
      "Ġdynam": 2017,
      "Ġans": 2018,
      "acts": 2019,
      "raw": 2020,
      "aily": 2021,
      "Ġgoing": 2022,
      "Ġeval": 2023,
      "ences": 2024,
      "Ġremote": 2025,
      "Ġhacker": 2026,
      "vent": 2027,
      "Ġpath": 2028,
      "Ġ11": 2029,
      "Ġswitch": 2030,
      "Ġenviron": 2031,
      "ibility": 2032,
      "Ġcolor": 2033,
      "Ġbring": 2034,
      "Ġhardware": 2035,
      "Ġvirt": 2036,
      "Ġruby": 2037,
      "Ġ0": 2038,
      "iring": 2039,
      "Ġcanad": 2040,
      "ache": 2041,
      "Ġgets": 2042,
      "Ġannounces": 2043,
      "Ġfact": 2044,
      "Ġfund": 2045,
      "Ġec": 2046,
      "ession": 2047,
      "Ġamd": 2048,
      "Ġversion": 2049,
      "Ġcrisis": 2050,
      "aff": 2051,
      "kit": 2052,
      "Ġice": 2053,
      "Ġvi": 2054,
      "Ġassistant": 2055,
      "ault": 2056,
      "Ġfight": 2057,
      "Ġmight": 2058,
      "Ġhour": 2059,
      "eler": 2060,
      "ples": 2061,
      "Ġrag": 2062,
      "Ġautonom": 2063,
      "Ġapproach": 2064,
      "wards": 2065,
      "erpr": 2066,
      "Ġdark": 2067,
      "Ġbeg": 2068,
      "ators": 2069,
      "Ġmathem": 2070,
      "Ġeasy": 2071,
      "bu": 2072,
      "ora": 2073,
      "Ġdock": 2074,
      "Ġdrop": 2075,
      "Ġdaily": 2076,
      "urs": 2077,
      "ames": 2078,
      "Ġplug": 2079,
      "Ġengineers": 2080,
      "Ġoffice": 2081,
      "Ġfunction": 2082,
      "Ġwritten": 2083,
      "Ġrussia": 2084,
      "bre": 2085,
      "cle": 2086,
      "port": 2087,
      "ources": 2088,
      "ange": 2089,
      "2018": 2090,
      "Ġinfrastructure": 2091,
      "Ġwere": 2092,
      "Ġneural": 2093,
      "Ġconvers": 2094,
      "Ġscr": 2095,
      "Ġboard": 2096,
      "Ġera": 2097,
      "Ġhtml": 2098,
      "Ġcamer": 2099,
      "Ġconnect": 2100,
      "Ġbenchmark": 2101,
      "ton": 2102,
      "Ġpdf": 2103,
      "Ġbin": 2104,
      "Ġgerman": 2105,
      "Ġnat": 2106,
      "oph": 2107,
      "Ġrock": 2108,
      "dflare": 2109,
      "Ġinference": 2110,
      "Ġnetworks": 2111,
      "Ġcosts": 2112,
      "Ġlooking": 2113,
      "Ġidea": 2114,
      "Ġlinked": 2115,
      "':": 2116,
      "por": 2117,
      "tc": 2118,
      "Ġsave": 2119,
      "Ġcat": 2120,
      "Ġpip": 2121,
      "Ġvol": 2122,
      "Ġcore": 2123,
      "Ġscale": 2124,
      "Ġminimal": 2125,
      "Ġanyone": 2126,
      "rent": 2127,
      "Ġcloudflare": 2128,
      "Ġboost": 2129,
      "Ġreveals": 2130,
      "ene": 2131,
      "Ġhappen": 2132,
      "go": 2133,
      "Ġpaper": 2134,
      "Ġwom": 2135,
      "ots": 2136,
      "Ġkub": 2137,
      "Ġdeepseek": 2138,
      "Ġtechnical": 2139,
      "ui": 2140,
      "uation": 2141,
      "Ġsand": 2142,
      "Ġmig": 2143,
      "antic": 2144,
      "Ġauto": 2145,
      "ather": 2146,
      "Ġkernel": 2147,
      "get": 2148,
      "Ġcult": 2149,
      "Ġpage": 2150,
      "ival": 2151,
      "aste": 2152,
      "Ġprice": 2153,
      "Ġleak": 2154,
      "Ġaccount": 2155,
      "Ġrecor": 2156,
      "Ġcopy": 2157,
      "da": 2158,
      "Ġpy": 2159,
      "Ġdream": 2160,
      "Ġfoundation": 2161,
      "Ġpal": 2162,
      "Ġhom": 2163,
      "Ġlearned": 2164,
      "Ġmot": 2165,
      "Ġbel": 2166,
      "Ġ40": 2167,
      "Ġcurs": 2168,
      "Ġpod": 2169,
      "Ġline": 2170,
      "Ġtoday": 2171,
      "ider": 2172,
      "word": 2173,
      "Ġcreated": 2174,
      "Ġanti": 2175,
      "Ġbitcoin": 2176,
      "Ġiran": 2177,
      "Ġvirtual": 2178,
      "ination": 2179,
      "Ġhear": 2180,
      "acc": 2181,
      "Ġcharg": 2182,
      "ides": 2183,
      "Ġsecond": 2184,
      "Ġslow": 2185,
      "Ġservices": 2186,
      "base": 2187,
      "Ġnav": 2188,
      "agram": 2189,
      "Ġeuropean": 2190,
      "Ġrussian": 2191,
      "Ġfeedback": 2192,
      "mon": 2193,
      "Ġop": 2194,
      "ised": 2195,
      "Ġlic": 2196,
      "Ġmeas": 2197,
      "Ġspacex": 2198,
      "generated": 2199,
      "Ġdifferent": 2200,
      "mers": 2201,
      "Ġhad": 2202,
      "itter": 2203,
      "Ġlarg": 2204,
      "eline": 2205,
      "Ġmoon": 2206,
      "Ġscreen": 2207,
      "Ġsug": 2208,
      "Ġobser": 2209,
      "Ġknowledge": 2210,
      "Ġdistribut": 2211,
      "Ġcancer": 2212,
      "Ġtarget": 2213,
      "Ġcir": 2214,
      "utes": 2215,
      "Ġexplain": 2216,
      "Ġpolit": 2217,
      "Ġprotect": 2218,
      "ng": 2219,
      "ystem": 2220,
      "Ġstep": 2221,
      "Ġpredict": 2222,
      "ven": 2223,
      "ernet": 2224,
      "edia": 2225,
      "ilities": 2226,
      "Ġdevices": 2227,
      "Ġcontain": 2228,
      "Ġtrade": 2229,
      "Ġteams": 2230,
      "Ġautonomous": 2231,
      "ah": 2232,
      "house": 2233,
      "Ġtar": 2234,
      "Ġcard": 2235,
      "Ġhot": 2236,
      "Ġgreen": 2237,
      "idence": 2238,
      "Ġsubs": 2239,
      "Ġpostgresql": 2240,
      "Ġefficient": 2241,
      "fs": 2242,
      "Ġaust": 2243,
      "Ġpu": 2244,
      "Ġduring": 2245,
      "Ġey": 2246,
      "dev": 2247,
      "asp": 2248,
      "Ġstre": 2249,
      "Ġnode": 2250,
      "Ġeven": 2251,
      "Ġinsp": 2252,
      "Ġcapt": 2253,
      "199": 2254,
      "Ġcoun": 2255,
      "Ġpot": 2256,
      "Ġmen": 2257,
      "ars": 2258,
      "Ġunl": 2259,
      "ries": 2260,
      "Ġclaims": 2261,
      "Ġbecom": 2262,
      "driven": 2263,
      "Ġstreaming": 2264,
      "Ġskills": 2265,
      "Ġclean": 2266,
      "Ġdocker": 2267,
      "100": 2268,
      "ground": 2269,
      "Ġaway": 2270,
      "ork": 2271,
      "Ġinformation": 2272,
      "Ġvector": 2273,
      "Ġlevel": 2274,
      "Ġcontin": 2275,
      "Ġacceler": 2276,
      "Ġbiggest": 2277,
      "Ġproblems": 2278,
      "Ġinvestig": 2279,
      "Ġchips": 2280,
      "Ġlessons": 2281,
      "Ġlove": 2282,
      "ernetes": 2283,
      "right": 2284,
      "Ġmust": 2285,
      "Ġanim": 2286,
      "Ġcomb": 2287,
      "ission": 2288,
      "Ġtracker": 2289,
      "met": 2290,
      "Ġwhite": 2291,
      "Ġconsum": 2292,
      "idden": 2293,
      "Ġbattery": 2294,
      "30": 2295,
      "link": 2296,
      "raine": 2297,
      "2017": 2298,
      "Ġsupply": 2299,
      "Ġneeds": 2300,
      "Ġtests": 2301,
      "Ġideas": 2302,
      "pass": 2303,
      "Ġcss": 2304,
      "cept": 2305,
      "Ġscri": 2306,
      "Ġcreating": 2307,
      "Ġflight": 2308,
      "Ġcrash": 2309,
      "dd": 2310,
      "ints": 2311,
      "Ġfour": 2312,
      "Ġfake": 2313,
      "Ġjson": 2314,
      "Ġorder": 2315,
      "Ġpowered": 2316,
      "ificial": 2317,
      "ners": 2318,
      "yc": 2319,
      "Ġcpu": 2320,
      "Ġgold": 2321,
      "Ġstock": 2322,
      "Ġcook": 2323,
      "aves": 2324,
      "Ġswift": 2325,
      "Ġturns": 2326,
      "Ġtracking": 2327,
      "omm": 2328,
      "Ġjud": 2329,
      "Ġlapt": 2330,
      "Ġdebug": 2331,
      "Ġgrowth": 2332,
      "Ġkubernetes": 2333,
      "gn": 2334,
      "ned": 2335,
      "ode": 2336,
      "ana": 2337,
      "omet": 2338,
      "uth": 2339,
      "ands": 2340,
      "Ġscam": 2341,
      "Ġtex": 2342,
      "Ġseries": 2343,
      "Ġlanguages": 2344,
      "Ġtransl": 2345,
      "Ġinstall": 2346,
      "Ġdetect": 2347,
      "Ġissues": 2348,
      "Ġsatell": 2349,
      "Ġindex": 2350,
      "icle": 2351,
      "Ġve": 2352,
      "ember": 2353,
      "Ġuses": 2354,
      "Ġ16": 2355,
      "Ġquick": 2356,
      "Ġ25": 2357,
      "Ġevolution": 2358,
      "Ġperf": 2359,
      "Ġpolicy": 2360,
      "Ġremov": 2361,
      "Ġbecome": 2362,
      "Ġmonths": 2363,
      "Ġreasoning": 2364,
      "Ġaltman": 2365,
      "cr": 2366,
      "xy": 2367,
      "agent": 2368,
      "Ġrace": 2369,
      "Ġartificial": 2370,
      "Ġbillion": 2371,
      "Ġdiscovery": 2372,
      "ollow": 2373,
      "Ġreveal": 2374,
      "Ġreverse": 2375,
      "cent": 2376,
      "ych": 2377,
      "Ġ.": 2378,
      "Ġaction": 2379,
      "Ġaround": 2380,
      "icles": 2381,
      "uses": 2382,
      "Ġkids": 2383,
      "Ġschem": 2384,
      "Ġcenter": 2385,
      "Ġexperiment": 2386,
      "Ġcursor": 2387,
      "nov": 2388,
      "writ": 2389,
      "Ġill": 2390,
      "red": 2391,
      "oms": 2392,
      "Ġprob": 2393,
      "Ġimm": 2394,
      "Ġnote": 2395,
      "Ġukraine": 2396,
      "Ġrevolution": 2397,
      "Ġphotos": 2398,
      "Ġlatest": 2399,
      "11": 2400,
      "80": 2401,
      "Ġtv": 2402,
      "Ġpain": 2403,
      "Ġanc": 2404,
      "Ġyet": 2405,
      "Ġquality": 2406,
      "Ġlonger": 2407,
      "Ġfiref": 2408,
      "Ġtimes": 2409,
      "Ġtypescript": 2410,
      "press": 2411,
      "Ġsen": 2412,
      "Ġsan": 2413,
      "Ġmist": 2414,
      "Ġwhile": 2415,
      "Ġclick": 2416,
      "Ġscan": 2417,
      "Ġgeneral": 2418,
      "2016": 2419,
      "weight": 2420,
      "cription": 2421,
      "Ġjava": 2422,
      "ography": 2423,
      "Ġest": 2424,
      "Ġsens": 2425,
      "enge": 2426,
      "ung": 2427,
      "ope": 2428,
      "Ġeveryone": 2429,
      "Ġcalls": 2430,
      "iant": 2431,
      "lines": 2432,
      "Ġsle": 2433,
      "Ġpri": 2434,
      "Ġmor": 2435,
      "Ġher": 2436,
      "acter": 2437,
      "amp": 2438,
      "berry": 2439,
      "Ġrobots": 2440,
      "Ġattacks": 2441,
      "reg": 2442,
      "Ġfine": 2443,
      "ctions": 2444,
      "Ġexist": 2445,
      "Ġ14": 2446,
      "Ġlines": 2447,
      "berg": 2448,
      "ught": 2449,
      "Ġbreach": 2450,
      "Ġenterpr": 2451,
      "Ġreddit": 2452,
      "Ġpackage": 2453,
      "Ġpodcast": 2454,
      "Ġsd": 2455,
      "Ġden": 2456,
      "stack": 2457,
      "Ġnob": 2458,
      "Ġworth": 2459,
      "Ġservers": 2460,
      "Ġcars": 2461,
      "Ġphysics": 2462,
      "map": 2463,
      "ring": 2464,
      "Ġwall": 2465,
      "lete": 2466,
      "Ġshad": 2467,
      "Ġchain": 2468,
      "unk": 2469,
      "Ġ17": 2470,
      "Ġtraffic": 2471,
      "rupt": 2472,
      "Ġproducts": 2473,
      "Ġquestions": 2474,
      "Ġstandard": 2475,
      "bon": 2476,
      "ories": 2477,
      "aries": 2478,
      "Ġkore": 2479,
      "Ġrout": 2480,
      "Ġdevice": 2481,
      "duct": 2482,
      "Ġstudio": 2483,
      "Ġvalley": 2484,
      "Ġautomation": 2485,
      "Ġupdates": 2486,
      "head": 2487,
      "cc": 2488,
      "onds": 2489,
      "Ġfav": 2490,
      "Ġhor": 2491,
      "emb": 2492,
      "Ġenh": 2493,
      "Ġadmin": 2494,
      "Ġresults": 2495,
      "Ġevent": 2496,
      "Ġmarkdown": 2497,
      "cont": 2498,
      "hosted": 2499,
      "Ġlargest": 2500,
      "ees": 2501,
      "ta": 2502,
      "Ġmind": 2503,
      "Ġbur": 2504,
      "Ġbir": 2505,
      "andom": 2506,
      "Ġimport": 2507,
      "Ġsimpl": 2508,
      "ological": 2509,
      "Ġreading": 2510,
      "ync": 2511,
      "Ġsynth": 2512,
      "Ġcompiler": 2513,
      "Ġpsych": 2514,
      "Ġfoc": 2515,
      "ata": 2516,
      "Ġreach": 2517,
      "Ġut": 2518,
      "Ġemerg": 2519,
      "Ġteach": 2520,
      "2015": 2521,
      "claw": 2522,
      "Ġthinking": 2523,
      "Ġeconomy": 2524,
      "Ġanalyt": 2525,
      "Ġhalf": 2526,
      "eing": 2527,
      "most": 2528,
      "sm": 2529,
      "ining": 2530,
      "Ġfood": 2531,
      "Ġdou": 2532,
      "Ġdies": 2533,
      "icing": 2534,
      "Ġrails": 2535,
      "Ġdrive": 2536,
      "Ġmultiple": 2537,
      "Ġapplication": 2538,
      "ead": 2539,
      "Ġcool": 2540,
      "abor": 2541,
      "Ġunve": 2542,
      "Ġprices": 2543,
      "Ġinterface": 2544,
      "Ġruns": 2545,
      "Ġminutes": 2546,
      "Ġhackers": 2547,
      "Ġauthor": 2548,
      "bsd": 2549,
      "Ġtariff": 2550,
      "Ġmater": 2551,
      "Ġthing": 2552,
      "astic": 2553,
      "Ġmax": 2554,
      "2014": 2555,
      "Ġfirm": 2556,
      "li": 2557,
      "rets": 2558,
      "rap": 2559,
      "Ġstaff": 2560,
      "Ġcompon": 2561,
      "Ġdise": 2562,
      "Ġrecomm": 2563,
      "Ġbrok": 2564,
      "Ġfinanc": 2565,
      "Ġdetection": 2566,
      "Ġdistributed": 2567,
      "Ġfirefox": 2568,
      "Ġtakes": 2569,
      "Ġsus": 2570,
      "Ġdest": 2571,
      "Ġgive": 2572,
      "Ġname": 2573,
      "Ġnational": 2574,
      "Ġsto": 2575,
      "Ġcome": 2576,
      "Ġcompl": 2577,
      "anger": 2578,
      "Ġfeel": 2579,
      "Ġsoon": 2580,
      "Ġsqlite": 2581,
      "Ġthought": 2582,
      "Ġmathemat": 2583,
      "32": 2584,
      "Ġaff": 2585,
      "Ġsin": 2586,
      "Ġhidden": 2587,
      "Ġdepend": 2588,
      "ifying": 2589,
      "Ġhttp": 2590,
      "Ġmaps": 2591,
      "Ġllama": 2592,
      "Ġenvironment": 2593,
      "Ġhours": 2594,
      "ause": 2595,
      "cel": 2596,
      "not": 2597,
      "Ġsun": 2598,
      "Ġfig": 2599,
      "Ġfollow": 2600,
      "Ġwal": 2601,
      "Ġtoken": 2602,
      "Ġchildren": 2603,
      "Ġvulnerability": 2604,
      "Ġic": 2605,
      "rest": 2606,
      "ste": 2607,
      "raud": 2608,
      "pens": 2609,
      "Ġtrial": 2610,
      "Ġgoes": 2611,
      "Ġcollection": 2612,
      "Ġprompts": 2613,
      "Ġesc": 2614,
      "Ġmilit": 2615,
      "Ġnumber": 2616,
      "Ġpuzz": 2617,
      "25": 2618,
      "Ġtaking": 2619,
      "Ġsent": 2620,
      "Ġsound": 2621,
      "Ġpast": 2622,
      "Ġmass": 2623,
      "Ġmatch": 2624,
      "iling": 2625,
      "Ġproof": 2626,
      "ume": 2627,
      "Ġscal": 2628,
      "Ġcommon": 2629,
      "Ġglass": 2630,
      "Ġadvanced": 2631,
      "Ġavoid": 2632,
      "Ġbehav": 2633,
      "Ġdomain": 2634,
      "Ġjourn": 2635,
      "Ġsouth": 2636,
      "Ġscratch": 2637,
      "Ġaustral": 2638,
      "ges": 2639,
      "no": 2640,
      "Ġtable": 2641,
      "Ġdash": 2642,
      "Ġshe": 2643,
      "Ġrandom": 2644,
      "Ġcogn": 2645,
      "Ġtravel": 2646,
      "Ġevidence": 2647,
      "Ġprogress": 2648,
      "Ġreality": 2649,
      "Ġbecame": 2650,
      "Ġpoint": 2651,
      "Ġradio": 2652,
      "Ġimplementation": 2653,
      "Ġnatural": 2654,
      "Ġobserv": 2655,
      "mit": 2656,
      "over": 2657,
      "rated": 2658,
      "Ġ#": 2659,
      "Ġtas": 2660,
      "Ġfac": 2661,
      "dings": 2662,
      "Ġamericans": 2663,
      "Ġfunding": 2664,
      "Ġoptimization": 2665,
      "Ġlightweight": 2666,
      "Ġlayer": 2667,
      "Ġalgorithm": 2668,
      "Ġnorth": 2669,
      "Ġultra": 2670,
      "Ġinflu": 2671,
      "bi": 2672,
      "pace": 2673,
      "Ġnan": 2674,
      "Ġchess": 2675,
      "Ġrasp": 2676,
      "open": 2677,
      "izer": 2678,
      "echan": 2679,
      "Ġmanage": 2680,
      "Ġ24": 2681,
      "Ġprep": 2682,
      "Ġbeta": 2683,
      "Ġinstead": 2684,
      "Ġdownload": 2685,
      "Ġdemo": 2686,
      "Ġspeech": 2687,
      "Ġcuts": 2688,
      "Ġancient": 2689,
      "Ġenterprise": 2690,
      "Ġmaterial": 2691,
      "ians": 2692,
      "light": 2693,
      "sl": 2694,
      "Ġsame": 2695,
      "Ġpull": 2696,
      "esis": 2697,
      "Ġbrit": 2698,
      "Ġii": 2699,
      "Ġexam": 2700,
      "Ġthoughts": 2701,
      "Ġlittle": 2702,
      "Ġrender": 2703,
      "Ġchallenge": 2704,
      "Ġview": 2705,
      "Ġtask": 2706,
      "Ġfly": 2707,
      "Ġfounder": 2708,
      "Ġloss": 2709,
      "icks": 2710,
      "Ġnight": 2711,
      "acle": 2712,
      "ford": 2713,
      "Ġquery": 2714,
      "ored": 2715,
      "Ġparad": 2716,
      "Ġvalue": 2717,
      "Ġproductivity": 2718,
      "Ġstatic": 2719,
      "Ġcollabor": 2720,
      "Ġcanada": 2721,
      "Ġcamera": 2722,
      "pect": 2723,
      "ont": 2724,
      "Ġpur": 2725,
      "Ġprovid": 2726,
      "Ġraises": 2727,
      "Ġboot": 2728,
      "Ġrisks": 2729,
      "Ġcustomer": 2730,
      "Ġraspberry": 2731,
      "Ġram": 2732,
      "Ġbal": 2733,
      "Ġ13": 2734,
      "Ġ18": 2735,
      "Ġmean": 2736,
      "ruction": 2737,
      "Ġcollect": 2738,
      "Ġruntime": 2739,
      "inking": 2740,
      "Ġmini": 2741,
      "Ġedge": 2742,
      "Ġreleases": 2743,
      "Ġlegal": 2744,
      "Ġimprove": 2745,
      "Ġsurveill": 2746,
      "Ġanalytics": 2747,
      "ted": 2748,
      "zy": 2749,
      "Ġmit": 2750,
      "Ġhub": 2751,
      "ocr": 2752,
      "Ġscre": 2753,
      "Ġscaling": 2754,
      "Ġsecrets": 2755,
      "Ġboom": 2756,
      "Ġcarbon": 2757,
      "Ġarchive": 2758,
      "Ġgrid": 2759,
      "Ġstrategy": 2760,
      "Ġfamily": 2761,
      "embly": 2762,
      "fer": 2763,
      "med": 2764,
      "ways": 2765,
      "Ġfraud": 2766,
      "Ġpossible": 2767,
      "Ġmat": 2768,
      "Ġbid": 2769,
      "Ġaccoun": 2770,
      "Ġpowerful": 2771,
      "Ġmilitary": 2772,
      "xic": 2773,
      "Ġ200": 2774,
      "rep": 2775,
      "Ġthread": 2776,
      "Ġinnov": 2777,
      "Ġtrading": 2778,
      "Ġapis": 2779,
      "Ġfounders": 2780,
      "Ġbecause": 2781,
      "Ġsafe": 2782,
      "Ġmissing": 2783,
      "Ġsurvey": 2784,
      "Ġnearly": 2785,
      "Ġemployees": 2786,
      "Ġlawsuit": 2787,
      "Ġmethod": 2788,
      "hn": 2789,
      "side": 2790,
      "Ġdiv": 2791,
      "Ġsharing": 2792,
      "Ġmove": 2793,
      "ably": 2794,
      "ooks": 2795,
      "Ġconfir": 2796,
      "attle": 2797,
      "Ġmagic": 2798,
      "Ġcirc": 2799,
      "Ġstreet": 2800,
      "uf": 2801,
      "Ġtreat": 2802,
      "Ġspl": 2803,
      "Ġpress": 2804,
      "Ġpatch": 2805,
      "Ġele": 2806,
      "Ġcompar": 2807,
      "Ġspread": 2808,
      "Ġplant": 2809,
      "Ġflow": 2810,
      "Ġposts": 2811,
      "Ġboeing": 2812,
      "Ġsurpr": 2813,
      "Ġinstant": 2814,
      "Ġscientific": 2815,
      "Ġelectron": 2816,
      "Ġastron": 2817,
      "ether": 2818,
      "Ġcritical": 2819,
      "Ġpatterns": 2820,
      "Ġsandbox": 2821,
      "gl": 2822,
      "Ġtail": 2823,
      "Ġmom": 2824,
      "Ġmatter": 2825,
      "Ġmechan": 2826,
      "arter": 2827,
      "Ġnix": 2828,
      "Ġship": 2829,
      "Ġopenclaw": 2830,
      "Ġmarketing": 2831,
      "Ġcustomers": 2832,
      "Ġissue": 2833,
      "Ġperfect": 2834,
      "Ġsleep": 2835,
      "Ġsurveillance": 2836,
      "ged": 2837,
      "ha": 2838,
      "ris": 2839,
      "rist": 2840,
      "ters": 2841,
      "Ġtren": 2842,
      "Ġfa": 2843,
      "Ġpix": 2844,
      "Ġhall": 2845,
      "Ġhiring": 2846,
      "Ġlik": 2847,
      "Ġshell": 2848,
      "Ġrule": 2849,
      "ears": 2850,
      "akers": 2851,
      "Ġleft": 2852,
      "Ġphil": 2853,
      "Ġstudents": 2854,
      "Ġready": 2855,
      "Ġmachines": 2856,
      "Ġsteam": 2857,
      "offs": 2858,
      "Ġfederal": 2859,
      "gs": 2860,
      "Ġcatch": 2861,
      "Ġmid": 2862,
      "Ġyork": 2863,
      "Ġusage": 2864,
      "apers": 2865,
      "Ġdoing": 2866,
      "ief": 2867,
      "Ġinterest": 2868,
      "Ġrare": 2869,
      "Ġkeyboard": 2870,
      "Ġconcern": 2871,
      "Ġchalleng": 2872,
      "Ġlaptop": 2873,
      "86": 2874,
      "apt": 2875,
      "fri": 2876,
      "sa": 2877,
      "Ġsav": 2878,
      "Ġbri": 2879,
      "Ġgas": 2880,
      "ecurity": 2881,
      "Ġbeaut": 2882,
      "Ġtele": 2883,
      "Ġsolution": 2884,
      "Ġcrack": 2885,
      "ances": 2886,
      "Ġformer": 2887,
      "Ġreplace": 2888,
      "Ġaddress": 2889,
      "Ġpotential": 2890,
      "Ġtasks": 2891,
      "mb": 2892,
      "oj": 2893,
      "Ġfive": 2894,
      "Ġoil": 2895,
      "Ġliving": 2896,
      "ional": 2897,
      "Ġef": 2898,
      "pper": 2899,
      "through": 2900,
      "abilities": 2901,
      "umb": 2902,
      "Ġarg": 2903,
      "rones": 2904,
      "Ġexploring": 2905,
      "ready": 2906,
      "Ġidentity": 2907,
      "Ġmonitoring": 2908,
      "Ġcalculator": 2909,
      "12": 2910,
      "Ġlock": 2911,
      "Ġload": 2912,
      "agn": 2913,
      "place": 2914,
      "Ġsea": 2915,
      "Ġextract": 2916,
      "Ġautomated": 2917,
      "Ġgaming": 2918,
      "Ġconfig": 2919,
      "Ġanalyz": 2920,
      "Ġfinancial": 2921,
      "64": 2922,
      "tain": 2923,
      "atives": 2924,
      "Ġpos": 2925,
      "Ġhous": 2926,
      "Ġrich": 2927,
      "2025": 2928,
      "ipedia": 2929,
      "Ġflu": 2930,
      "ship": 2931,
      "Ġprocessing": 2932,
      "Ġscript": 2933,
      "Ġtexas": 2934,
      "Ġsatellite": 2935,
      "40": 2936,
      "tech": 2937,
      "Ġcs": 2938,
      "level": 2939,
      "iles": 2940,
      "asing": 2941,
      "Ġstates": 2942,
      "ived": 2943,
      "world": 2944,
      "Ġheat": 2945,
      "Ġfinding": 2946,
      "Ġpolice": 2947,
      "Ġparal": 2948,
      "Ġrisc": 2949,
      "Ġsched": 2950,
      "ban": 2951,
      "pc": 2952,
      "ura": 2953,
      "Ġtor": 2954,
      "Ġcra": 2955,
      "Ġwell": 2956,
      "Ġbase": 2957,
      "Ġdue": 2958,
      "arm": 2959,
      "idge": 2960,
      "Ġbub": 2961,
      "Ġbuilder": 2962,
      "Ġdisplay": 2963,
      "Ġmyth": 2964,
      "Ġrepos": 2965,
      "ishing": 2966,
      "Ġpoly": 2967,
      "Ġsurv": 2968,
      "Ġvalid": 2969,
      "Ġeffects": 2970,
      "Ġdemand": 2971,
      "Ġsnap": 2972,
      "Ġcapital": 2973,
      "Ġculture": 2974,
      "Ġveh": 2975,
      "ga": 2976,
      "so": 2977,
      "Ġnpm": 2978,
      "Ġreviews": 2979,
      "asc": 2980,
      "Ġconver": 2981,
      "Ġagi": 2982,
      "Ġamid": 2983,
      "Ġupgra": 2984,
      "Ġlinks": 2985,
      "Ġprevent": 2986,
      "Ġdrone": 2987,
      "Ġdocs": 2988,
      "Ġletter": 2989,
      "Ġuniversal": 2990,
      "Ġsummar": 2991,
      "ben": 2992,
      "ij": 2993,
      "Ġach": 2994,
      "ined": 2995,
      "Ġsom": 2996,
      "Ġgm": 2997,
      "2013": 2998,
      "Ġobject": 2999,
      "Ġtempl": 3000,
      "Ġexecut": 3001,
      "Ġfuel": 3002,
      "Ġviol": 3003,
      "iable": 3004,
      "Ġson": 3005,
      "Ġfoss": 3006,
      "Ġfoot": 3007,
      "Ġgn": 3008,
      "Ġdoct": 3009,
      "Ġpricing": 3010,
      "Ġseek": 3011,
      "Ġpresident": 3012,
      "Ġintroduction": 3013,
      "Ġfacebook": 3014,
      "Ġrecords": 3015,
      "gu": 3016,
      "Ġsqu": 3017,
      "Ġmental": 3018,
      "Ġdrones": 3019,
      "Ġub": 3020,
      "Ġvacc": 3021,
      "Ġonce": 3022,
      "Ġmov": 3023,
      "Ġweap": 3024,
      "Ġenough": 3025,
      "Ġtry": 3026,
      "Ġprint": 3027,
      "Ġbreaking": 3028,
      "Ġsky": 3029,
      "Ġwebsites": 3030,
      "Ġcybers": 3031,
      "Ġalgorithms": 3032,
      "Ġintegration": 3033,
      "Ġevalu": 3034,
      "bm": 3035,
      "ina": 3036,
      "Ġta": 3037,
      "Ġcit": 3038,
      "order": 3039,
      "Ġther": 3040,
      "Ġrate": 3041,
      "using": 3042,
      "Ġdatas": 3043,
      "Ġcontract": 3044,
      "Ġsimulator": 3045,
      "Ġdriver": 3046,
      "comp": 3047,
      "Ġobs": 3048,
      "Ġnumbers": 3049,
      "ique": 3050,
      "Ġpopular": 3051,
      "Ġbasic": 3052,
      "Ġencryption": 3053,
      "Ġjournal": 3054,
      "list": 3055,
      "sd": 3056,
      "Ġcrow": 3057,
      "Ġmer": 3058,
      "Ġeth": 3059,
      "omb": 3060,
      "ray": 3061,
      "imer": 3062,
      "agon": 3063,
      "Ġcovid": 3064,
      "Ġdoom": 3065,
      "Ġcommit": 3066,
      "Ġcomputers": 3067,
      "Ġbox": 3068,
      "Ġslack": 3069,
      "key": 3070,
      "Ġhyper": 3071,
      "Ġplugin": 3072,
      "Ġeffor": 3073,
      "ios": 3074,
      "mp": 3075,
      "opt": 3076,
      "su": 3077,
      "uff": 3078,
      "Ġtro": 3079,
      "Ġsites": 3080,
      "ening": 3081,
      "Ġfield": 3082,
      "Ġple": 3083,
      "Ġwalk": 3084,
      "Ġthen": 3085,
      "Ġgal": 3086,
      "Ġgate": 3087,
      "lel": 3088,
      "Ġstable": 3089,
      "Ġspy": 3090,
      "Ġaren": 3091,
      "ogn": 3092,
      "Ġoutage": 3093,
      "Ġflo": 3094,
      "Ġoffline": 3095,
      "Ġattention": 3096,
      "Ġfilm": 3097,
      "Ġformat": 3098,
      "Ġuniverse": 3099,
      "Ġlimit": 3100,
      "Ġrecommend": 3101,
      "Ġsince": 3102,
      "rust": 3103,
      "Ġten": 3104,
      "Ġsend": 3105,
      "org": 3106,
      "Ġfaces": 3107,
      "atory": 3108,
      "Ġmaker": 3109,
      "Ġopp": 3110,
      "Ġlif": 3111,
      "Ġgiant": 3112,
      "chain": 3113,
      "Ġproper": 3114,
      "api": 3115,
      "ared": 3116,
      "Ġwhats": 3117,
      "Ġcodex": 3118,
      "Ġblue": 3119,
      "ugg": 3120,
      "Ġbroad": 3121,
      "Ġexplor": 3122,
      "roll": 3123,
      "Ġerror": 3124,
      "scale": 3125,
      "Ġmars": 3126,
      "Ġlabs": 3127,
      "Ġmessages": 3128,
      "marks": 3129,
      "Ġcheap": 3130,
      "Ġturning": 3131,
      "Ġfriends": 3132,
      "Ġtalks": 3133,
      "Ġdynamic": 3134,
      "Ġtariffs": 3135,
      "Ġdisease": 3136,
      "her": 3137,
      "ove": 3138,
      "ua": 3139,
      "erv": 3140,
      "Ġcash": 3141,
      "Ġduck": 3142,
      "isco": 3143,
      "Ġincl": 3144,
      "ota": 3145,
      "Ġalmost": 3146,
      "Ġuseful": 3147,
      "Ġstarted": 3148,
      "Ġcurrent": 3149,
      "Ġtwitter": 3150,
      "Ġleaders": 3151,
      "Ġverification": 3152,
      "Ġbegin": 3153,
      "Ġsdk": 3154,
      "Ġbehavior": 3155,
      "Ġaccounts": 3156,
      "Ã©": 3157,
      "Ġdj": 3158,
      "Ġdam": 3159,
      "Ġlis": 3160,
      "Ġtowards": 3161,
      "Ġplace": 3162,
      "Ġrole": 3163,
      "Ġacade": 3164,
      "ails": 3165,
      "Ġsequ": 3166,
      "Ġhacking": 3167,
      "flows": 3168,
      "Ġreven": 3169,
      "Ġsemantic": 3170,
      "iet": 3171,
      "sql": 3172,
      "vm": 3173,
      "Ġrom": 3174,
      "Ġaw": 3175,
      "Ġpure": 3176,
      "Ġwild": 3177,
      "Ġthird": 3178,
      "Ġlets": 3179,
      "Ġanything": 3180,
      "style": 3181,
      "acs": 3182,
      "rael": 3183,
      "Ġyoung": 3184,
      "Ġmoving": 3185,
      "illa": 3186,
      "Ġorch": 3187,
      "Ġmyst": 3188,
      "Ġwarns": 3189,
      "Ġdiffusion": 3190,
      "Ġcareer": 3191,
      "Ġmigr": 3192,
      "fi": 3193,
      "Ġfit": 3194,
      "atically": 3195,
      "Ġpen": 3196,
      "Ġmast": 3197,
      "Ġthese": 3198,
      "Ġelection": 3199,
      "verage": 3200,
      "osure": 3201,
      "apse": 3202,
      "Ġadds": 3203,
      "Ġzig": 3204,
      "comput": 3205,
      "flix": 3206,
      "Ġfailure": 3207,
      "Ġoperating": 3208,
      "iance": 3209,
      "ka": 3210,
      "Ġtut": 3211,
      "Ġfusion": 3212,
      "Ġways": 3213,
      "arch": 3214,
      "Ġinject": 3215,
      "edly": 3216,
      "oud": 3217,
      "utions": 3218,
      "Ġchem": 3219,
      "Ġunt": 3220,
      "ups": 3221,
      "issions": 3222,
      "Ġmedical": 3223,
      "Ġchanged": 3224,
      "Ġesp": 3225,
      "Ġphysical": 3226,
      "where": 3227,
      "Ġbroken": 3228,
      "Ġhousing": 3229,
      "Ġparallel": 3230,
      "come": 3231,
      "Ġcert": 3232,
      "Ġpent": 3233,
      "Ġpapers": 3234,
      "Ġbul": 3235,
      "Ġforce": 3236,
      "Ġisrael": 3237,
      "Ġweather": 3238,
      "Ġatl": 3239,
      "Ġseconds": 3240,
      "encies": 3241,
      "Ġ199": 3242,
      "Ġjohn": 3243,
      "ething": 3244,
      "Ġtokens": 3245,
      "Ġpractical": 3246,
      "Ġhappened": 3247,
      "Ġwomen": 3248,
      "Ġbirth": 3249,
      "Ġbubble": 3250,
      "60": 3251,
      "hing": 3252,
      "my": 3253,
      "Ġ&": 3254,
      "Ġmaster": 3255,
      "Ġdns": 3256,
      "Ġdna": 3257,
      "Ġeg": 3258,
      "erson": 3259,
      "Ġcho": 3260,
      "Ġworse": 3261,
      "Ġtrying": 3262,
      "Ġaccur": 3263,
      "Ġrecent": 3264,
      "Ġdecent": 3265,
      "Ġeduc": 3266,
      "new": 3267,
      "Ġcampa": 3268,
      "Ġcopyright": 3269,
      "Ġnavig": 3270,
      "Ġcognitive": 3271,
      "cd": 3272,
      "self": 3273,
      "Ġpet": 3274,
      "Ġmir": 3275,
      "Ġwire": 3276,
      "Ġbab": 3277,
      "Ġstrong": 3278,
      "Ġstyle": 3279,
      "Ġkind": 3280,
      "Ġalph": 3281,
      "Ġcomplete": 3282,
      "Ġresources": 3283,
      "Ġworkflows": 3284,
      "Ġgenerated": 3285,
      "Ġbrand": 3286,
      "Ġelse": 3287,
      "Ġplatforms": 3288,
      "Ġautomate": 3289,
      "Ġharv": 3290,
      "Ġdidn": 3291,
      "auth": 3292,
      "Ġwordpress": 3293,
      "Ġcells": 3294,
      "Ġpaid": 3295,
      "Ġinternational": 3296,
      "Ġsomething": 3297,
      "Ġcampaign": 3298,
      "Ġtree": 3299,
      "Ġpir": 3300,
      "Ġmi": 3301,
      "Ġbody": 3302,
      "iler": 3303,
      "istration": 3304,
      "Ġflag": 3305,
      "Ġsimul": 3306,
      "Ġ500": 3307,
      "Ġgrok": 3308,
      "Ġ80": 3309,
      "Ġrequire": 3310,
      "Ġlicense": 3311,
      "Ġunlock": 3312,
      "Ġcomponents": 3313,
      "stein": 3314,
      "can": 3315,
      "Ġahead": 3316,
      "Ġhab": 3317,
      "Ġbay": 3318,
      "Ġdanger": 3319,
      "eless": 3320,
      "rie": 3321,
      "Ġorders": 3322,
      "Ġblocks": 3323,
      "Ġenglish": 3324,
      "Ġcreator": 3325,
      "Ġfunctions": 3326,
      "Ġdeterm": 3327,
      "Ġactions": 3328,
      "Ġbenef": 3329,
      "Ġsync": 3330,
      "Ġauthent": 3331,
      "Ġfrontier": 3332,
      "Ġanswer": 3333,
      "Ġfavor": 3334,
      "Ġcomparison": 3335,
      "Ġmoment": 3336,
      "Ġachie": 3337,
      "Ġwhatsapp": 3338,
      "16": 3339,
      "500": 3340,
      "ait": 3341,
      "bra": 3342,
      "sec": 3343,
      "ĠâĢ": 3344,
      "ino": 3345,
      "Ġhyp": 3346,
      "Ġgar": 3347,
      "empt": 3348,
      "phones": 3349,
      "Ġworkflow": 3350,
      "endly": 3351,
      "Ġreports": 3352,
      "Ġdefense": 3353,
      "Ġadvice": 3354,
      "Ġhistor": 3355,
      "Ġdiscovered": 3356,
      "Ġmission": 3357,
      "Ġcorpor": 3358,
      "Ġbinary": 3359,
      "Ġorchest": 3360,
      "Ġmystery": 3361,
      "part": 3362,
      "rum": 3363,
      "Ġwent": 3364,
      "olt": 3365,
      "ively": 3366,
      "Ġcha": 3367,
      "Ġcomes": 3368,
      "osystem": 3369,
      "Ġalleg": 3370,
      "Ġemp": 3371,
      "Ġcredit": 3372,
      "Ġnetflix": 3373,
      "ribution": 3374,
      "Ġcountry": 3375,
      "Ġreduce": 3376,
      "Ġspotify": 3377,
      "Ġwikipedia": 3378,
      "Ġgermany": 3379,
      "Ġjudge": 3380,
      "Ġpuzzle": 3381,
      "bench": 3382,
      "ipping": 3383,
      "vity": 3384,
      "Ġpages": 3385,
      "Ġparen": 3386,
      "Ġbattle": 3387,
      "Ġgpus": 3388,
      "Ġrein": 3389,
      "Ġneu": 3390,
      "ements": 3391,
      "ades": 3392,
      "iful": 3393,
      "Ġopens": 3394,
      "Ġflash": 3395,
      "Ġevol": 3396,
      "Ġsold": 3397,
      "Ġdebt": 3398,
      "Ġincident": 3399,
      "Ġinvestors": 3400,
      "ollar": 3401,
      "Ġprediction": 3402,
      "iddle": 3403,
      "Ġselling": 3404,
      "Ġembedded": 3405,
      "Ġrespons": 3406,
      "Ġecosystem": 3407,
      "Ġinspired": 3408,
      "24": 3409,
      "ball": 3410,
      "iation": 3411,
      "iety": 3412,
      "lab": 3413,
      "Ġess": 3414,
      "esc": 3415,
      "Ġwel": 3416,
      "Ġburn": 3417,
      "aly": 3418,
      "Ġinit": 3419,
      "Ġrece": 3420,
      "Ġalways": 3421,
      "Ġunited": 3422,
      "Ġbuilds": 3423,
      "ounds": 3424,
      "Ġphp": 3425,
      "Ġcompute": 3426,
      "Ġpoll": 3427,
      "Ġedition": 3428,
      "Ġhelps": 3429,
      "Ġactivity": 3430,
      "Ġ90": 3431,
      "Ġpassword": 3432,
      "Ġlayoffs": 3433,
      "Ġkilled": 3434,
      "Ġcountries": 3435,
      "Ġlimits": 3436,
      "Ġloop": 3437,
      "Ġmalware": 3438,
      "Ġhalluc": 3439,
      "Ġrevenue": 3440,
      "Ġdecentral": 3441,
      "oom": 3442,
      "tun": 3443,
      "wan": 3444,
      "Ġsix": 3445,
      "Ġpin": 3446,
      "Ġlater": 3447,
      "Ġang": 3448,
      "Ġga": 3449,
      "imin": 3450,
      "Ġchrist": 3451,
      "Ġrss": 3452,
      "osp": 3453,
      "Ġcompos": 3454,
      "ango": 3455,
      "izes": 3456,
      "Ġsues": 3457,
      "Ġroll": 3458,
      "Ġblood": 3459,
      "2012": 3460,
      "Ġoffer": 3461,
      "Ġallow": 3462,
      "ually": 3463,
      "odal": 3464,
      "Ġchanging": 3465,
      "Ġplanet": 3466,
      "Ġsignal": 3467,
      "Ġharm": 3468,
      "Ġreplac": 3469,
      "Ġdocuments": 3470,
      "Ġpractice": 3471,
      "Ġeffective": 3472,
      "Ġpolitical": 3473,
      "Ġlikely": 3474,
      "rics": 3475,
      "Ġmatt": 3476,
      "Ġlas": 3477,
      "Ġyc": 3478,
      "Ġasync": 3479,
      "vere": 3480,
      "Ġbud": 3481,
      "ured": 3482,
      "Ġbeat": 3483,
      "ustain": 3484,
      "rix": 3485,
      "ensive": 3486,
      "Ġoutput": 3487,
      "text": 3488,
      "Ġexport": 3489,
      "Ġowners": 3490,
      "Ġcenters": 3491,
      "onym": 3492,
      "Ġkorea": 3493,
      "Ġunveils": 3494,
      "14": 3495,
      "eks": 3496,
      "iency": 3497,
      "cean": 3498,
      "amb": 3499,
      "Ġrf": 3500,
      "Ġconv": 3501,
      "Ġworst": 3502,
      "Ġtruth": 3503,
      "Ġ26": 3504,
      "Ġray": 3505,
      "Ġlinear": 3506,
      "2011": 3507,
      "Ġsolve": 3508,
      "Ġinstagram": 3509,
      "Ġstatus": 3510,
      "Ġprofit": 3511,
      "Ġbatteries": 3512,
      "Ġrespon": 3513,
      "buil": 3514,
      "Ġbecoming": 3515,
      "Ġscreens": 3516,
      "fe": 3517,
      "native": 3518,
      "rel": 3519,
      "Ġhits": 3520,
      "Ġdive": 3521,
      "ctic": 3522,
      "Ġje": 3523,
      "Ġjul": 3524,
      "aps": 3525,
      "Ġrob": 3526,
      "Ġarrest": 3527,
      "Ġnovel": 3528,
      "Ġpreview": 3529,
      "Ġhash": 3530,
      "Ġsimulation": 3531,
      "Ġinfin": 3532,
      "Ġfinal": 3533,
      "oke": 3534,
      "Ġdesigning": 3535,
      "Ġdesigned": 3536,
      "Ġslop": 3537,
      "Ġ60": 3538,
      "Ġadvent": 3539,
      "Ġfailed": 3540,
      "Ġstories": 3541,
      "Ġrequests": 3542,
      "Ġeconomic": 3543,
      "Ġforecast": 3544,
      "Ġquestion": 3545,
      "Ġdocumentation": 3546,
      "Ġtrees": 3547,
      "Ġheart": 3548,
      "pective": 3549,
      "Ġbeautiful": 3550,
      "70": 3551,
      "aur": 3552,
      "llm": 3553,
      "Ġsong": 3554,
      "onst": 3555,
      "Ġdie": 3556,
      "Ġlate": 3557,
      "Ġfork": 3558,
      "Ġstay": 3559,
      "Ġchann": 3560,
      "Ġibm": 3561,
      "term": 3562,
      "pending": 3563,
      "Ġcolle": 3564,
      "Ġserverless": 3565,
      "brid": 3566,
      "Ġdiscuss": 3567,
      "Ġchallenges": 3568,
      "Ġtutor": 3569,
      "cious": 3570,
      "ipp": 3571,
      "Ġssh": 3572,
      "eries": 3573,
      "Ġms": 3574,
      "Ġdb": 3575,
      "Ġlake": 3576,
      "Ġshop": 3577,
      "Ġrt": 3578,
      "Ġjet": 3579,
      "Ġwords": 3580,
      "rial": 3581,
      "Ġinterviews": 3582,
      "Ġmeans": 3583,
      "Ġitself": 3584,
      "Ġdecision": 3585,
      "ancing": 3586,
      "Ġleader": 3587,
      "Ġsetup": 3588,
      "engine": 3589,
      "Ġfrance": 3590,
      "untu": 3591,
      "Ġrocket": 3592,
      "Ġadministration": 3593,
      "Ġtherap": 3594,
      "18": 3595,
      "23": 3596,
      "dition": 3597,
      "founder": 3598,
      "got": 3599,
      "Ġâ": 3600,
      "Ġswe": 3601,
      "Ġsustain": 3602,
      "Ġwins": 3603,
      "Ġhell": 3604,
      "rote": 3605,
      "Ġrecover": 3606,
      "Ġvict": 3607,
      "Ġclose": 3608,
      "Ġimag": 3609,
      "Ġadvert": 3610,
      "Ġmyster": 3611,
      "Ġemacs": 3612,
      "Ġrecogn": 3613,
      "Ġstarting": 3614,
      "Ġkeys": 3615,
      "ought": 3616,
      "Ġinvestment": 3617,
      "Ġphoto": 3618,
      "Ġgrowing": 3619,
      "Ġlinkedin": 3620,
      "Ġdebugging": 3621,
      "Ġcybersecurity": 3622,
      "15": 3623,
      "gress": 3624,
      "lang": 3625,
      "rict": 3626,
      "Ġfren": 3627,
      "Ġfont": 3628,
      "Ġwave": 3629,
      "Ġled": 3630,
      "Ġgol": 3631,
      "osh": 3632,
      "Ġweird": 3633,
      "istent": 3634,
      "Ġarr": 3635,
      "Ġdisapp": 3636,
      "Ġque": 3637,
      "Ġblu": 3638,
      "Ġtransp": 3639,
      "intend": 3640,
      "Ġinsights": 3641,
      "Ġhacked": 3642,
      "Ġwasm": 3643,
      "Ġexperts": 3644,
      "Ġretrie": 3645,
      "Ġpartners": 3646,
      "Ġsigns": 3647,
      "Ġhyd": 3648,
      "Ġemails": 3649,
      "Ġmessage": 3650,
      "Ġbreakthrough": 3651,
      "Ġpropos": 3652,
      "Ġliter": 3653,
      "break": 3654,
      "gb": 3655,
      "Ġil": 3656,
      "Ġfal": 3657,
      "Ġhole": 3658,
      "Ġball": 3659,
      "iding": 3660,
      "Ġrap": 3661,
      "Ġaccident": 3662,
      "Ġrepo": 3663,
      "Ġplayer": 3664,
      "Ġprinci": 3665,
      "Ġstructured": 3666,
      "Ġjourney": 3667,
      "Ġexplained": 3668,
      "Ġcounter": 3669,
      "Ġparadox": 3670,
      "run": 3671,
      "Ġciv": 3672,
      "Ġcities": 3673,
      "Ġboss": 3674,
      "Ġtook": 3675,
      "Ġanonym": 3676,
      "Ġnature": 3677,
      "Ġvot": 3678,
      "ament": 3679,
      "Ġrates": 3680,
      "under": 3681,
      "Ġking": 3682,
      "Ġali": 3683,
      "Ġuns": 3684,
      "Ġroom": 3685,
      "Ġfastest": 3686,
      "Ġmarkets": 3687,
      "Ġindian": 3688,
      "Ġedit": 3689,
      "plex": 3690,
      "Ġplane": 3691,
      "Ġprotot": 3692,
      "Ġexpert": 3693,
      "Ġregul": 3694,
      "Ġuniversity": 3695,
      "Ġpractices": 3696,
      "Ġexecution": 3697,
      "Ġmillions": 3698,
      "Ġmaintain": 3699,
      "Ġbringing": 3700,
      "Ġpipeline": 3701,
      "ufact": 3702,
      "Ġpentagon": 3703,
      "ae": 3704,
      "kn": 3705,
      "Ġfat": 3706,
      "esh": 3707,
      "Ġwaste": 3708,
      "Ġthin": 3709,
      "Ġghost": 3710,
      "Ġkit": 3711,
      "Ġprison": 3712,
      "Ġemulator": 3713,
      "assembly": 3714,
      "Ġgod": 3715,
      "Ġseo": 3716,
      "Ġafric": 3717,
      "Ġguard": 3718,
      "Ġsovere": 3719,
      "Ġwarning": 3720,
      "Ġinvent": 3721,
      "Ġmanaging": 3722,
      "ondon": 3723,
      "Ġcause": 3724,
      "Ġcommunication": 3725,
      "Ġforeign": 3726,
      "Ġjapanese": 3727,
      "Ġfirms": 3728,
      "Ġmillion": 3729,
      "Ġinternal": 3730,
      "Ġconcerns": 3731,
      "Ġsovereign": 3732,
      "wers": 3733,
      "Ġtel": 3734,
      "Ġtun": 3735,
      "Ġsize": 3736,
      "Ġcache": 3737,
      "Ġpick": 3738,
      "Ġmiddle": 3739,
      "Ġlosing": 3740,
      "Ġtour": 3741,
      "Ġeb": 3742,
      "Ġeach": 3743,
      "âĢĲ": 3744,
      "Ġproxy": 3745,
      "Ġweeks": 3746,
      "Ġago": 3747,
      "Ġtried": 3748,
      "Ġimpl": 3749,
      "uda": 3750,
      "Ġmanufact": 3751,
      "Ġteleg": 3752,
      "Ġcred": 3753,
      "ocket": 3754,
      "Ġoffers": 3755,
      "Ġgui": 3756,
      "rency": 3757,
      "Ġlaunched": 3758,
      "Ġqw": 3759,
      "Ġeasier": 3760,
      "Ġtells": 3761,
      "Ġurl": 3762,
      "Ġdestro": 3763,
      "Ġubuntu": 3764,
      "Ġprinciples": 3765,
      "ca": 3766,
      "cam": 3767,
      "pn": 3768,
      "rs": 3769,
      "wide": 3770,
      "zen": 3771,
      "Ġtai": 3772,
      "Ġpg": 3773,
      "Ġmail": 3774,
      "Ġlot": 3775,
      "Ġlondon": 3776,
      "Ġgiving": 3777,
      "Ġshape": 3778,
      "ecraft": 3779,
      "Ġvm": 3780,
      "Ġprote": 3781,
      "aged": 3782,
      "Ġchief": 3783,
      "Ġcodes": 3784,
      "osoph": 3785,
      "Ġtrue": 3786,
      "Ġcomplet": 3787,
      "Ġspac": 3788,
      "Ġnothing": 3789,
      "Ġquit": 3790,
      "Ġblues": 3791,
      "Ġphones": 3792,
      "ixir": 3793,
      "Ġmultim": 3794,
      "Ġwindow": 3795,
      "Ġdemocr": 3796,
      "Ġsomeone": 3797,
      "Ġlogic": 3798,
      "Ġhappens": 3799,
      "Ġcollapse": 3800,
      "Ġdirectory": 3801,
      "Ġwoman": 3802,
      "Ġbrief": 3803,
      "Ġtaiwan": 3804,
      "13": 3805,
      "craft": 3806,
      "gests": 3807,
      "wall": 3808,
      "Ġtit": 3809,
      "Ġtick": 3810,
      "Ġclear": 3811,
      "rect": 3812,
      "Ġhaving": 3813,
      "Ġbans": 3814,
      "anch": 3815,
      "Ġda": 3816,
      "arp": 3817,
      "ications": 3818,
      "amed": 3819,
      "Ġunix": 3820,
      "Ġspent": 3821,
      "Ġrot": 3822,
      "Ġadm": 3823,
      "Ġleave": 3824,
      "Ġtoolkit": 3825,
      "Ġclaim": 3826,
      "Ġcommerc": 3827,
      "Ġindie": 3828,
      "Ġextre": 3829,
      "Ġhelped": 3830,
      "Ġdeliv": 3831,
      "Ġprofession": 3832,
      "Ġhybrid": 3833,
      "Ġoperations": 3834,
      "Ġintegr": 3835,
      "Ġemployee": 3836,
      "Ġlooks": 3837,
      "Ġsuccessful": 3838,
      "Ġfunctional": 3839,
      "Ġbelie": 3840,
      "Ġsuggests": 3841,
      "Ġobservability": 3842,
      "Ġpixel": 3843,
      "Ġeducation": 3844,
      "Ġresponse": 3845,
      "Ġcommercial": 3846,
      "life": 3847,
      "Ġtab": 3848,
      "Ġci": 3849,
      "Ġbird": 3850,
      "Ġshift": 3851,
      "Ġvan": 3852,
      "Ġmovie": 3853,
      "Ġspect": 3854,
      "Ġabst": 3855,
      "Ġcreative": 3856,
      "ashing": 3857,
      "she": 3858,
      "shot": 3859,
      "Ġparam": 3860,
      "Ġconscious": 3861,
      "Ġreader": 3862,
      "Ġdatabases": 3863,
      "Ġfranc": 3864,
      "Ġlanding": 3865,
      "Ġgeomet": 3866,
      "afe": 3867,
      "Ġindepend": 3868,
      "Ġexploit": 3869,
      "Ġencrypted": 3870,
      "forcement": 3871,
      "Ġfocus": 3872,
      "Ġbudget": 3873,
      "hol": 3874,
      "hood": 3875,
      "well": 3876,
      "Ġax": 3877,
      "Ġcart": 3878,
      "Ġmur": 3879,
      "Ġok": 3880,
      "Ġocean": 3881,
      "icious": 3882,
      "Ġnar": 3883,
      "uts": 3884,
      "Ġrank": 3885,
      "Ġconvert": 3886,
      "Ġweight": 3887,
      "ourced": 3888,
      "Ġdevs": 3889,
      "Ġdriving": 3890,
      "Ġsolving": 3891,
      "Ġprograms": 3892,
      "Ġground": 3893,
      "Ġautomatically": 3894,
      "Ġdefault": 3895,
      "Ġstarlink": 3896,
      "Ġvisualization": 3897,
      "Ġlabor": 3898,
      "Ġgraphics": 3899,
      "Ġsmartphone": 3900,
      "Ġdepart": 3901,
      "point": 3902,
      "Ġsubscription": 3903,
      "Ġphilosoph": 3904,
      "Ġlisp": 3905,
      "intendo": 3906,
      "Ġilleg": 3907,
      "17": 3908,
      "eper": 3909,
      "mas": 3910,
      "pected": 3911,
      "set": 3912,
      "Ġaz": 3913,
      "Ġtag": 3914,
      "Ġcens": 3915,
      "only": 3916,
      "Ġpark": 3917,
      "Ġpok": 3918,
      "Ġmel": 3919,
      "Ġhug": 3920,
      "Ġdrag": 3921,
      "Ġliqu": 3922,
      "Ġnintendo": 3923,
      "Ġvari": 3924,
      "thers": 3925,
      "Ġjan": 3926,
      "ocal": 3927,
      "Ġagency": 3928,
      "isted": 3929,
      "Ġunit": 3930,
      "Ġadding": 3931,
      "Ġoracle": 3932,
      "Ġdrivers": 3933,
      "Ġexpand": 3934,
      "Ġdeliver": 3935,
      "Ġpatient": 3936,
      "Ġmagnet": 3937,
      "Ġbots": 3938,
      "Ġbugs": 3939,
      "Ġfreed": 3940,
      "Ġsurprising": 3941,
      "Ġschedul": 3942,
      "Ġdjango": 3943,
      "bc": 3944,
      "mind": 3945,
      "sung": 3946,
      "tor": 3947,
      "Ġtips": 3948,
      "Ġcve": 3949,
      "Ġhate": 3950,
      "Ġdone": 3951,
      "Ġdied": 3952,
      "arding": 3953,
      "Ġgre": 3954,
      "change": 3955,
      "Ġisland": 3956,
      "platform": 3957,
      "Ġplastic": 3958,
      "Ġseed": 3959,
      "Ġprev": 3960,
      "Ġcold": 3961,
      "Ġperplex": 3962,
      "Ġelixir": 3963,
      "Ġlocally": 3964,
      "Ġcentral": 3965,
      "Ġalternatives": 3966,
      "Ġharness": 3967,
      "Ġcourse": 3968,
      "Ġipad": 3969,
      "Ġintroducing": 3970,
      "Ġmeasure": 3971,
      "Ġbecomes": 3972,
      "Ġimportant": 3973,
      "Ġaustralia": 3974,
      "Ġdangerous": 3975,
      "Ġchaos": 3976,
      "Ġproposal": 3977,
      "cs": 3978,
      "rors": 3979,
      "uel": 3980,
      "ĠÂ": 3981,
      "Ġlun": 3982,
      "icated": 3983,
      "Ġgap": 3984,
      "Ġrew": 3985,
      "Ġcompression": 3986,
      "Ġunre": 3987,
      "Ġbypass": 3988,
      "words": 3989,
      "Ġbanned": 3990,
      "Ġscientist": 3991,
      "Ġrequest": 3992,
      "Ġsamsung": 3993,
      "Ġipo": 3994,
      "Ġefficiency": 3995,
      "Ġstripe": 3996,
      "Ġorigin": 3997,
      "Ġcompetition": 3998,
      "Ġcontainer": 3999,
      "Ġinjection": 4000,
      "Ġbenefits": 4001,
      "Ġfavorite": 4002,
      "Ġcollege": 4003,
      "Ġtelegram": 4004,
      "aire": 4005,
      "bro": 4006,
      "hel": 4007,
      "mal": 4008,
      "ores": 4009,
      "vas": 4010,
      "Ġfib": 4011,
      "Ġmix": 4012,
      "Ġdraw": 4013,
      "Ġtog": 4014,
      "Ġstation": 4015,
      "Ġwithin": 4016,
      "Ġspam": 4017,
      "ipe": 4018,
      "Ġadapt": 4019,
      "Ġcreation": 4020,
      "rene": 4021,
      "Ġexplore": 4022,
      "Ġlegacy": 4023,
      "Ġimprov": 4024,
      "Ġpackages": 4025,
      "Ġmeeting": 4026,
      "Ġscanner": 4027,
      "Ġdashboard": 4028,
      "Ġtroub": 4029,
      "Ġdecentralized": 4030,
      "Ġqwen": 4031,
      "Ġbluesky": 4032,
      "greg": 4033,
      "kes": 4034,
      "md": 4035,
      "yl": 4036,
      "Ġsale": 4037,
      "Ġwra": 4038,
      "Ġdin": 4039,
      "Ġoss": 4040,
      "arian": 4041,
      "Ġtown": 4042,
      "imes": 4043,
      "Ġcoff": 4044,
      "Ġclone": 4045,
      "Ġround": 4046,
      "Ġcontribut": 4047,
      "Ġwebassembly": 4048,
      "Ġseen": 4049,
      "Ġfew": 4050,
      "Ġwaymo": 4051,
      "Ġfilter": 4052,
      "Ġturned": 4053,
      "Ġentire": 4054,
      "Ġrobotics": 4055,
      "Ġreportedly": 4056,
      "Ġhands": 4057,
      "Ġjoin": 4058,
      "Ġkeeps": 4059,
      "Ġchatbots": 4060,
      "Ġcontainers": 4061,
      "Ġeye": 4062,
      "Ġinvestigation": 4063,
      "Ġscalable": 4064,
      "Ġconfirms": 4065,
      "Ġseeking": 4066,
      "Ġvaccine": 4067,
      "Ġeffort": 4068,
      "Ġhallucin": 4069,
      "Ġtens": 4070,
      "Ġcases": 4071,
      "orph": 4072,
      "Ġfda": 4073,
      "Ġhon": 4074,
      "Ġdav": 4075,
      "Ġloses": 4076,
      "Ġnyc": 4077,
      "Ġet": 4078,
      "Ġreth": 4079,
      "Ġyes": 4080,
      "Ġprov": 4081,
      "Ġjail": 4082,
      "Ġclust": 4083,
      "Ġwealth": 4084,
      "Ġunion": 4085,
      "Ġarc": 4086,
      "Ġnoise": 4087,
      "Ġperm": 4088,
      "Ġprogrammer": 4089,
      "Ġfinance": 4090,
      "Ġhigher": 4091,
      "Ġmacbook": 4092,
      "Ġdeepf": 4093,
      "Ġsetting": 4094,
      "Ġdiagram": 4095,
      "Ġshares": 4096,
      "Ġcharacter": 4097,
      "Ġoriginal": 4098,
      "Ġeyes": 4099,
      "Ġrendering": 4100,
      "Ġsaved": 4101,
      "Ġcrowd": 4102,
      "Ġharvard": 4103,
      "Ġretrieval": 4104,
      "Ġabstract": 4105,
      "35": 4106,
      "ooth": 4107,
      "pose": 4108,
      "test": 4109,
      "zil": 4110,
      "Ġspending": 4111,
      "Ġcd": 4112,
      "Ġcand": 4113,
      "Ġhur": 4114,
      "Ġoct": 4115,
      "isions": 4116,
      "stream": 4117,
      "ece": 4118,
      "ado": 4119,
      "Ġexpens": 4120,
      "Ġtrick": 4121,
      "Ġscen": 4122,
      "astics": 4123,
      "Ġsup": 4124,
      "Ġgenai": 4125,
      "Ġdesp": 4126,
      "Ġaccused": 4127,
      "Ġcards": 4128,
      "ancy": 4129,
      "Ġinsur": 4130,
      "Ġconsole": 4131,
      "Ġconsider": 4132,
      "Ġoptimizing": 4133,
      "Ġkilling": 4134,
      "Ġbenchmarks": 4135,
      "Ġpublishing": 4136,
      "Ġlevels": 4137,
      "Ġestim": 4138,
      "Ġprize": 4139,
      "Ġnobody": 4140,
      "Ġdouble": 4141,
      "Ġfollowing": 4142,
      "Ġastronom": 4143,
      "Ġmultimodal": 4144,
      "Ġperplexity": 4145,
      "faces": 4146,
      "oe": 4147,
      "wind": 4148,
      "information": 4149,
      "ending": 4150,
      "Ġflex": 4151,
      "Ġpow": 4152,
      "Ġmount": 4153,
      "ister": 4154,
      "Ġlives": 4155,
      "stri": 4156,
      "Ġnames": 4157,
      "acent": 4158,
      "Ġvent": 4159,
      "Ġmoves": 4160,
      "abled": 4161,
      "Ġalready": 4162,
      "Ġspark": 4163,
      "Ġscra": 4164,
      "Ġsupre": 4165,
      "performance": 4166,
      "Ġgene": 4167,
      "Ġresume": 4168,
      "Ġqueries": 4169,
      "Ġnov": 4170,
      "Ġapache": 4171,
      "Ġfreebsd": 4172,
      "Ġbrings": 4173,
      "Ġexpress": 4174,
      "Ġ64": 4175,
      "Ġsignals": 4176,
      "198": 4177,
      "Ġhandling": 4178,
      "Ġforever": 4179,
      "Ġpresent": 4180,
      "Ġprobably": 4181,
      "Ġmathematics": 4182,
      "Ġinnovation": 4183,
      "Ġgalax": 4184,
      "Ġduckdb": 4185,
      "aware": 4186,
      "care": 4187,
      "dos": 4188,
      "fix": 4189,
      "ki": 4190,
      "log": 4191,
      "Ġftc": 4192,
      "Ġpic": 4193,
      "Ġmr": 4194,
      "ald": 4195,
      "rogen": 4196,
      "Ġlar": 4197,
      "Ġlower": 4198,
      "Ġlose": 4199,
      "ols": 4200,
      "oop": 4201,
      "Ġarea": 4202,
      "Ġdoge": 4203,
      "Ġdecade": 4204,
      "Ġediting": 4205,
      "Ġretro": 4206,
      "Ġmarketplace": 4207,
      "Ġfixing": 4208,
      "Ġspecial": 4209,
      "Ġembeddings": 4210,
      "Ġopin": 4211,
      "Ġcontinu": 4212,
      "metry": 4213,
      "Ġscheme": 4214,
      "Ġgmail": 4215,
      "Ġdetermin": 4216,
      "Ġcorporate": 4217,
      "Ġtutorial": 4218,
      "Ġfrench": 4219,
      "Ġcoffee": 4220,
      "90": 4221,
      "99": 4222,
      "graph": 4223,
      "tax": 4224,
      "Ġign": 4225,
      "Ġcou": 4226,
      "rees": 4227,
      "Ġmut": 4228,
      "Ġmad": 4229,
      "Ġothers": 4230,
      "Ġlov": 4231,
      "Ġtouch": 4232,
      "Ġgives": 4233,
      "ett": 4234,
      "etch": 4235,
      "ager": 4236,
      "Ġru": 4237,
      "ided": 4238,
      "Ġusb": 4239,
      "oper": 4240,
      "Ġdog": 4241,
      "Ġroot": 4242,
      "ignment": 4243,
      "Ġdisaster": 4244,
      "Ġemot": 4245,
      "Ġraise": 4246,
      "endar": 4247,
      "Ġsolid": 4248,
      "Ġdecline": 4249,
      "Ġremove": 4250,
      "Ġhumanity": 4251,
      "Ġplanning": 4252,
      "Ġactiv": 4253,
      "Ġnewslet": 4254,
      "Ġcalling": 4255,
      "Ġleads": 4256,
      "Ġsnow": 4257,
      "driving": 4258,
      "Ġhosting": 4259,
      "Ġincrease": 4260,
      "Ġdrugs": 4261,
      "Ġglasses": 4262,
      "computer": 4263,
      "Ġmatters": 4264,
      "Ġrapid": 4265,
      "Ġcivil": 4266,
      "ny": 4267,
      "tal": 4268,
      "Ġsources": 4269,
      "erve": 4270,
      "reh": 4271,
      "Ġfle": 4272,
      "Ġpilot": 4273,
      "Ġmerg": 4274,
      "Ġdu": 4275,
      "Ġstra": 4276,
      "chat": 4277,
      "acks": 4278,
      "Ġclos": 4279,
      "Ġbuying": 4280,
      "resh": 4281,
      "Ġdisney": 4282,
      "assisted": 4283,
      "comm": 4284,
      "ologies": 4285,
      "Ġairb": 4286,
      "print": 4287,
      "Ġ70": 4288,
      "Ġpaying": 4289,
      "Ġqr": 4290,
      "Ġdiagn": 4291,
      "Ġshared": 4292,
      "Ġblocking": 4293,
      "Ġclassic": 4294,
      "Ġequity": 4295,
      "Ġbrazil": 4296,
      "Ġevaluation": 4297,
      "Ġcharging": 4298,
      "Ġtransparen": 4299,
      "Ġfrancisco": 4300,
      "Ġliquid": 4301,
      "'ll": 4302,
      "..": 4303,
      "cal": 4304,
      "core": 4305,
      "look": 4306,
      "Ġsf": 4307,
      "Ġsense": 4308,
      "Ġfish": 4309,
      "roph": 4310,
      "Ġtoward": 4311,
      "Ġgave": 4312,
      "Ġnation": 4313,
      "acity": 4314,
      "Ġshap": 4315,
      "utter": 4316,
      "Ġvim": 4317,
      "Ġcomments": 4318,
      "earing": 4319,
      "Ġexchange": 4320,
      "Ġcompreh": 4321,
      "Ġdating": 4322,
      "elling": 4323,
      "Ġmexic": 4324,
      "Ġmetal": 4325,
      "Ġattempt": 4326,
      "Ġbridge": 4327,
      "Ġlaunching": 4328,
      "Ġplants": 4329,
      "Ġprotection": 4330,
      "Ġplaying": 4331,
      "Ġcentury": 4332,
      "Ġreflect": 4333,
      "Ġhappy": 4334,
      "Ġjoins": 4335,
      "Ġimproving": 4336,
      "Ġviral": 4337,
      "Ġlatency": 4338,
      "Ġarmy": 4339,
      "Ġreturns": 4340,
      "Ġconsumer": 4341,
      "Ġclickhouse": 4342,
      "Ġmatrix": 4343,
      "Ġthreads": 4344,
      "Ġuntil": 4345,
      "Ġwelcome": 4346,
      "strike": 4347,
      "books": 4348,
      "cks": 4349,
      "dom": 4350,
      "fit": 4351,
      "gro": 4352,
      "making": 4353,
      "mcp": 4354,
      "with": 4355,
      "Ġfing": 4356,
      "Ġpict": 4357,
      "Ġwrote": 4358,
      "Ġtherm": 4359,
      "Ġgates": 4360,
      "Ġreb": 4361,
      "del": 4362,
      "Ġcharge": 4363,
      "Ġring": 4364,
      "Ġrans": 4365,
      "ems": 4366,
      "acking": 4367,
      "opol": 4368,
      "Ġmanif": 4369,
      "Ġteen": 4370,
      "Ġbackdo": 4371,
      "Ġbackground": 4372,
      "Ġsolved": 4373,
      "Ġprogrammers": 4374,
      "Ġpars": 4375,
      "Ġvalu": 4376,
      "Ġvaluation": 4377,
      "Ġrising": 4378,
      "Ġeconomics": 4379,
      "Ġbreaks": 4380,
      "Ġconcur": 4381,
      "Ġlicens": 4382,
      "Ġshadow": 4383,
      "Ġbiden": 4384,
      "Ġgnu": 4385,
      "Ġgateway": 4386,
      "Ġauthentication": 4387,
      "Ġtherapy": 4388,
      "Ġdelivery": 4389,
      "26": 4390,
      "37": 4391,
      "fol": 4392,
      "ius": 4393,
      "lar": 4394,
      "racts": 4395,
      "wood": 4396,
      "Ġfair": 4397,
      "Ġpeter": 4398,
      "Ġwil": 4399,
      "Ġhun": 4400,
      "Ġom": 4401,
      "room": 4402,
      "Ġtom": 4403,
      "Ġny": 4404,
      "Ġupl": 4405,
      "Ġshoot": 4406,
      "agi": 4407,
      "Ġcoin": 4408,
      "Ġmodu": 4409,
      "abet": 4410,
      "Ġclock": 4411,
      "Ġplain": 4412,
      "Ġscrap": 4413,
      "izz": 4414,
      "Ġgenetic": 4415,
      "Ġcodebase": 4416,
      "Ġleast": 4417,
      "Ġleaving": 4418,
      "2010": 4419,
      "Ġxai": 4420,
      "Ġwars": 4421,
      "Ġneeded": 4422,
      "Ġactive": 4423,
      "Ġstars": 4424,
      "scape": 4425,
      "Ġworkspace": 4426,
      "Ġbott": 4427,
      "Ġthreatens": 4428,
      "Ġtransformers": 4429,
      "Ġvulnerabilities": 4430,
      "Ġmalicious": 4431,
      "Ġmodular": 4432,
      "Ġcalcul": 4433,
      "Ġnotebook": 4434,
      "Ġmysterious": 4435,
      "Ġlunar": 4436,
      "spe": 4437,
      "tra": 4438,
      "ycl": 4439,
      "Ġalex": 4440,
      "Ġcuda": 4441,
      "Ġbacter": 4442,
      "Ġdan": 4443,
      "alog": 4444,
      "Ġtheore": 4445,
      "Ġtold": 4446,
      "ilar": 4447,
      "ecks": 4448,
      "Ġstress": 4449,
      "ads": 4450,
      "Ġjump": 4451,
      "essions": 4452,
      "Ġmanip": 4453,
      "Ġgenerating": 4454,
      "coding": 4455,
      "Ġsex": 4456,
      "Ġtrap": 4457,
      "Ġmapping": 4458,
      "Ġdeveloping": 4459,
      "Ġzen": 4460,
      "bert": 4461,
      "Ġsolutions": 4462,
      "orship": 4463,
      "Ġmuse": 4464,
      "Ġstudent": 4465,
      "Ġsurface": 4466,
      "Ġerrors": 4467,
      "Ġdebate": 4468,
      "Ġlibraries": 4469,
      "Ġgrand": 4470,
      "Ġnetworking": 4471,
      "Ġlogs": 4472,
      "Ġbusinesses": 4473,
      "Ġreliable": 4474,
      "market": 4475,
      "Ġwanted": 4476,
      "Ġmessaging": 4477,
      "Ġdirectly": 4478,
      "Ġdiscord": 4479,
      "Ġroadmap": 4480,
      "Ġanswers": 4481,
      "Ġmathematical": 4482,
      "Ġtrends": 4483,
      "friendly": 4484,
      "Ġafrica": 4485,
      "Ġextreme": 4486,
      "Ġillegal": 4487,
      "Ġdespite": 4488,
      "Ġransom": 4489,
      "au": 4490,
      "aud": 4491,
      "gin": 4492,
      "Ġcraw": 4493,
      "Ġfol": 4494,
      "Ġhold": 4495,
      "Ġdro": 4496,
      "arks": 4497,
      "station": 4498,
      "Ġeast": 4499,
      "Ġfort": 4500,
      "Ġforward": 4501,
      "def": 4502,
      "Ġuber": 4503,
      "aming": 4504,
      "istry": 4505,
      "Ġprim": 4506,
      "Ġorbit": 4507,
      "Ġdiscl": 4508,
      "Ġaband": 4509,
      "Ġevents": 4510,
      "ruit": 4511,
      "Ġzuck": 4512,
      "Ġrecall": 4513,
      "Ġrecurs": 4514,
      "Ġtransfer": 4515,
      "Ġsurge": 4516,
      "Ġwhole": 4517,
      "Ġexperi": 4518,
      "Ġautomatic": 4519,
      "Ġstarship": 4520,
      "Ġleading": 4521,
      "Ġeasily": 4522,
      "ields": 4523,
      "Ġrestrict": 4524,
      "block": 4525,
      "Ġelectricity": 4526,
      "Ġstrategies": 4527,
      "Ġtargets": 4528,
      "Ġcomplexity": 4529,
      "Ġflying": 4530,
      "Ġtreatment": 4531,
      "Ġchemical": 4532,
      "Ġinfinite": 4533,
      "Ġmodule": 4534,
      "zilla": 4535,
      "Ġaug": 4536,
      "ered": 4537,
      "Ġwest": 4538,
      "itions": 4539,
      "Ġtoy": 4540,
      "elines": 4541,
      "Ġcos": 4542,
      "Ġmole": 4543,
      "osis": 4544,
      "osph": 4545,
      "Ġexerc": 4546,
      "Ġappe": 4547,
      "Ġunified": 4548,
      "Ġdatacent": 4549,
      "Ġresist": 4550,
      "Ġmetrics": 4551,
      "Ġminim": 4552,
      "Ġminds": 4553,
      "web": 4554,
      "Ġmanagers": 4555,
      "Ġplayground": 4556,
      "Ġspeak": 4557,
      "Ġrelations": 4558,
      "Ġprocessor": 4559,
      "Ġphysic": 4560,
      "Ġseeks": 4561,
      "Ġannounce": 4562,
      "Ġbrains": 4563,
      "Ġbegins": 4564,
      "Ġsuggest": 4565,
      "Ġdependency": 4566,
      "Ġbritain": 4567,
      "Ġvehicle": 4568,
      "Ġevaluating": 4569,
      "Ġcitiz": 4570,
      "Ġchristmas": 4571,
      "Ġlaser": 4572,
      "Ġupload": 4573,
      "300": 4574,
      "ev": 4575,
      "kell": 4576,
      "more": 4577,
      "oon": 4578,
      "oding": 4579,
      "pf": 4580,
      "Ġfiction": 4581,
      "Ġfcc": 4582,
      "Ġfbi": 4583,
      "Ġwi": 4584,
      "rock": 4585,
      "icate": 4586,
      "Ġgone": 4587,
      "omp": 4588,
      "Ġstup": 4589,
      "iga": 4590,
      "chron": 4591,
      "Ġprobe": 4592,
      "Ġcongress": 4593,
      "Ġexc": 4594,
      "perature": 4595,
      "Ġmodeling": 4596,
      "Ġoverview": 4597,
      "Ġimpossible": 4598,
      "Ġextra": 4599,
      "Ġexpect": 4600,
      "Ġpromot": 4601,
      "Ġparty": 4602,
      "Ġassoc": 4603,
      "Ġobjects": 4604,
      "Ġpoints": 4605,
      "Ġconference": 4606,
      "Ġdistribution": 4607,
      "Ġolder": 4608,
      "heimer": 4609,
      "Ġforest": 4610,
      "Ġepic": 4611,
      "Ġstructures": 4612,
      "Ġcritic": 4613,
      "Ġacquires": 4614,
      "Ġmigration": 4615,
      "Ġemergency": 4616,
      "Ġtemplate": 4617,
      "Ġroman": 4618,
      "Ġreplacement": 4619,
      "Ġanonymous": 4620,
      "Ġfreedom": 4621,
      "Ġdavid": 4622,
      ",'": 4623,
      "65": 4624,
      "gr": 4625,
      "gth": 4626,
      "ods": 4627,
      "uk": 4628,
      "yo": 4629,
      "inter": 4630,
      "Ġsab": 4631,
      "Ġcru": 4632,
      "Ġmand": 4633,
      "Ġhosp": 4634,
      "ica": 4635,
      "Ġux": 4636,
      "omic": 4637,
      "ula": 4638,
      "ifi": 4639,
      "Ġtri": 4640,
      "Ġunc": 4641,
      "ourcing": 4642,
      "resent": 4643,
      "ostic": 4644,
      "Ġdisrupt": 4645,
      "Ġamong": 4646,
      "Ġqual": 4647,
      "Ġquarter": 4648,
      "Ġhaskell": 4649,
      "Ġinstruct": 4650,
      "Ġdetails": 4651,
      "Ġcalendar": 4652,
      "Ġpoor": 4653,
      "Ġcele": 4654,
      "Ġbillions": 4655,
      "Ġdelay": 4656,
      "Ġstatist": 4657,
      "Ġsyntax": 4658,
      "Ġprofile": 4659,
      "Ġtimeline": 4660,
      "Ġembedding": 4661,
      "Ġtranslation": 4662,
      "Ġdoub": 4663,
      "Ġprofessional": 4664,
      "Ġtogether": 4665,
      "Ġexpensive": 4666,
      "fig": 4667,
      "file": 4668,
      "gpu": 4669,
      "hd": 4670,
      "hs": 4671,
      "iest": 4672,
      "Ġsv": 4673,
      "Ġdut": 4674,
      "Ġdial": 4675,
      "rovers": 4676,
      "Ġinput": 4677,
      "state": 4678,
      "Ġaims": 4679,
      "ott": 4680,
      "uration": 4681,
      "iday": 4682,
      "aked": 4683,
      "Ġweak": 4684,
      "illion": 4685,
      "Ġspring": 4686,
      "izations": 4687,
      "Ġresh": 4688,
      "Ġamb": 4689,
      "Ġmysql": 4690,
      "uggle": 4691,
      "Ġrail": 4692,
      "Ġprec": 4693,
      "Ġprem": 4694,
      "Ġafford": 4695,
      "Ġtransact": 4696,
      "rength": 4697,
      "Ġexplains": 4698,
      "Ġextend": 4699,
      "Ġremember": 4700,
      "Ġbanks": 4701,
      "Ġsteal": 4702,
      "Ġcalled": 4703,
      "Ġembr": 4704,
      "Ġaudit": 4705,
      "Ġpredic": 4706,
      "Ġipv": 4707,
      "Ġintroduces": 4708,
      "player": 4709,
      "Ġviewer": 4710,
      "Ġconversation": 4711,
      "Ġcapture": 4712,
      "Ġsynthetic": 4713,
      "Ġinfluenc": 4714,
      "Ġcollaboration": 4715,
      "Ġdoctor": 4716,
      "Ġrecognition": 4717,
      "Ġdepartment": 4718,
      "Ġazure": 4719,
      "Ġsupreme": 4720,
      "Ġmuseum": 4721,
      "Ġstupid": 4722,
      "'d": 4723,
      "):": 4724,
      "card": 4725,
      "pir": 4726,
      "Ġsit": 4727,
      "oning": 4728,
      "enn": 4729,
      "atial": 4730,
      "atible": 4731,
      "Ġwear": 4732,
      "Ġwish": 4733,
      "itrust": 4734,
      "Ġditch": 4735,
      "Ġoly": 4736,
      "abling": 4737,
      "Ġjune": 4738,
      "Ġbuff": 4739,
      "Ġalz": 4740,
      "ares": 4741,
      "Ġinterp": 4742,
      "Ġsymb": 4743,
      "Ġrepair": 4744,
      "Ġsimilar": 4745,
      "Ġdrives": 4746,
      "Ġdecades": 4747,
      "boards": 4748,
      "Ġsupports": 4749,
      "Ġairport": 4750,
      "Ġcurated": 4751,
      "Ġcaused": 4752,
      "Ġantitrust": 4753,
      "Ġlego": 4754,
      "Ġastero": 4755,
      "Ġcommands": 4756,
      "Ġwiki": 4757,
      "Ġmotion": 4758,
      "Ġquickly": 4759,
      "Ġnobel": 4760,
      "Ġescape": 4761,
      "Ġweapon": 4762,
      "Ġplease": 4763,
      "uggling": 4764,
      "Ġcertific": 4765,
      "ham": 4766,
      "page": 4767,
      "safe": 4768,
      "Ġsession": 4769,
      "Ġcry": 4770,
      "ender": 4771,
      "ativity": 4772,
      "Ġpac": 4773,
      "Ġpul": 4774,
      "Ġhire": 4775,
      "Ġhunt": 4776,
      "Ġbash": 4777,
      "Ġdot": 4778,
      "Ġopus": 4779,
      "Ġlith": 4780,
      "elves": 4781,
      "Ġrp": 4782,
      "Ġry": 4783,
      "Ġdelet": 4784,
      "Ġneut": 4785,
      "Ġcomprom": 4786,
      "rier": 4787,
      "Ġdoor": 4788,
      "Ġcannot": 4789,
      "Ġleaves": 4790,
      "Ġcontrovers": 4791,
      "Ġquiet": 4792,
      "Ġevs": 4793,
      "Ġperform": 4794,
      "cloud": 4795,
      "Ġtested": 4796,
      "Ġparts": 4797,
      "Ġtechnologies": 4798,
      "2009": 4799,
      "Ġcontrols": 4800,
      "Ġdebian": 4801,
      "Ġstarts": 4802,
      "Ġpayments": 4803,
      "Ġsteve": 4804,
      "Ġgraphs": 4805,
      "Ġdeadly": 4806,
      "Ġassistants": 4807,
      "Ġdomin": 4808,
      "Ġenvironments": 4809,
      "Ġdrops": 4810,
      "Ġleaked": 4811,
      "Ġpolitics": 4812,
      "Ġsteps": 4813,
      "Ġimmig": 4814,
      "Ġrouter": 4815,
      "Ġfigma": 4816,
      "Ġmatching": 4817,
      "Ġdataset": 4818,
      "Ġacademic": 4819,
      "Ġpollution": 4820,
      "Ġindependent": 4821,
      "Ġmexico": 4822,
      "Ġmolec": 4823,
      "22": 4824,
      "bed": 4825,
      "cer": 4826,
      "cop": 4827,
      "fall": 4828,
      "hum": 4829,
      "hib": 4830,
      "ira": 4831,
      "paper": 4832,
      "tt": 4833,
      "Ġsets": 4834,
      "erberg": 4835,
      "Ġcow": 4836,
      "orm": 4837,
      "Ġmice": 4838,
      "Ġmouse": 4839,
      "itation": 4840,
      "Ġthous": 4841,
      "Ġol": 4842,
      "edge": 4843,
      "olen": 4844,
      "Ġstrength": 4845,
      "imp": 4846,
      "ivid": 4847,
      "ami": 4848,
      "Ġchart": 4849,
      "idents": 4850,
      "Ġlean": 4851,
      "Ġdisk": 4852,
      "Ġmanual": 4853,
      "Ġabs": 4854,
      "Ġ21": 4855,
      "Ġbroke": 4856,
      "coming": 4857,
      "ternal": 4858,
      "Ġhelping": 4859,
      "Ġsociety": 4860,
      "Ġairlines": 4861,
      "Ġperspective": 4862,
      "Ġredis": 4863,
      "Ġvisualize": 4864,
      "Ġharder": 4865,
      "ertain": 4866,
      "Ġlisten": 4867,
      "Ġlawy": 4868,
      "Ġextensions": 4869,
      "Ġbias": 4870,
      "Ġtempor": 4871,
      "Ġtemperature": 4872,
      "Ġterra": 4873,
      "Ġconstruction": 4874,
      "Ġfriend": 4875,
      "Ġfactory": 4876,
      "Ġopent": 4877,
      "Ġcompliance": 4878,
      "reprene": 4879,
      "Ġsustainable": 4880,
      "Ġtelesc": 4881,
      "Ġcomprehensive": 4882,
      "Ġransomware": 4883,
      "Ġzuckerberg": 4884,
      "\"?": 4885,
      "but": 4886,
      "col": 4887,
      "dis": 4888,
      "fin": 4889,
      "iot": 4890,
      "lash": 4891,
      "mem": 4892,
      "ril": 4893,
      "uding": 4894,
      "water": 4895,
      "Ġty": 4896,
      "Ġsort": 4897,
      "Ġcpus": 4898,
      "Ġfp": 4899,
      "Ġwid": 4900,
      "Ġham": 4901,
      "Ġber": 4902,
      "Ġthose": 4903,
      "Ġdate": 4904,
      "Ġgig": 4905,
      "Ġgard": 4906,
      "Ġsho": 4907,
      "Ġstick": 4908,
      "lying": 4909,
      "Ġclub": 4910,
      "Ġcloj": 4911,
      "Ġaggreg": 4912,
      "Ġalso": 4913,
      "Ġunique": 4914,
      "Ġsports": 4915,
      "izon": 4916,
      "perform": 4917,
      "ober": 4918,
      "Ġworkforce": 4919,
      "Ġengines": 4920,
      "Ġcommission": 4921,
      "Ġreprodu": 4922,
      "ished": 4923,
      "shit": 4924,
      "insp": 4925,
      "Ġentreprene": 4926,
      "Ġfixes": 4927,
      "Ġdiy": 4928,
      "Ġindustrial": 4929,
      "Ġprinc": 4930,
      "Ġtreas": 4931,
      "Ġshutting": 4932,
      "Ġdeployment": 4933,
      "Ġacquis": 4934,
      "Ġdynamics": 4935,
      "Ġcameras": 4936,
      "Ġbillionaire": 4937,
      "Ġenhance": 4938,
      "Ġpressure": 4939,
      "Ġscreensh": 4940,
      "Ġadvertising": 4941,
      "Ġaccidentally": 4942,
      "Ġthinks": 4943,
      "sheet": 4944,
      "Ġopinion": 4945,
      "Ġnewsletter": 4946,
      "Ġcloser": 4947,
      "Ġalzheimer": 4948,
      "\":": 4949,
      "dp": 4950,
      "fun": 4951,
      "lib": 4952,
      "win": 4953,
      "Ġ`": 4954,
      "Ġcable": 4955,
      "orrow": 4956,
      "Ġwol": 4957,
      "Ġbed": 4958,
      "Ġboring": 4959,
      "Ġdying": 4960,
      "Ġlob": 4961,
      "outs": 4962,
      "Ġgut": 4963,
      "ione": 4964,
      "lets": 4965,
      "Ġforced": 4966,
      "olic": 4967,
      "Ġstuff": 4968,
      "Ġvpn": 4969,
      "Ġisol": 4970,
      "iders": 4971,
      "Ġmozilla": 4972,
      "Ġjup": 4973,
      "Ġends": 4974,
      "Ġunex": 4975,
      "Ġyourself": 4976,
      "Ġspin": 4977,
      "avel": 4978,
      "athon": 4979,
      "ruck": 4980,
      "Ġsmarter": 4981,
      "Ġdecisions": 4982,
      "Ġwarn": 4983,
      "Ġcrime": 4984,
      "Ġgrad": 4985,
      "Ġbigger": 4986,
      "Ġarticles": 4987,
      "Ġaircraft": 4988,
      "Ġassess": 4989,
      "iverse": 4990,
      "iously": 4991,
      "Ġincome": 4992,
      "Ġpasswords": 4993,
      "Ġfixed": 4994,
      "Ġimproved": 4995,
      "Ġkeeping": 4996,
      "Ġportfol": 4997,
      "Ġexperimental": 4998,
      "Ġorigins": 4999,
      "Ġschema": 5000,
      "Ġmistral": 5001,
      "Ġprior": 5002,
      "Ġutility": 5003,
      "Ġaffect": 5004,
      "Ġexamples": 5005,
      "Ġconverter": 5006,
      "Ġfossil": 5007,
      "Ġparents": 5008,
      "Ġcandid": 5009,
      "Ġolymp": 5010,
      "dy": 5011,
      "iate": 5012,
      "wd": 5013,
      "yst": 5014,
      "zer": 5015,
      "Ġais": 5016,
      "Ġtui": 5017,
      "orid": 5018,
      "ener": 5019,
      "Ġpig": 5020,
      "Ġhij": 5021,
      "itors": 5022,
      "Ġdram": 5023,
      "Ġovers": 5024,
      "Ġetc": 5025,
      "Ġshr": 5026,
      "Ġwhe": 5027,
      "Ġchoice": 5028,
      "Ġcover": 5029,
      "Ġcomment": 5030,
      "usive": 5031,
      "Ġconfl": 5032,
      "Ġexcel": 5033,
      "ander": 5034,
      "pling": 5035,
      "quality": 5036,
      "Ġadopt": 5037,
      "Ġresil": 5038,
      "gebra": 5039,
      "Ġworked": 5040,
      "Ġemissions": 5041,
      "Ġphishing": 5042,
      "Ġflat": 5043,
      "Ġcommod": 5044,
      "Ġtransport": 5045,
      "Ġsolo": 5046,
      "cla": 5047,
      "Ġindivid": 5048,
      "Ġthanks": 5049,
      "Ġexposed": 5050,
      "Ġhumanoid": 5051,
      "Ġprotest": 5052,
      "Ġoptions": 5053,
      "Ġpayment": 5054,
      "Ġpushing": 5055,
      "Ġacquire": 5056,
      "Ġmethods": 5057,
      "Ġcanadian": 5058,
      "Ġbenchmarking": 5059,
      "writing": 5060,
      "control": 5061,
      "urable": 5062,
      "Ġvehicles": 5063,
      "Ġweapons": 5064,
      "Ġproperty": 5065,
      "Ġexplorer": 5066,
      "Ġchannel": 5067,
      "Ġfalse": 5068,
      "Ġcrowdstrike": 5069,
      "Ġgalaxy": 5070,
      "Ġmanifest": 5071,
      "bor": 5072,
      "bing": 5073,
      "bar": 5074,
      "bird": 5075,
      "fm": 5076,
      "iam": 5077,
      "jo": 5078,
      "sw": 5079,
      "vis": 5080,
      "inator": 5081,
      "Ġsounds": 5082,
      "Ġcach": 5083,
      "Ġfear": 5084,
      "ately": 5085,
      "Ġpitch": 5086,
      "Ġpair": 5087,
      "Ġpocket": 5088,
      "Ġmother": 5089,
      "itory": 5090,
      "Ġbio": 5091,
      "Ġbomb": 5092,
      "Ġbought": 5093,
      "Ġdar": 5094,
      "Ġdollar": 5095,
      "Ġox": 5096,
      "Ġforces": 5097,
      "etime": 5098,
      "Ġandre": 5099,
      "check": 5100,
      "ceed": 5101,
      "ception": 5102,
      "Ġchron": 5103,
      "Ġrights": 5104,
      "oods": 5105,
      "Ġclosed": 5106,
      "Ġalgebra": 5107,
      "Ġplot": 5108,
      "ained": 5109,
      "igned": 5110,
      "Ġ32": 5111,
      "athy": 5112,
      "Ġcreators": 5113,
      "Ġchats": 5114,
      "Ġbacklash": 5115,
      "Ġparser": 5116,
      "aza": 5117,
      "Ġbrowsers": 5118,
      "Ġcaught": 5119,
      "Ġmarch": 5120,
      "Ġhandle": 5121,
      "Ġpatent": 5122,
      "Ġoldest": 5123,
      "Ġurban": 5124,
      "Ġtransformer": 5125,
      "Ġweekly": 5126,
      "Ġexperiments": 5127,
      "Ġpaul": 5128,
      "Ġstrike": 5129,
      "Ġofficials": 5130,
      "Ġmotor": 5131,
      "Ġmenu": 5132,
      "Ġastronaut": 5133,
      "Ġupgrade": 5134,
      "Ġexecutive": 5135,
      "Ġdatasets": 5136,
      "Ġshopify": 5137,
      "Ġgolang": 5138,
      "Ġphilosophy": 5139,
      "ĠÂ£": 5140,
      "Ġparsing": 5141,
      "Ġasteroid": 5142,
      "Ġtelescope": 5143,
      "Ġacquisition": 5144,
      "Ġindividual": 5145,
      "()": 5146,
      "cat": 5147,
      "kill": 5148,
      "Ġturing": 5149,
      "Ġsep": 5150,
      "Ġfur": 5151,
      "Ġfab": 5152,
      "Ġpione": 5153,
      "iter": 5154,
      "rog": 5155,
      "Ġtoxic": 5156,
      "olved": 5157,
      "Ġstolen": 5158,
      "Ġrival": 5159,
      "ppy": 5160,
      "Ġcoast": 5161,
      "ifies": 5162,
      "pends": 5163,
      "Ġunic": 5164,
      "Ġasked": 5165,
      "ortun": 5166,
      "Ġsym": 5167,
      "obe": 5168,
      "Ġ22": 5169,
      "Ġselect": 5170,
      "Ġraw": 5171,
      "iented": 5172,
      "Ġheav": 5173,
      "Ġcommits": 5174,
      "Ġapart": 5175,
      "Ġguess": 5176,
      "clip": 5177,
      "Ġfinally": 5178,
      "Ġpeer": 5179,
      "intellig": 5180,
      "Ġmedic": 5181,
      "Ġknown": 5182,
      "Ġbranch": 5183,
      "Ġexpected": 5184,
      "Ġpromise": 5185,
      "Ġstruggle": 5186,
      "Ġupdated": 5187,
      "Ġoptimize": 5188,
      "Ġhype": 5189,
      "enger": 5190,
      "Ġvercel": 5191,
      "Ġlandscape": 5192,
      "Ġgovernance": 5193,
      "Ġportable": 5194,
      "Ġinflation": 5195,
      "Ġtalking": 5196,
      "Ġschools": 5197,
      "Ġfactor": 5198,
      "Ġtargeting": 5199,
      "Ġanimation": 5200,
      "Ġsenior": 5201,
      "Ġstores": 5202,
      "Ġaustralian": 5203,
      "Ġfacial": 5204,
      "Ġbritish": 5205,
      "Ġmovement": 5206,
      "Ġempire": 5207,
      "Ġrtx": 5208,
      "Ġhugging": 5209,
      "Ġbacteria": 5210,
      "Ġterraform": 5211,
      "Ġclojure": 5212,
      "king": 5213,
      "lo": 5214,
      "nel": 5215,
      "rator": 5216,
      "uary": 5217,
      "Ġ=": 5218,
      "Ġts": 5219,
      "Ġhu": 5220,
      "Ġboth": 5221,
      "Ġdra": 5222,
      "Ġdraft": 5223,
      "Ġgun": 5224,
      "Ġgir": 5225,
      "Ġrenew": 5226,
      "Ġstan": 5227,
      "Ġvr": 5228,
      "Ġrh": 5229,
      "Ġriv": 5230,
      "Ġcoach": 5231,
      "Ġjames": 5232,
      "anda": 5233,
      "quant": 5234,
      "Ġspir": 5235,
      "Ġscand": 5236,
      "mented": 5237,
      "Ġadults": 5238,
      "Ġblind": 5239,
      "covers": 5240,
      "Ġflaw": 5241,
      "Ġze": 5242,
      "odon": 5243,
      "Ġrepresent": 5244,
      "Ġdriven": 5245,
      "cribe": 5246,
      "Ġinstit": 5247,
      "Ġwayland": 5248,
      "Ġswed": 5249,
      "Ġcurious": 5250,
      "Ġoptical": 5251,
      "Ġframeworks": 5252,
      "Ġstring": 5253,
      "Ġannual": 5254,
      "Ġregulator": 5255,
      "Ġfired": 5256,
      "Ġsett": 5257,
      "Ġreplacing": 5258,
      "Ġfails": 5259,
      "Ġfailures": 5260,
      "Ġadded": 5261,
      "Ġcryptography": 5262,
      "Ġcyberatt": 5263,
      "Ġproposed": 5264,
      "preter": 5265,
      "Ġstrategic": 5266,
      "Ġincreasing": 5267,
      "Ġmeasuring": 5268,
      "Ġpredictions": 5269,
      "ductor": 5270,
      "Ġmeaning": 5271,
      "Ġvalidation": 5272,
      "Ġopportun": 5273,
      "Ġmigrating": 5274,
      "Ġprototype": 5275,
      "Ġdestroy": 5276,
      "Ġconsciousness": 5277,
      "torch": 5278,
      "Ġdeterministic": 5279,
      "Ġcosmic": 5280,
      "ey": 5281,
      "how": 5282,
      "lights": 5283,
      "watch": 5284,
      "Ġing": 5285,
      "Ġtables": 5286,
      "Ġsora": 5287,
      "Ġfears": 5288,
      "itude": 5289,
      "Ġbatch": 5290,
      "Ġdual": 5291,
      "Ġdump": 5292,
      "Ġlon": 5293,
      "Ġluc": 5294,
      "Ġlights": 5295,
      "Ġlamb": 5296,
      "Ġshot": 5297,
      "amm": 5298,
      "Ġrl": 5299,
      "Ġio": 5300,
      "Ġdeals": 5301,
      "idian": 5302,
      "Ġasks": 5303,
      "Ġrol": 5304,
      "Ġadhd": 5305,
      "Ġdiss": 5306,
      "Ġgov": 5307,
      "Ġmeets": 5308,
      "Ġallows": 5309,
      "Ġtransition": 5310,
      "Ġminecraft": 5311,
      "Ġreally": 5312,
      "Ġrealtime": 5313,
      "Ġinvis": 5314,
      "Ġdeepmind": 5315,
      "2005": 5316,
      "Ġ95": 5317,
      "Ġlogin": 5318,
      "Ġcutting": 5319,
      "Ġintelligent": 5320,
      "Ġcheaper": 5321,
      "Ġepstein": 5322,
      "Ġpopulation": 5323,
      "Ġfreel": 5324,
      "Ġbankrupt": 5325,
      "Ġultimate": 5326,
      "Ġstrikes": 5327,
      "Ġdepression": 5328,
      "Ġmathematic": 5329,
      "build": 5330,
      "Ġgolden": 5331,
      "Ġremoved": 5332,
      "Ġfocused": 5333,
      "Ġnano": 5334,
      "Ġsurvive": 5335,
      "super": 5336,
      "Ġmirror": 5337,
      "Ġbaby": 5338,
      "Ġhabit": 5339,
      "Ġhistorical": 5340,
      "party": 5341,
      "tuning": 5342,
      "Ġinsurance": 5343,
      "Ġbackdoor": 5344,
      "inspired": 5345,
      "Ġportfolio": 5346,
      "28": 5347,
      "400": 5348,
      "iative": 5349,
      "Ġ<": 5350,
      "Ġiv": 5351,
      "Ġtum": 5352,
      "Ġspend": 5353,
      "Ġcateg": 5354,
      "onic": 5355,
      "Ġpiv": 5356,
      "Ġhop": 5357,
      "Ġder": 5358,
      "Ġdos": 5359,
      "Ġprox": 5360,
      "ument": 5361,
      "Ġjam": 5362,
      "Ġclip": 5363,
      "Ġtrig": 5364,
      "que": 5365,
      "rible": 5366,
      "Ġplus": 5367,
      "antir": 5368,
      "Ġado": 5369,
      "Ġcontracts": 5370,
      "aires": 5371,
      "Ġoutside": 5372,
      "Ġoutperform": 5373,
      "Ġcreates": 5374,
      "peg": 5375,
      "Ġvisa": 5376,
      "ifications": 5377,
      "criptions": 5378,
      "Ġlocation": 5379,
      "Ġfunds": 5380,
      "Ġretail": 5381,
      "Ġcycle": 5382,
      "Ġadvis": 5383,
      "Ġadvant": 5384,
      "Ġ198": 5385,
      "Ġcapacity": 5386,
      "Ġoperation": 5387,
      "llama": 5388,
      "Ġconnection": 5389,
      "Ġsummer": 5390,
      "Ġblogs": 5391,
      "Ġprinting": 5392,
      "Ġcharts": 5393,
      "Ġputs": 5394,
      "Ġtalent": 5395,
      "Ġpytorch": 5396,
      "Ġstopped": 5397,
      "Ġleadership": 5398,
      "Ġhydrogen": 5399,
      "Ġmanufacturing": 5400,
      "Ġgeometry": 5401,
      "Ġrethinking": 5402,
      "human": 5403,
      "Ġunexpected": 5404,
      "75": 5405,
      "fast": 5406,
      "iated": 5407,
      "lock": 5408,
      "nes": 5409,
      "och": 5410,
      "pad": 5411,
      "train": 5412,
      "Ġicon": 5413,
      "Ġtap": 5414,
      "Ġsir": 5415,
      "erts": 5416,
      "Ġfract": 5417,
      "Ġpump": 5418,
      "Ġmart": 5419,
      "Ġhund": 5420,
      "Ġbon": 5421,
      "Ġbell": 5422,
      "Ġbull": 5423,
      "Ġly": 5424,
      "Ġlays": 5425,
      "Ġgps": 5426,
      "stra": 5427,
      "Ġnut": 5428,
      "Ġforms": 5429,
      "dem": 5430,
      "ette": 5431,
      "oles": 5432,
      "Ġchecks": 5433,
      "Ġken": 5434,
      "Ġbeats": 5435,
      "Ġscore": 5436,
      "Ġresource": 5437,
      "Ġdisp": 5438,
      "Ġamiga": 5439,
      "Ġemoj": 5440,
      "Ġabuse": 5441,
      "Ġrain": 5442,
      "Ġflorid": 5443,
      "Ġbetting": 5444,
      "class": 5445,
      "Ġanymore": 5446,
      "Ġknows": 5447,
      "Ġcurl": 5448,
      "Ġdefin": 5449,
      "Ġtrained": 5450,
      "Ġtyping": 5451,
      "process": 5452,
      "Ġthreats": 5453,
      "Ġstandards": 5454,
      "afka": 5455,
      "Ġsemicon": 5456,
      "Ġpalantir": 5457,
      "Ġsplit": 5458,
      "Ġinteresting": 5459,
      "Ġrepository": 5460,
      "guard": 5461,
      "Ġmovies": 5462,
      "Ġtaught": 5463,
      "Ġaccurate": 5464,
      "engineering": 5465,
      "Ġpartnership": 5466,
      "Ġprotein": 5467,
      "Ġimprovements": 5468,
      "Ġtrouble": 5469,
      "Ġcontinuous": 5470,
      "audio": 5471,
      "Ġcelebr": 5472,
      "Ġadoption": 5473,
      "Ġflorida": 5474,
      "doc": 5475,
      "ept": 5476,
      "hour": 5477,
      "len": 5478,
      "makers": 5479,
      "rate": 5480,
      "tes": 5481,
      "uits": 5482,
      "Ġtired": 5483,
      "Ġss": 5484,
      "Ġcn": 5485,
      "Ġcas": 5486,
      "Ġposs": 5487,
      "Ġmort": 5488,
      "Ġwait": 5489,
      "Ġhat": 5490,
      "Ġbbc": 5491,
      "Ġded": 5492,
      "Ġgt": 5493,
      "Ġrange": 5494,
      "Ġcoal": 5495,
      "ading": 5496,
      "aken": 5497,
      "Ġenable": 5498,
      "plane": 5499,
      "Ġalignment": 5500,
      "Ġcompare": 5501,
      "Ġspain": 5502,
      "Ġsuck": 5503,
      "Ġnotion": 5504,
      "Ġinterpreter": 5505,
      "Ġ23": 5506,
      "Ġsees": 5507,
      "Ġcomputational": 5508,
      "Ġmining": 5509,
      "Ġboy": 5510,
      "ificant": 5511,
      "Ġelite": 5512,
      "Ġbutton": 5513,
      "Ġconsult": 5514,
      "Ġconspir": 5515,
      "Ġpersistent": 5516,
      "Ġcycl": 5517,
      "Ġformal": 5518,
      "keys": 5519,
      "Ġreporting": 5520,
      "Ġreference": 5521,
      "Ġstorm": 5522,
      "Ġdiet": 5523,
      "Ġpersonalized": 5524,
      "Ġcancel": 5525,
      "Ġviews": 5526,
      "Ġholes": 5527,
      "Ġswitching": 5528,
      "Ġfighting": 5529,
      "Ġteaching": 5530,
      "Ġcollaborative": 5531,
      "Ġmechanical": 5532,
      "Ġchoose": 5533,
      "ditional": 5534,
      "Ġcredential": 5535,
      "Ġpowers": 5536,
      "Ġhospital": 5537,
      "car": 5538,
      "gi": 5539,
      "here": 5540,
      "va": 5541,
      "Ĥ¬": 5542,
      "inary": 5543,
      "Ġtact": 5544,
      "era": 5545,
      "Ġcub": 5546,
      "Ġfires": 5547,
      "Ġhim": 5548,
      "Ġhua": 5549,
      "Ġband": 5550,
      "Ġdumb": 5551,
      "Ġinj": 5552,
      "Ġni": 5553,
      "Ġeating": 5554,
      "Ġford": 5555,
      "Ġforgot": 5556,
      "Ġstage": 5557,
      "Ġvc": 5558,
      "Ġvote": 5559,
      "che": 5560,
      "Ġpros": 5561,
      "Ġmock": 5562,
      "Ġclin": 5563,
      "apter": 5564,
      "Ġasking": 5565,
      "Ġcanvas": 5566,
      "Ġarctic": 5567,
      "Ġorg": 5568,
      "Ġworker": 5569,
      "Ġphase": 5570,
      "Ġdecoding": 5571,
      "Ġ400": 5572,
      "wei": 5573,
      "2008": 5574,
      "Ġshouldn": 5575,
      "Ġrobotax": 5576,
      "Ġsafari": 5577,
      "Ġspecies": 5578,
      "Ġfuzz": 5579,
      "Ġshutdown": 5580,
      "Ġpipelines": 5581,
      "Ġscripts": 5582,
      "Ġmaterials": 5583,
      "Ġpurpose": 5584,
      "Ġprovider": 5585,
      "Ġproviders": 5586,
      "Ġelectronics": 5587,
      "Ġmastodon": 5588,
      "Ġevolving": 5589,
      "built": 5590,
      "Ġrecovery": 5591,
      "Ġcensorship": 5592,
      "Ġpatients": 5593,
      "Ġsepar": 5594,
      "quantum": 5595,
      "cra": 5596,
      "fa": 5597,
      "iability": 5598,
      "nd": 5599,
      "Ġari": 5600,
      "Ġtwe": 5601,
      "Ġsony": 5602,
      "Ġsessions": 5603,
      "organ": 5604,
      "Ġporn": 5605,
      "Ġmesh": 5606,
      "Ġborder": 5607,
      "Ġod": 5608,
      "Ġow": 5609,
      "isation": 5610,
      "Ġlie": 5611,
      "Ġanx": 5612,
      "Ġgian": 5613,
      "Ġeat": 5614,
      "Ġforum": 5615,
      "Ġaid": 5616,
      "Ġstruct": 5617,
      "Ġveg": 5618,
      "charg": 5619,
      "Ġneov": 5620,
      "Ġcoord": 5621,
      "Ġju": 5622,
      "Ġjun": 5623,
      "Ġjoy": 5624,
      "ocation": 5625,
      "Ġexcl": 5626,
      "Ġalert": 5627,
      "Ġspatial": 5628,
      "Ġsue": 5629,
      "Ġadobe": 5630,
      "Ġinterfaces": 5631,
      "Ġpercent": 5632,
      "Ġxbox": 5633,
      "Ġdeck": 5634,
      "Ġsaid": 5635,
      "Ġextin": 5636,
      "Ġgravity": 5637,
      "ypse": 5638,
      "Ġanalog": 5639,
      "Ġassembly": 5640,
      "Ġowner": 5641,
      "2007": 5642,
      "Ġeverywhere": 5643,
      "Ġdemonst": 5644,
      "Ġdelays": 5645,
      "Ġgrant": 5646,
      "Ġaccessibility": 5647,
      "Ġstats": 5648,
      "Ġstatement": 5649,
      "Ġgreatest": 5650,
      "Ġapproves": 5651,
      "Ġwinning": 5652,
      "Ġmiles": 5653,
      "Ġsumm": 5654,
      "ographic": 5655,
      "space": 5656,
      "Ġfalling": 5657,
      "bye": 5658,
      "Ġhosted": 5659,
      "Ġpcs": 5660,
      "Ġhomes": 5661,
      "month": 5662,
      "Ġmistake": 5663,
      "Ġdependencies": 5664,
      "Ġescal": 5665,
      "Ġinfluence": 5666,
      "Ġpurch": 5667,
      "Ġinstantly": 5668,
      "Ġelectronic": 5669,
      "Ġobsidian": 5670,
      "Ġalpha": 5671,
      "Ġorchestration": 5672,
      "Ġessential": 5673,
      "Ġharmful": 5674,
      "Ġtensor": 5675,
      "Ġdiagrams": 5676,
      "Ġinstructions": 5677,
      "Ġneovim": 5678,
      "bage": 5679,
      "data": 5680,
      "ever": 5681,
      "iers": 5682,
      "pi": 5683,
      "table": 5684,
      "wave": 5685,
      "oned": 5686,
      "ened": 5687,
      "Ġfault": 5688,
      "Ġped": 5689,
      "esome": 5690,
      "Ġmv": 5691,
      "Ġbare": 5692,
      "Ġocr": 5693,
      "arctic": 5694,
      "Ġlad": 5695,
      "Ġlens": 5696,
      "Ġtheft": 5697,
      "Ġnv": 5698,
      "Ġnest": 5699,
      "Ġreject": 5700,
      "det": 5701,
      "demic": 5702,
      "etooth": 5703,
      "asons": 5704,
      "rage": 5705,
      "image": 5706,
      "iger": 5707,
      "Ġones": 5708,
      "Ġiron": 5709,
      "Ġdeg": 5710,
      "ulf": 5711,
      "Ġjack": 5712,
      "Ġkafka": 5713,
      "Ġenabling": 5714,
      "ills": 5715,
      "Ġopenbsd": 5716,
      "2026": 5717,
      "angers": 5718,
      "antas": 5719,
      "Ġsuff": 5720,
      "ogen": 5721,
      "udes": 5722,
      "Ġblow": 5723,
      "Ġflutter": 5724,
      "Ġmeg": 5725,
      "Ġapril": 5726,
      "Ġdeclar": 5727,
      "enced": 5728,
      "Ġearning": 5729,
      "Ġvalues": 5730,
      "Ġpartner": 5731,
      "Ġmaybe": 5732,
      "Ġsupercomputer": 5733,
      "Ġannot": 5734,
      "Ġpoison": 5735,
      "Ġredes": 5736,
      "Ġfirewall": 5737,
      "Ġspecification": 5738,
      "Ġradar": 5739,
      "prec": 5740,
      "Ġcatalog": 5741,
      "Ġkorean": 5742,
      "Ġnightm": 5743,
      "Ġpatches": 5744,
      "Ġdoctors": 5745,
      "Ġincluding": 5746,
      "Ġhypoth": 5747,
      "Ġarrested": 5748,
      "Ġbluetooth": 5749,
      "Ġprovide": 5750,
      "Ġrecursive": 5751,
      "Ġinvisible": 5752,
      "Ġhuawei": 5753,
      "aid": 5754,
      "ba": 5755,
      "body": 5756,
      "cre": 5757,
      "fare": 5758,
      "game": 5759,
      "gov": 5760,
      "ht": 5761,
      "hold": 5762,
      "maker": 5763,
      "rant": 5764,
      "vision": 5765,
      "Ġaward": 5766,
      "Ġaverage": 5767,
      "Ġfrag": 5768,
      "Ġfresh": 5769,
      "ato": 5770,
      "Ġwashing": 5771,
      "Ġhier": 5772,
      "Ġgift": 5773,
      "star": 5774,
      "Ġvoy": 5775,
      "Ġran": 5776,
      "emon": 5777,
      "abil": 5778,
      "Ġconcept": 5779,
      "Ġclosing": 5780,
      "Ġaging": 5781,
      "Ġappl": 5782,
      "Ġalone": 5783,
      "Ġcompress": 5784,
      "Ġspan": 5785,
      "Ġspaces": 5786,
      "Ġsci": 5787,
      "Ġatm": 5788,
      "Ġsudd": 5789,
      "Ġcrew": 5790,
      "ruption": 5791,
      "Ġdeveloped": 5792,
      "Ġrecycl": 5793,
      "Ġfewer": 5794,
      "Ġimpress": 5795,
      "Ġmicha": 5796,
      "Ġrunner": 5797,
      "Ġdeclare": 5798,
      "click": 5799,
      "Ġmonopol": 5800,
      "ropy": 5801,
      "Ġexposure": 5802,
      "Ġartif": 5803,
      "Ġregular": 5804,
      "Ġbills": 5805,
      "Ġpasses": 5806,
      "Ġmultiplayer": 5807,
      "Ġrequired": 5808,
      "Ġoperator": 5809,
      "Ġblockchain": 5810,
      "Ġrestaur": 5811,
      "Ġfedora": 5812,
      "iveness": 5813,
      "Ġdomains": 5814,
      "Ġchecker": 5815,
      "Ġimplementing": 5816,
      "Ġgroups": 5817,
      "Ġofficially": 5818,
      "Ġpandemic": 5819,
      "Ġconversations": 5820,
      "Ġconnections": 5821,
      "Ġmistakes": 5822,
      "Ġfirmware": 5823,
      "Ġbalance": 5824,
      "Ġsummaries": 5825,
      "Ġexploration": 5826,
      "Ġaccuracy": 5827,
      "Ġalleged": 5828,
      "Ġdemocracy": 5829,
      "ocalypse": 5830,
      "Ġflexible": 5831,
      "Ġtheorem": 5832,
      "Ġqualcomm": 5833,
      "Ġconflict": 5834,
      "Ġmanifesto": 5835,
      "Ġbankruptcy": 5836,
      "Ġpivot": 5837,
      "Ġadvantage": 5838,
      "Ġsudden": 5839,
      "frame": 5840,
      "kan": 5841,
      "pic": 5842,
      "ses": 5843,
      "tree": 5844,
      "ya": 5845,
      "ym": 5846,
      "Ġsends": 5847,
      "Ġcro": 5848,
      "Ġcad": 5849,
      "esity": 5850,
      "Ġbun": 5851,
      "Ġthom": 5852,
      "Ġoh": 5853,
      "Ġlists": 5854,
      "Ġlua": 5855,
      "Ġrepe": 5856,
      "Ġforget": 5857,
      "Ġshock": 5858,
      "Ġshipping": 5859,
      "olith": 5860,
      "Ġstuck": 5861,
      "iminal": 5862,
      "Ġwhis": 5863,
      "ague": 5864,
      "Ġcoder": 5865,
      "emis": 5866,
      "umes": 5867,
      "Ġending": 5868,
      "Ġenforcement": 5869,
      "Ġunus": 5870,
      "Ġscroll": 5871,
      "ellar": 5872,
      "Ġsuit": 5873,
      "Ġsuch": 5874,
      "ailed": 5875,
      "Ġgoals": 5876,
      "Ġseven": 5877,
      "Ġautop": 5878,
      "Ġzoom": 5879,
      "Ġbackup": 5880,
      "encing": 5881,
      "commer": 5882,
      "Ġhighly": 5883,
      "Ġbrid": 5884,
      "Ġartists": 5885,
      "Ġswiss": 5886,
      "Ġvalve": 5887,
      "tools": 5888,
      "2006": 5889,
      "Ġantarctic": 5890,
      "Ġhealthcare": 5891,
      "Ġcapabilities": 5892,
      "Ġearthqu": 5893,
      "Ġmagaz": 5894,
      "Ġwinter": 5895,
      "Ġcheat": 5896,
      "Ġproposes": 5897,
      "Ġidentify": 5898,
      "Ġclients": 5899,
      "Ġexploiting": 5900,
      "Ġiceberg": 5901,
      "Ġminimalist": 5902,
      "Ġtargeted": 5903,
      "Ġrevealed": 5904,
      "Ġreaches": 5905,
      "Ġcomponent": 5906,
      "Ġenvironmental": 5907,
      "Ġwallet": 5908,
      "Ġcircuit": 5909,
      "Ġnixos": 5910,
      "Ġcsv": 5911,
      "Ġatlas": 5912,
      "Ġwireless": 5913,
      "Ġpiracy": 5914,
      "Ġastronomers": 5915,
      "Ġlaravel": 5916,
      "Ġscraping": 5917,
      "osphere": 5918,
      "Ġrelationship": 5919,
      "Ġdutch": 5920,
      "Ġconspiracy": 5921,
      "Ġsummary": 5922,
      "cil": 5923,
      "cost": 5924,
      "ew": 5925,
      "ele": 5926,
      "just": 5927,
      "kb": 5928,
      "ni": 5929,
      "pay": 5930,
      "talk": 5931,
      "truck": 5932,
      "Ġ~": 5933,
      "Ġaer": 5934,
      "Ġtan": 5935,
      "Ġfans": 5936,
      "Ġpm": 5937,
      "Ġwa": 5938,
      "Ġwat": 5939,
      "Ġwes": 5940,
      "Ġwide": 5941,
      "Ġha": 5942,
      "Ġthr": 5943,
      "Ġollama": 5944,
      "rooms": 5945,
      "Ġelement": 5946,
      "Ġreim": 5947,
      "iled": 5948,
      "asma": 5949,
      "Ġshed": 5950,
      "Ġshif": 5951,
      "Ġstocks": 5952,
      "Ġvault": 5953,
      "Ġweigh": 5954,
      "Ġagre": 5955,
      "Ġagencies": 5956,
      "Ġworry": 5957,
      "Ġtruck": 5958,
      "Ġiter": 5959,
      "ectors": 5960,
      "Ġalive": 5961,
      "Ġcompile": 5962,
      "Ġcomparing": 5963,
      "anta": 5964,
      "Ġrow": 5965,
      "Ġadam": 5966,
      "Ġcontact": 5967,
      "Ġworkload": 5968,
      "Ġserial": 5969,
      "Ġautism": 5970,
      "Ġfee": 5971,
      "Ġcolors": 5972,
      "Ġworldwide": 5973,
      "Ġpeace": 5974,
      "Ġanywhere": 5975,
      "Ġartist": 5976,
      "Ġwrites": 5977,
      "law": 5978,
      "2004": 5979,
      "Ġsignificant": 5980,
      "Ġ99": 5981,
      "made": 5982,
      "Ġtheme": 5983,
      "Ġanalyst": 5984,
      "Ġcorrect": 5985,
      "Ġintegrated": 5986,
      "iques": 5987,
      "Ġterms": 5988,
      "Ġcolorado": 5989,
      "Ġconversion": 5990,
      "Ġpdfs": 5991,
      "Ġdreams": 5992,
      "Ġcharged": 5993,
      "device": 5994,
      "Ġsatellites": 5995,
      "Ġillust": 5996,
      "Ġillusion": 5997,
      "Ġsending": 5998,
      "Ġsensor": 5999,
      "Ġhabits": 6000,
      "Ġneuro": 6001,
      "Ġresponses": 6002,
      "Ġrfc": 6003,
      "Ġjeff": 6004,
      "Ġbelieve": 6005,
      "Ġwildf": 6006,
      "Ġbottlen": 6007,
      "Ġexercise": 6008,
      "Ġryzen": 6009,
      "memory": 6010,
      "intelligence": 6011,
      "Ġgiants": 6012,
      "Ġhierarch": 6013,
      "04": 6014,
      "foc": 6015,
      "gery": 6016,
      "ipped": 6017,
      "par": 6018,
      "pack": 6019,
      "sourced": 6020,
      "ued": 6021,
      "vant": 6022,
      "ÂŃ": 6023,
      "Ġ+": 6024,
      "Ġara": 6025,
      "Ġaware": 6026,
      "Ġtsm": 6027,
      "Ġsick": 6028,
      "Ġcis": 6029,
      "Ġcame": 6030,
      "Ġfan": 6031,
      "Ġfem": 6032,
      "Ġfields": 6033,
      "Ġmakers": 6034,
      "Ġwine": 6035,
      "Ġhav": 6036,
      "itution": 6037,
      "Ġbound": 6038,
      "Ġlos": 6039,
      "Ġgh": 6040,
      "Ġgle": 6041,
      "Ġoften": 6042,
      "imited": 6043,
      "ago": 6044,
      "Ġchrom": 6045,
      "Ġride": 6046,
      "Ġdelete": 6047,
      "Ġneur": 6048,
      "unds": 6049,
      "estone": 6050,
      "Ġkim": 6051,
      "Ġagile": 6052,
      "Ġtrip": 6053,
      "ighter": 6054,
      "Ġsued": 6055,
      "Ġsuite": 6056,
      "ibly": 6057,
      "Ġarbit": 6058,
      "Ġresol": 6059,
      "Ġresolution": 6060,
      "Ġdism": 6061,
      "Ġ35": 6062,
      "Ġsever": 6063,
      "Ġtrains": 6064,
      "Ġcreativity": 6065,
      "Ġfeels": 6066,
      "Ġoffic": 6067,
      "Ġprogramm": 6068,
      "ashes": 6069,
      "Ġinfo": 6070,
      "Ġstudies": 6071,
      "conn": 6072,
      "Ġdesigns": 6073,
      "Ġinstrum": 6074,
      "Ġretire": 6075,
      "Ġtechniques": 6076,
      "Ġplayers": 6077,
      "Ġobesity": 6078,
      "iversary": 6079,
      "Ġsubt": 6080,
      "Ġsafer": 6081,
      "Ġinvesting": 6082,
      "Ġstealing": 6083,
      "Ġrevis": 6084,
      "Ġsmaller": 6085,
      "Ġcommunities": 6086,
      "Ġgitlab": 6087,
      "Ġsilent": 6088,
      "Ġkiller": 6089,
      "Ġfeeds": 6090,
      "Ġnormal": 6091,
      "Ġfrequ": 6092,
      "Ġturb": 6093,
      "Ġputting": 6094,
      "Ġcharges": 6095,
      "Ġcontinues": 6096,
      "Ġdetecting": 6097,
      "Ġremoves": 6098,
      "written": 6099,
      "Ġpodcasts": 6100,
      "Ġrouting": 6101,
      "Ġenhanced": 6102,
      "Ġtailwind": 6103,
      "Ġaddresses": 6104,
      "Ġanalyzer": 6105,
      "Ġrecommendations": 6106,
      "Ġnavigating": 6107,
      "Ġgarbage": 6108,
      "Ġownership": 6109,
      "Ġjuly": 6110,
      "Ġleaderboard": 6111,
      "Ġmurder": 6112,
      "brows": 6113,
      "Ġfiber": 6114,
      "Ġventure": 6115,
      "Ġtransparency": 6116,
      "Ġreflections": 6117,
      "Ġdatacenter": 6118,
      "Ġinterpret": 6119,
      "Ġcryst": 6120,
      "Ġmichael": 6121,
      "Ġtsmc": 6122,
      "?\"": 6123,
      "bes": 6124,
      "dog": 6125,
      "dict": 6126,
      "hop": 6127,
      "high": 6128,
      "ii": 6129,
      "mx": 6130,
      "pal": 6131,
      "vit": 6132,
      "Ġaur": 6133,
      "inder": 6134,
      "Ġtet": 6135,
      "Ġtank": 6136,
      "Ġcast": 6137,
      "Ġfell": 6138,
      "Ġpra": 6139,
      "Ġment": 6140,
      "Ġwis": 6141,
      "Ġwood": 6142,
      "Ġho": 6143,
      "Ġoxy": 6144,
      "icit": 6145,
      "Ġtotal": 6146,
      "Ġanimal": 6147,
      "Ġgri": 6148,
      "Ġgaza": 6149,
      "Ġnost": 6150,
      "Ġnamed": 6151,
      "Ġech": 6152,
      "Ġsty": 6153,
      "Ġstem": 6154,
      "âĢĿ": 6155,
      "Ġvac": 6156,
      "Ġvend": 6157,
      "Ġvene": 6158,
      "cha": 6159,
      "Ġrat": 6160,
      "Ġrip": 6161,
      "lywood": 6162,
      "ifier": 6163,
      "Ġtries": 6164,
      "aint": 6165,
      "ansion": 6166,
      "Ġleap": 6167,
      "Ġwebgpu": 6168,
      "ikes": 6169,
      "Ġ300": 6170,
      "Ġlazy": 6171,
      "Ġseem": 6172,
      "odb": 6173,
      "Ġguil": 6174,
      "Ġwarfare": 6175,
      "Ġexplos": 6176,
      "Ġpolar": 6177,
      "apping": 6178,
      "Ġhighlights": 6179,
      "Ġbrick": 6180,
      "Ġparis": 6181,
      "Ġartemis": 6182,
      "Ġbanana": 6183,
      "Ġwriter": 6184,
      "Ġanniversary": 6185,
      "Ġstarter": 6186,
      "Ġregulation": 6187,
      "Ġrobotic": 6188,
      "Ġvisualizing": 6189,
      "Ġaddiction": 6190,
      "Ġstops": 6191,
      "Ġtermin": 6192,
      "Ġblocked": 6193,
      "Ġanalyze": 6194,
      "Ġbiology": 6195,
      "Ġmicropl": 6196,
      "Ġastro": 6197,
      "Ġcybertruck": 6198,
      "Ġepis": 6199,
      "Ġfalls": 6200,
      "Ġterrible": 6201,
      "liner": 6202,
      "Ġpanic": 6203,
      "Ġmisinformation": 6204,
      "Ġcombat": 6205,
      "Ġconsumers": 6206,
      "Ġconsumption": 6207,
      "Ġlaptops": 6208,
      "Ġelements": 6209,
      "Ġconfiguration": 6210,
      "Ġtemplates": 6211,
      "Ġawesome": 6212,
      "Ġisraeli": 6213,
      "know": 6214,
      "Ġebpf": 6215,
      "ginx": 6216,
      "Ġgarden": 6217,
      "Ġwolf": 6218,
      "Ġastronauts": 6219,
      "Ġscandal": 6220,
      "Ġsiri": 6221,
      "Ġnightmare": 6222,
      ")?": 6223,
      "27": 6224,
      "aug": 6225,
      "aws": 6226,
      "bling": 6227,
      "eu": 6228,
      "fact": 6229,
      "field": 6230,
      "lor": 6231,
      "mail": 6232,
      "nb": 6233,
      "tw": 6234,
      "zuel": 6235,
      "inst": 6236,
      "Ġcc": 6237,
      "Ġcia": 6238,
      "rete": 6239,
      "orter": 6240,
      "Ġmong": 6241,
      "Ġhiding": 6242,
      "anes": 6243,
      "Ġdict": 6244,
      "Ġlies": 6245,
      "Ġgain": 6246,
      "Ġgall": 6247,
      "Ġgram": 6248,
      "Ġreasons": 6249,
      "Ġug": 6250,
      "Ġstone": 6251,
      "imens": 6252,
      "Ġvo": 6253,
      "Ġrs": 6254,
      "Ġrul": 6255,
      "Ġiphones": 6256,
      "Ġasci": 6257,
      "Ġneo": 6258,
      "Ġmoved": 6259,
      "Ġkh": 6260,
      "Ġkarp": 6261,
      "Ġexternal": 6262,
      "Ġplasma": 6263,
      "mentation": 6264,
      "Ġresc": 6265,
      "Ġ2027": 6266,
      "Ġoverflow": 6267,
      "Ġhasn": 6268,
      "odes": 6269,
      "Ġguid": 6270,
      "cli": 6271,
      "Ġpeak": 6272,
      "conduct": 6273,
      "Ġdesigner": 6274,
      "Ġmembers": 6275,
      "Ġmanaged": 6276,
      "ypes": 6277,
      "Ġproton": 6278,
      "Ġparticle": 6279,
      "Ġgoodbye": 6280,
      "197": 6281,
      "Ġbilling": 6282,
      "Ġglobally": 6283,
      "ength": 6284,
      "Ġaudi": 6285,
      "Ġfrust": 6286,
      "Ġfilesystem": 6287,
      "Ġtokyo": 6288,
      "Ġfarmers": 6289,
      "Ġwatching": 6290,
      "spot": 6291,
      "Ġdepth": 6292,
      "breaking": 6293,
      "Ġleaks": 6294,
      "contin": 6295,
      "Ġanalyzing": 6296,
      "Ġspyware": 6297,
      "Ġdamage": 6298,
      "Ġsequence": 6299,
      "ĠâĢľ": 6300,
      "Ġreinforcement": 6301,
      "Ġinitiative": 6302,
      "Ġangel": 6303,
      "Ġrolls": 6304,
      "Ġforecasting": 6305,
      "ĠâĤ¬": 6306,
      "Ġalien": 6307,
      "Ġadmits": 6308,
      "Ġdinos": 6309,
      "Ġdeepfake": 6310,
      "Ġoctober": 6311,
      "Ġconsidered": 6312,
      "Ġemotional": 6313,
      "Ġpicture": 6314,
      "Ġconcurrency": 6315,
      "Ġexperiences": 6316,
      "Ġcitizens": 6317,
      "Ġsvg": 6318,
      "Ġcertificate": 6319,
      "Ġdeleted": 6320,
      "Ġthousands": 6321,
      "Ġwheel": 6322,
      "Ġcyberattack": 6323,
      "browser": 6324,
      "Ġvenezuel": 6325,
      "',": 6326,
      "700": 6327,
      "800": 6328,
      "den": 6329,
      "fo": 6330,
      "fil": 6331,
      "goo": 6332,
      "long": 6333,
      "rative": 6334,
      "rint": 6335,
      "tb": 6336,
      "tf": 6337,
      "wik": 6338,
      "xiv": 6339,
      "Ġau": 6340,
      "inting": 6341,
      "Ġcms": 6342,
      "real": 6343,
      "oriented": 6344,
      "Ġfill": 6345,
      "Ġwip": 6346,
      "Ġbow": 6347,
      "Ġlou": 6348,
      "Ġlect": 6349,
      "icity": 6350,
      "Ġgains": 6351,
      "Ġnom": 6352,
      "Ġnice": 6353,
      "Ġeclip": 6354,
      "Ġwhether": 6355,
      "ags": 6356,
      "Ġriver": 6357,
      "Ġneigh": 6358,
      "Ġcoded": 6359,
      "abase": 6360,
      "Ġclim": 6361,
      "Ġappears": 6362,
      "Ġtrib": 6363,
      "Ġtracing": 6364,
      "Ġalb": 6365,
      "Ġalter": 6366,
      "Ġalask": 6367,
      "Ġcompat": 6368,
      "Ġopenapi": 6369,
      "aping": 6370,
      "rian": 6371,
      "ublic": 6372,
      "Ġdoj": 6373,
      "Ġcann": 6374,
      "Ġcanon": 6375,
      "active": 6376,
      "sequ": 6377,
      "Ġdevops": 6378,
      "Ġleet": 6379,
      "gex": 6380,
      "Ġteens": 6381,
      "Ġflock": 6382,
      "Ġbrought": 6383,
      "ucks": 6384,
      "boot": 6385,
      "Ġboiler": 6386,
      "week": 6387,
      "Ġmonet": 6388,
      "Ġexpression": 6389,
      "Ġresearcher": 6390,
      "rich": 6391,
      "Ġbreath": 6392,
      "aze": 6393,
      "Ġoption": 6394,
      "manent": 6395,
      "Ġsignature": 6396,
      "Ġdifference": 6397,
      "Ġdistance": 6398,
      "Ġdelta": 6399,
      "Ġseeing": 6400,
      "Ġblackout": 6401,
      "Ġsaying": 6402,
      "Ġweekend": 6403,
      "mode": 6404,
      "Ġreduction": 6405,
      "Ġdocumentary": 6406,
      "grade": 6407,
      "Ġorganization": 6408,
      "Ġhollywood": 6409,
      "Ġfamil": 6410,
      "Ġplugins": 6411,
      "Ġvolcan": 6412,
      "Ġbillionaires": 6413,
      "Ġmaxim": 6414,
      "Ġfigure": 6415,
      "Ġparadig": 6416,
      "Ġposition": 6417,
      "Ġmythos": 6418,
      "Ġmerge": 6419,
      "related": 6420,
      "Ġgodot": 6421,
      "Ġjanuary": 6422,
      "Ġfingerpr": 6423,
      "Ġphysicists": 6424,
      "Ġlambda": 6425,
      "Ġrolling": 6426,
      "Ġsemiconductor": 6427,
      "Ġwashington": 6428,
      "Ġmagazine": 6429,
      "Ġeclipse": 6430,
      "33": 6431,
      "55": 6432,
      "bank": 6433,
      "lers": 6434,
      "pan": 6435,
      "uz": 6436,
      "Ġawards": 6437,
      "Ġsig": 6438,
      "Ġpun": 6439,
      "Ġmas": 6440,
      "Ġmine": 6441,
      "Ġwiz": 6442,
      "Ġhaw": 6443,
      "Ġhoney": 6444,
      "Ġhope": 6445,
      "Ġbros": 6446,
      "Ġbund": 6447,
      "Ġdoll": 6448,
      "Ġdiction": 6449,
      "Ġddos": 6450,
      "Ġoz": 6451,
      "Ġoauth": 6452,
      "Ġliv": 6453,
      "Ġine": 6454,
      "icip": 6455,
      "Ġna": 6456,
      "Ġner": 6457,
      "Ġstability": 6458,
      "otic": 6459,
      "Ġchair": 6460,
      "Ġiot": 6461,
      "Ġdear": 6462,
      "Ġdement": 6463,
      "Ġasia": 6464,
      "Ġcoverage": 6465,
      "irty": 6466,
      "Ġconsequ": 6467,
      "Ġkid": 6468,
      "Ġexit": 6469,
      "Ġbuys": 6470,
      "Ġtricks": 6471,
      "plate": 6472,
      "Ġunity": 6473,
      "Ġscores": 6474,
      "Ġatomic": 6475,
      "Ġrocks": 6476,
      "Ġrobert": 6477,
      "Ġprs": 6478,
      "Ġprimer": 6479,
      "Ġaccept": 6480,
      "Ġdispl": 6481,
      "Ġdisput": 6482,
      "Ġovert": 6483,
      "Ġoutbreak": 6484,
      "Ġoutlook": 6485,
      "Ġevil": 6486,
      "Ġapoll": 6487,
      "Ġmush": 6488,
      "Ġworlds": 6489,
      "Ġfines": 6490,
      "verse": 6491,
      "Ġcarry": 6492,
      "ancer": 6493,
      "Ġcompanion": 6494,
      "Ġvscode": 6495,
      "Ġpromises": 6496,
      "Ġactually": 6497,
      "next": 6498,
      "Ġcauses": 6499,
      "Ġcontroller": 6500,
      "Ġstruggling": 6501,
      "Ġentry": 6502,
      "screen": 6503,
      "Ġvisualizer": 6504,
      "Ġcommunications": 6505,
      "Ġrequires": 6506,
      "profit": 6507,
      "Ġ1000": 6508,
      "office": 6509,
      "Ġported": 6510,
      "Ġapproval": 6511,
      "ditions": 6512,
      "Ġurls": 6513,
      "Ġheads": 6514,
      "Ġchecking": 6515,
      "Ġfarm": 6516,
      "spec": 6517,
      "Ġrent": 6518,
      "Ġterror": 6519,
      "Ġcellular": 6520,
      "Ġreducing": 6521,
      "Ġloops": 6522,
      "Ġmeetings": 6523,
      "Ġprotecting": 6524,
      "Ġaccelerate": 6525,
      "Ġcombinator": 6526,
      "writer": 6527,
      "Ġsanctions": 6528,
      "Ġscanning": 6529,
      "Ġsensitive": 6530,
      "Ġdeno": 6531,
      "Ġdenmark": 6532,
      "Ġsynthesis": 6533,
      "Ġauthorization": 6534,
      "Ġsonnet": 6535,
      "Ġefforts": 6536,
      "Ġbroadcast": 6537,
      "Ġfitness": 6538,
      "Ġbulk": 6539,
      "Ġegg": 6540,
      "Ġflags": 6541,
      "Ġrequirements": 6542,
      "Ġinitial": 6543,
      "Ġrobust": 6544,
      "Ġchannels": 6545,
      "Ġvictims": 6546,
      "Ġmagnetic": 6547,
      "Ġpermission": 6548,
      "Ġscenes": 6549,
      "Ġdisclosure": 6550,
      "Ġsabot": 6551,
      "Ġaffordable": 6552,
      "Ġlithium": 6553,
      "Ġprinciple": 6554,
      "Ġcommodore": 6555,
      "Ġfurther": 6556,
      "Ġheavy": 6557,
      "Ġmedicine": 6558,
      "commerce": 6559,
      "Ġgleam": 6560,
      "38": 6561,
      "bal": 6562,
      "bet": 6563,
      "cap": 6564,
      "cale": 6565,
      "ea": 6566,
      "fy": 6567,
      "ference": 6568,
      "hi": 6569,
      "hack": 6570,
      "lier": 6571,
      "mi": 6572,
      "mac": 6573,
      "master": 6574,
      "oen": 6575,
      "rc": 6576,
      "uage": 6577,
      "Ġtts": 6578,
      "Ġsac": 6579,
      "Ġft": 6580,
      "Ġpf": 6581,
      "Ġmd": 6582,
      "Ġwaves": 6583,
      "Ġbond": 6584,
      "Ġdub": 6585,
      "Ġdivers": 6586,
      "alph": 6587,
      "ara": 6588,
      "iced": 6589,
      "icide": 6590,
      "Ġgif": 6591,
      "Ġgang": 6592,
      "store": 6593,
      "ola": 6594,
      "Ġven": 6595,
      "Ġvert": 6596,
      "otes": 6597,
      "agen": 6598,
      "Ġchamp": 6599,
      "Ġkick": 6600,
      "Ġscans": 6601,
      "Ġarena": 6602,
      "Ġrog": 6603,
      "Ġprime": 6604,
      "udi": 6605,
      "Ġsept": 6606,
      "Ġflux": 6607,
      "Ġpret": 6608,
      "icted": 6609,
      "oku": 6610,
      "Ġgradu": 6611,
      "Ġremains": 6612,
      "Ġexpansion": 6613,
      "Ġautomating": 6614,
      "Ġserving": 6615,
      "Ġsubstack": 6616,
      "Ġukrain": 6617,
      "ussian": 6618,
      "Ġceos": 6619,
      "Ġantib": 6620,
      "Ġsynd": 6621,
      "Ġtyped": 6622,
      "Ġhealthy": 6623,
      "Ġbookmark": 6624,
      "proof": 6625,
      "Ġfriday": 6626,
      "idential": 6627,
      "Ġgemma": 6628,
      "Ġbiological": 6629,
      "Ġportal": 6630,
      "Ġfarms": 6631,
      "Ġpropag": 6632,
      "Ġsemi": 6633,
      "Ġdeaths": 6634,
      "Ġturbo": 6635,
      "generation": 6636,
      "Ġdeploying": 6637,
      "fficient": 6638,
      "Ġcouncil": 6639,
      "Ġunlimited": 6640,
      "Ġanimals": 6641,
      "Ġcrashes": 6642,
      "Ġexisting": 6643,
      "Ġprepare": 6644,
      "Ġfaa": 6645,
      "Ġsquare": 6646,
      "Ġqueue": 6647,
      "Ġspectrum": 6648,
      "Ġabstraction": 6649,
      "Ġrestrictions": 6650,
      "Ġminimum": 6651,
      "Ġuncertain": 6652,
      "Ġpremium": 6653,
      "Ġanxiety": 6654,
      "Ġautopilot": 6655,
      "Ġarab": 6656,
      "Ġguidance": 6657,
      "Ġdementia": 6658,
      "Ġapollo": 6659,
      ".\"": 6660,
      "cor": 6661,
      "from": 6662,
      "hand": 6663,
      "las": 6664,
      "max": 6665,
      "oes": 6666,
      "py": 6667,
      "ports": 6668,
      "war": 6669,
      "Ġtack": 6670,
      "Ġtale": 6671,
      "Ġtaste": 6672,
      "Ġssd": 6673,
      "orge": 6674,
      "Ġfif": 6675,
      "Ġfable": 6676,
      "Ġfold": 6677,
      "ingu": 6678,
      "Ġmun": 6679,
      "Ġble": 6680,
      "Ġbear": 6681,
      "Ġbount": 6682,
      "Ġdh": 6683,
      "Ġlen": 6684,
      "Ġlack": 6685,
      "Ġthems": 6686,
      "edel": 6687,
      "icies": 6688,
      "Ġnic": 6689,
      "Ġnine": 6690,
      "Ġnginx": 6691,
      "Ġeight": 6692,
      "Ġuv": 6693,
      "ecess": 6694,
      "Ġstake": 6695,
      "Ġchick": 6696,
      "Ġrating": 6697,
      "Ġire": 6698,
      "Ġneg": 6699,
      "Ġcock": 6700,
      "Ġusa": 6701,
      "ada": 6702,
      "Ġconditions": 6703,
      "Ġkde": 6704,
      "Ġtrace": 6705,
      "Ġunb": 6706,
      "Ġuncover": 6707,
      "Ġintu": 6708,
      "izable": 6709,
      "Ġarray": 6710,
      "Ġlever": 6711,
      "Ġresign": 6712,
      "Ġlaid": 6713,
      "Ġserious": 6714,
      "Ġevals": 6715,
      "Ġprefer": 6716,
      "Ġfeb": 6717,
      "Ġbrown": 6718,
      "Ġdecember": 6719,
      "Ġdecomp": 6720,
      "Ġproduce": 6721,
      "Ġexplan": 6722,
      "Ġpolicies": 6723,
      "rolling": 6724,
      "Ġremot": 6725,
      "Ġarticle": 6726,
      "Ġretros": 6727,
      "Ġactors": 6728,
      "velte": 6729,
      "Ġcausing": 6730,
      "Ġpoet": 6731,
      "Ġreplication": 6732,
      "Ġprofiles": 6733,
      "Ġmissile": 6734,
      "Ġtakeover": 6735,
      "Ġgeo": 6736,
      "Ġprompting": 6737,
      "blox": 6738,
      "Ġcybercr": 6739,
      "Ġpiece": 6740,
      "Ġwonder": 6741,
      "Ġblogging": 6742,
      "Ġultr": 6743,
      "Ġshortc": 6744,
      "trans": 6745,
      "Ġconstant": 6746,
      "Ġpublished": 6747,
      "Ġnavy": 6748,
      "linked": 6749,
      "Ġpainting": 6750,
      "Ġbirds": 6751,
      "Ġsimpler": 6752,
      "Ġcooling": 6753,
      "Ġspreadsheet": 6754,
      "Ġextraction": 6755,
      "Ġscripting": 6756,
      "compatible": 6757,
      "Ġachieve": 6758,
      "language": 6759,
      "Ġdisappearing": 6760,
      "known": 6761,
      "Ġtitan": 6762,
      "Ġhonest": 6763,
      "Ġvaluable": 6764,
      "Ġtoyota": 6765,
      "Ġstatistics": 6766,
      "Ġwearable": 6767,
      "Ġcontroversial": 6768,
      "Ġimmigration": 6769,
      "Ġcaching": 6770,
      "Ġsettlement": 6771,
      "Ġhypothesis": 6772,
      "Ġmonopoly": 6773,
      "Ġwestern": 6774,
      "Ġoxygen": 6775,
      "Ġcompatibility": 6776,
      "Ġthemselves": 6777,
      "36": 6778,
      "45": 6779,
      "aa": 6780,
      "bin": 6781,
      "brain": 6782,
      "fp": 6783,
      "fire": 6784,
      "gets": 6785,
      "mart": 6786,
      "python": 6787,
      "ties": 6788,
      "txt": 6789,
      "vy": 6790,
      "you": 6791,
      "inds": 6792,
      "Ġsor": 6793,
      "Ġsaving": 6794,
      "Ġsvelte": 6795,
      "Ġcm": 6796,
      "Ġcisco": 6797,
      "Ġfer": 6798,
      "Ġfon": 6799,
      "Ġfram": 6800,
      "Ġfacing": 6801,
      "Ġpaste": 6802,
      "Ġmull": 6803,
      "Ġhd": 6804,
      "Ġhaz": 6805,
      "Ġhero": 6806,
      "Ġocc": 6807,
      "Ġlum": 6808,
      "Ġlux": 6809,
      "Ġink": 6810,
      "icult": 6811,
      "str": 6812,
      "Ġregex": 6813,
      "dex": 6814,
      "Ġships": 6815,
      "Ġshield": 6816,
      "Ġstole": 6817,
      "Ġvar": 6818,
      "Ġshowing": 6819,
      "aml": 6820,
      "amin": 6821,
      "Ġrig": 6822,
      "Ġrce": 6823,
      "Ġnegot": 6824,
      "adata": 6825,
      "osition": 6826,
      "Ġkan": 6827,
      "Ġenables": 6828,
      "Ġapply": 6829,
      "Ġcompose": 6830,
      "Ġopening": 6831,
      "Ġbyd": 6832,
      "Ġroy": 6833,
      "Ġroles": 6834,
      "coded": 6835,
      "Ġflights": 6836,
      "Ġzone": 6837,
      "Ġfees": 6838,
      "Ġimpacts": 6839,
      "Ġcolum": 6840,
      "Ġpermanent": 6841,
      "Ġrepublic": 6842,
      "Ġwilliam": 6843,
      "Ġtranscription": 6844,
      "Ġdrinking": 6845,
      "cons": 6846,
      "config": 6847,
      "Ġcrush": 6848,
      "Ġcriminal": 6849,
      "apped": 6850,
      "Ġsurpass": 6851,
      "Ġhighlight": 6852,
      "Ġattract": 6853,
      "Ġmeme": 6854,
      "Ġmicroserv": 6855,
      "Ġdetector": 6856,
      "Ġtechnique": 6857,
      "priv": 6858,
      "Ġdemyst": 6859,
      "Ġregister": 6860,
      "Ġguidelines": 6861,
      "Ġsafely": 6862,
      "Ġinvestor": 6863,
      "Ġdistill": 6864,
      "Ġrefer": 6865,
      "Ġprofiling": 6866,
      "Ġlayout": 6867,
      "hosting": 6868,
      "Ġdirector": 6869,
      "Ġtransformation": 6870,
      "Ġmilestone": 6871,
      "Ġnorway": 6872,
      "Ġchildhood": 6873,
      "Ġprinter": 6874,
      "linux": 6875,
      "Ġfuels": 6876,
      "Ġfamous": 6877,
      "Ġpublishers": 6878,
      "Ġgreenland": 6879,
      "Ġinvestigating": 6880,
      "Ġanimated": 6881,
      "Ġremoving": 6882,
      "Ġsimplify": 6883,
      "Ġpsychedel": 6884,
      "Ġelev": 6885,
      "Ġargent": 6886,
      "Ġprinted": 6887,
      "Ġlifetime": 6888,
      "building": 6889,
      "Ġliterature": 6890,
      "caml": 6891,
      "Ġticket": 6892,
      "Ġrewrite": 6893,
      "Ġhallucinations": 6894,
      "orphic": 6895,
      "Ġairbnb": 6896,
      "speed": 6897,
      "Ġannouncement": 6898,
      "Ġcowork": 6899,
      "Ġfpga": 6900,
      "Ġshopping": 6901,
      "Ġreproduc": 6902,
      "Ġentrepreneur": 6903,
      "Ġtreasury": 6904,
      "Ġgradient": 6905,
      "claude": 6906,
      "Ġclinical": 6907,
      "Ġmicroplastics": 6908,
      "Ġascii": 6909,
      ".'": 6910,
      ".)": 6911,
      "21": 6912,
      "48": 6913,
      "600": 6914,
      "don": 6915,
      "drop": 6916,
      "gram": 6917,
      "hire": 6918,
      "lay": 6919,
      "rical": 6920,
      "rating": 6921,
      "zero": 6922,
      "instein": 6923,
      "Ġtls": 6924,
      "Ġsight": 6925,
      "Ġcto": 6926,
      "Ġcraft": 6927,
      "ording": 6928,
      "Ġfert": 6929,
      "esth": 6930,
      "Ġmarg": 6931,
      "Ġwast": 6932,
      "Ġhob": 6933,
      "Ġbang": 6934,
      "rot": 6935,
      "Ġgd": 6936,
      "Ġnim": 6937,
      "Ġreform": 6938,
      "Ġforge": 6939,
      "eland": 6940,
      "Ġstim": 6941,
      "Ġvectors": 6942,
      "Ġwhist": 6943,
      "Ġiq": 6944,
      "employ": 6945,
      "Ġkong": 6946,
      "Ġencoding": 6947,
      "Ġalong": 6948,
      "Ġunits": 6949,
      "aph": 6950,
      "Ġsparks": 6951,
      "Ġplays": 6952,
      "Ġplaces": 6953,
      "ortex": 6954,
      "Ġroblox": 6955,
      "Ġinteroper": 6956,
      "Ġcontra": 6957,
      "eping": 6958,
      "Ġups": 6959,
      "Ġseg": 6960,
      "Ġrab": 6961,
      "Ġmeat": 6962,
      "Ġmetab": 6963,
      "Ġmetadata": 6964,
      "Ġbets": 6965,
      "Ġrealistic": 6966,
      "Ġbuilders": 6967,
      "comes": 6968,
      "ologists": 6969,
      "Ġsearches": 6970,
      "Ġswap": 6971,
      "Ġdonald": 6972,
      "Ġtwice": 6973,
      "Ġactual": 6974,
      "Ġerlang": 6975,
      "Ġstrings": 6976,
      "Ġ737": 6977,
      "Ġformula": 6978,
      "Ġsteel": 6979,
      "Ġstealth": 6980,
      "Ġsynchron": 6981,
      "Ġlesson": 6982,
      "Ġfailing": 6983,
      "Ġgraphql": 6984,
      "Ġreactor": 6985,
      "Ġprofess": 6986,
      "Ġmagn": 6987,
      "Ġpackaging": 6988,
      "Ġvulkan": 6989,
      "Ġmonthly": 6990,
      "Ġhalt": 6991,
      "Ġtaxes": 6992,
      "Ġorganic": 6993,
      "Ġpanel": 6994,
      "Ġmotiv": 6995,
      "Ġcontinue": 6996,
      "Ġtranslate": 6997,
      "Ġremoval": 6998,
      "Ġimmune": 6999,
      "Ġburning": 7000,
      "Ġfeeling": 7001,
      "Ġexample": 7002,
      "Ġsavings": 7003,
      "Ã©mon": 7004,
      "Ġacadem": 7005,
      "Ġbirthday": 7006,
      "Ġalphabet": 7007,
      "Ġhistoric": 7008,
      "Ġreplaced": 7009,
      "Ġsovereignty": 7010,
      "Ġparamet": 7011,
      "Ġdragon": 7012,
      "Ġunreal": 7013,
      "Ġdeepfakes": 7014,
      "Ġtransactions": 7015,
      "Ġjupy": 7016,
      "Ġpioneer": 7017,
      "Ġgirl": 7018,
      "Ġemoji": 7019,
      "Ġsuddenly": 7020,
      "focused": 7021,
      "Ġalaska": 7022,
      "Ġleetcode": 7023,
      "150": 7024,
      "47": 7025,
      "away": 7026,
      "bur": 7027,
      "eon": 7028,
      "fly": 7029,
      "git": 7030,
      "gate": 7031,
      "jour": 7032,
      "now": 7033,
      "nam": 7034,
      "oat": 7035,
      "pet": 7036,
      "prom": 7037,
      "rd": 7038,
      "sized": 7039,
      "wid": 7040,
      "Ã¶": 7041,
      "Ġton": 7042,
      "Ġtape": 7043,
      "Ġsag": 7044,
      "Ġsector": 7045,
      "Ġcer": 7046,
      "reds": 7047,
      "Ġfel": 7048,
      "atom": 7049,
      "Ġpays": 7050,
      "Ġmc": 7051,
      "Ġmim": 7052,
      "Ġmolt": 7053,
      "Ġwake": 7054,
      "Ġwifi": 7055,
      "Ġhang": 7056,
      "Ġthiel": 7057,
      "Ġdm": 7058,
      "alg": 7059,
      "rout": 7060,
      "Ġanime": 7061,
      "aced": 7062,
      "Ġstall": 7063,
      "otlin": 7064,
      "Ġproced": 7065,
      "Ġrush": 7066,
      "Ġdeprec": 7067,
      "Ġcoh": 7068,
      "Ġcores": 7069,
      "Ġtrillion": 7070,
      "istant": 7071,
      "ria": 7072,
      "asts": 7073,
      "Ġintro": 7074,
      "Ġarms": 7075,
      "Ġadult": 7076,
      "Ġwebh": 7077,
      "upd": 7078,
      "ereum": 7079,
      "Ġ28": 7080,
      "Ġsecuring": 7081,
      "Ġlinus": 7082,
      "Ġaccording": 7083,
      "Ġmega": 7084,
      "ruary": 7085,
      "Ġreconst": 7086,
      "Ġrecruit": 7087,
      "ilem": 7088,
      "Ġcolon": 7089,
      "Ġapocalypse": 7090,
      "Ġtransm": 7091,
      "ashion": 7092,
      "Ġ45": 7093,
      "Ġ48": 7094,
      "Ġwarming": 7095,
      "Ġindic": 7096,
      "Ġcargo": 7097,
      "Ġcarrier": 7098,
      "Ġmemor": 7099,
      "Ġmemories": 7100,
      "Ġinstance": 7101,
      "Ġsearching": 7102,
      "Ġbrands": 7103,
      "Ġelimin": 7104,
      "Ġexpands": 7105,
      "Ġclouds": 7106,
      "Ġwasn": 7107,
      "Ġconsistent": 7108,
      "Ġplanes": 7109,
      "Ġprivile": 7110,
      "Ġskin": 7111,
      "Ġwriters": 7112,
      "Ġsigned": 7113,
      "Ġadvance": 7114,
      "Ġadvances": 7115,
      "Ġentropy": 7116,
      "Ġannoy": 7117,
      "Ġregistry": 7118,
      "Ġdistract": 7119,
      "Ġmario": 7120,
      "Ġaccessible": 7121,
      "Ġletters": 7122,
      "tenance": 7123,
      "Ġhtmx": 7124,
      "Ġdiabet": 7125,
      "Ġsnake": 7126,
      "Ġsmartphones": 7127,
      "Ġlegend": 7128,
      "Ġcollision": 7129,
      "backed": 7130,
      "Ġbios": 7131,
      "Ġwinds": 7132,
      "Ġsucks": 7133,
      "Ġcompilers": 7134,
      "value": 7135,
      "Ġpushes": 7136,
      "Ġexploited": 7137,
      "Ġcompetitive": 7138,
      "Ġfundament": 7139,
      "Ġboosts": 7140,
      "Ġhappening": 7141,
      "Ġanimations": 7142,
      "Ġscams": 7143,
      "Ġtexts": 7144,
      "Ġdiseases": 7145,
      "Ġwalmart": 7146,
      "Ġpuzzles": 7147,
      "ilingual": 7148,
      "Ġpulls": 7149,
      "Ġcollective": 7150,
      "Ġtrend": 7151,
      "Ġanalyzed": 7152,
      "Ġrichard": 7153,
      "Ġschedule": 7154,
      "Ġsurvival": 7155,
      "Ġgnome": 7156,
      "Ġbullet": 7157,
      "Ġunlocking": 7158,
      "Ġimplications": 7159,
      "Ġvmware": 7160,
      "Ġwrapped": 7161,
      "Ġmountain": 7162,
      "Ġsnowfl": 7163,
      "Ġmanipulation": 7164,
      "Ġextended": 7165,
      "Ġneutral": 7166,
      "Ġlawyers": 7167,
      "Ġcandidate": 7168,
      "Ġstanford": 7169,
      "Ġsweden": 7170,
      "Ġredesign": 7171,
      "Ġkarpathy": 7172,
      "Ġdictionary": 7173,
      "Ġsyndrome": 7174,
      "68": 7175,
      "band": 7176,
      "dollar": 7177,
      "gp": 7178,
      "hell": 7179,
      "night": 7180,
      "oor": 7181,
      "oia": 7182,
      "person": 7183,
      "sch": 7184,
      "vin": 7185,
      "wing": 7186,
      "west": 7187,
      "wse": 7188,
      "ypt": 7189,
      "za": 7190,
      "Ġtcp": 7191,
      "erving": 7192,
      "ona": 7193,
      "Ġpit": 7194,
      "inge": 7195,
      "esian": 7196,
      "Ġmol": 7197,
      "Ġmerc": 7198,
      "Ġwit": 7199,
      "Ġhook": 7200,
      "Ġlu": 7201,
      "Ġtheories": 7202,
      "outh": 7203,
      "Ġgear": 7204,
      "sters": 7205,
      "Ġnu": 7206,
      "Ġnit": 7207,
      "Ġreward": 7208,
      "etz": 7209,
      "elly": 7210,
      "impro": 7211,
      "Ġvms": 7212,
      "ches": 7213,
      "Ġwhose": 7214,
      "Ġprove": 7215,
      "Ġprosec": 7216,
      "urf": 7217,
      "Ġchapter": 7218,
      "ulate": 7219,
      "Ġcosm": 7220,
      "empic": 7221,
      "Ġmodes": 7222,
      "irt": 7223,
      "Ġexact": 7224,
      "Ġitaly": 7225,
      "Ġcompact": 7226,
      "Ġ150": 7227,
      "Ġunf": 7228,
      "Ġdod": 7229,
      "ellation": 7230,
      "Ġsuing": 7231,
      "Ġnotice": 7232,
      "Ġresult": 7233,
      "Ġorb": 7234,
      "Ġblame": 7235,
      "obs": 7236,
      "Ġability": 7237,
      "Ġgoal": 7238,
      "Ġphen": 7239,
      "Ġouts": 7240,
      "Ġflip": 7241,
      "Ġflood": 7242,
      "Ġflaws": 7243,
      "Ġhex": 7244,
      "Ġcolour": 7245,
      "Ġbrowse": 7246,
      "Ġbackups": 7247,
      "Ġcomputation": 7248,
      "Ġguy": 7249,
      "Ġsurgery": 7250,
      "Ġbrut": 7251,
      "Ġremain": 7252,
      "plete": 7253,
      "Ġbrowsing": 7254,
      "Ġdetects": 7255,
      "Ġplaybook": 7256,
      "Ġplaystation": 7257,
      "Ġsubm": 7258,
      "Ġsubst": 7259,
      "orders": 7260,
      "Ġdemands": 7261,
      "Ġ101": 7262,
      "Ġelections": 7263,
      "Ġcentre": 7264,
      "Ġdifficult": 7265,
      "Ġlogo": 7266,
      "Ġreliability": 7267,
      "json": 7268,
      "Ġreflection": 7269,
      "Ġprocesses": 7270,
      "Ġfrank": 7271,
      "Ġverify": 7272,
      "Ġverified": 7273,
      "adel": 7274,
      "Ġ2030": 7275,
      "Ġkills": 7276,
      "Ġspecs": 7277,
      "Ġspecific": 7278,
      "Ġfeder": 7279,
      "Ġinteraction": 7280,
      "Ġarchitectures": 7281,
      "Ġcancels": 7282,
      "design": 7283,
      "Ġversions": 7284,
      "Ġlimited": 7285,
      "Ġvulnerable": 7286,
      "Ġllvm": 7287,
      "Ġconstrain": 7288,
      "Ġincreases": 7289,
      "Ġcompetitor": 7290,
      "points": 7291,
      "Ġconversational": 7292,
      "Ġvolume": 7293,
      "Ġrecording": 7294,
      "Ġhomeless": 7295,
      "Ġcircle": 7296,
      "Ġhottest": 7297,
      "Ġacceleration": 7298,
      "ometric": 7299,
      "Ġhorizon": 7300,
      "Ġpsychology": 7301,
      "Ġbrian": 7302,
      "Ġcrackdown": 7303,
      "agnostic": 7304,
      "Ġethereum": 7305,
      "Ġwalking": 7306,
      "Ġfloating": 7307,
      "Ġchoosing": 7308,
      "Ġorchestrator": 7309,
      "iminals": 7310,
      "Ġtabs": 7311,
      "Ġscheduler": 7312,
      "Ġscheduling": 7313,
      "Ġdrawing": 7314,
      "Ġadaptive": 7315,
      "Ġhurric": 7316,
      "Ġdropped": 7317,
      "Ġresistance": 7318,
      "Ġcompromised": 7319,
      "Ġopentele": 7320,
      "Ġisolation": 7321,
      "training": 7322,
      "Ġhundreds": 7323,
      "Ġcredentials": 7324,
      "Ġextinction": 7325,
      "Ġearnings": 7326,
      "Ġwhisper": 7327,
      "Ġguilty": 7328,
      "Ġboilerplate": 7329,
      "Ġparadigm": 7330,
      "Ġdollars": 7331,
      "Ġdispute": 7332,
      "oenix": 7333,
      "Ġseptember": 7334,
      "Ġukrainian": 7335,
      "Ġfonts": 7336,
      "Ġjupyter": 7337,
      "Ġopentelemetry": 7338,
      "\",": 7339,
      "aver": 7340,
      "city": 7341,
      "days": 7342,
      "elect": 7343,
      "fers": 7344,
      "files": 7345,
      "ku": 7346,
      "mort": 7347,
      "xl": 7348,
      "yr": 7349,
      "ĨĴ": 7350,
      "Ġtall": 7351,
      "Ġsourcing": 7352,
      "Ġcup": 7353,
      "Ġcables": 7354,
      "Ġfox": 7355,
      "Ġfantas": 7356,
      "Ġports": 7357,
      "ingo": 7358,
      "Ġwp": 7359,
      "Ġware": 7360,
      "ania": 7361,
      "Ġthunder": 7362,
      "Ġdc": 7363,
      "Ġdell": 7364,
      "alty": 7365,
      "Ġocaml": 7366,
      "Ġlength": 7367,
      "Ġindu": 7368,
      "Ġtower": 7369,
      "step": 7370,
      "lebl": 7371,
      "ilation": 7372,
      "acer": 7373,
      "ethe": 7374,
      "oming": 7375,
      "rails": 7376,
      "igen": 7377,
      "agement": 7378,
      "Ġchance": 7379,
      "Ġcooper": 7380,
      "aby": 7381,
      "Ġjr": 7382,
      "Ġkitch": 7383,
      "Ġkotlin": 7384,
      "Ġclar": 7385,
      "Ġbust": 7386,
      "Ġenshit": 7387,
      "plus": 7388,
      "ections": 7389,
      "Ġunm": 7390,
      "Ġunle": 7391,
      "aped": 7392,
      "ried": 7393,
      "astroph": 7394,
      "ieval": 7395,
      "Ġarxiv": 7396,
      "Ġdiscontin": 7397,
      "avers": 7398,
      "ensity": 7399,
      "Ġ31": 7400,
      "Ġ33": 7401,
      "Ġtraditional": 7402,
      "Ġdesert": 7403,
      "Ġalloc": 7404,
      "boarding": 7405,
      "Ġvisit": 7406,
      "Ġvisible": 7407,
      "Ġsaw": 7408,
      "Ġanyway": 7409,
      "okes": 7410,
      "Ġjustice": 7411,
      "Ġglitch": 7412,
      "shell": 7413,
      "Ġinstances": 7414,
      "Ġmacro": 7415,
      "Ġexpose": 7416,
      "Ġconsent": 7417,
      "Ġconsens": 7418,
      "Ġairline": 7419,
      "Ġlibre": 7420,
      "Ġmostly": 7421,
      "Ġgambling": 7422,
      "Ġdefe": 7423,
      "Ġsuperintelligence": 7424,
      "Ġtracks": 7425,
      "Ġ75": 7426,
      "Ġoptimal": 7427,
      "Ġlightning": 7428,
      "Ġlistening": 7429,
      "Ġimproves": 7430,
      "Ġphotograph": 7431,
      "Ġmessenger": 7432,
      "Ġrestore": 7433,
      "Ġannounced": 7434,
      "Ġsummit": 7435,
      "valds": 7436,
      "Ġbanking": 7437,
      "Ġshortage": 7438,
      "grad": 7439,
      "Ġacquired": 7440,
      "Ġfriendly": 7441,
      "Ġmaintenance": 7442,
      "Ġordered": 7443,
      "Ġcooking": 7444,
      "Ġestate": 7445,
      "Ġenhancing": 7446,
      "Ġemerging": 7447,
      "Ġavoiding": 7448,
      "Ġbehavi": 7449,
      "Ġsheets": 7450,
      "Ġbootstra": 7451,
      "Ġconfirmed": 7452,
      "Ġmechanics": 7453,
      "Ġfluid": 7454,
      "Ġtorvalds": 7455,
      "Ġviolence": 7456,
      "Ġbroadcom": 7457,
      "Ġcurrently": 7458,
      "Ġnavigation": 7459,
      "Ġbabies": 7460,
      "Ġpirate": 7461,
      "Ġoutputs": 7462,
      "Ġconvin": 7463,
      "Ġjulia": 7464,
      "Ġadventure": 7465,
      "Ġsongs": 7466,
      "Ġvoting": 7467,
      "Ġspacecraft": 7468,
      "ĠpokÃ©mon": 7469,
      "Ġpreviously": 7470,
      "Ġcluster": 7471,
      "Ġsupabase": 7472,
      "Ġlicensing": 7473,
      "Ġcalculus": 7474,
      "Ġcriticism": 7475,
      "Ġpacific": 7476,
      "Ġdrama": 7477,
      "Ġunusual": 7478,
      "Ġworkloads": 7479,
      "Ġvenezuela": 7480,
      "google": 7481,
      "Ġalbum": 7482,
      "Ġconsequences": 7483,
      "Ġretrospective": 7484,
      "Ġmicroservices": 7485,
      "Ġrabbit": 7486,
      "ilemma": 7487,
      "Ġdiabetes": 7488,
      "Ġsnowflake": 7489,
      "Ġenshitt": 7490,
      "29": 7491,
      "cur": 7492,
      "cpp": 7493,
      "call": 7494,
      "case": 7495,
      "di": 7496,
      "fts": 7497,
      "gem": 7498,
      "iad": 7499,
      "lit": 7500,
      "loud": 7501,
      "nis": 7502,
      "uge": 7503,
      "wise": 7504,
      "Ġeric": 7505,
      "Ġath": 7506,
      "Ġtier": 7507,
      "Ġsure": 7508,
      "Ġcats": 7509,
      "rea": 7510,
      "orp": 7511,
      "Ġfest": 7512,
      "Ġpand": 7513,
      "Ġpill": 7514,
      "Ġpyp": 7515,
      "Ġmale": 7516,
      "Ġhp": 7517,
      "Ġhr": 7518,
      "Ġhong": 7519,
      "Ġbits": 7520,
      "Ġborrow": 7521,
      "Ġdust": 7522,
      "Ġdys": 7523,
      "Ġdurable": 7524,
      "around": 7525,
      "road": 7526,
      "isms": 7527,
      "Ġli": 7528,
      "Ġanatom": 7529,
      "Ġgb": 7530,
      "stor": 7531,
      "Ġether": 7532,
      "olar": 7533,
      "igu": 7534,
      "Ġvint": 7535,
      "Ġyouth": 7536,
      "Ġnex": 7537,
      "unge": 7538,
      "earth": 7539,
      "uster": 7540,
      "Ġalarm": 7541,
      "apore": 7542,
      "riers": 7543,
      "Ġplate": 7544,
      "Ġscot": 7545,
      "Ġscott": 7546,
      "Ġatari": 7547,
      "acters": 7548,
      "Ġimper": 7549,
      "Ġimaging": 7550,
      "iber": 7551,
      "Ġada": 7552,
      "Ġdisinformation": 7553,
      "Ġdiscovers": 7554,
      "Ġdisruption": 7555,
      "Ġambit": 7556,
      "Ġquic": 7557,
      "Ġbloom": 7558,
      "Ġ2022": 7559,
      "Ġmanus": 7560,
      "upts": 7561,
      "Ġupcoming": 7562,
      "Ġseason": 7563,
      "Ġsystemd": 7564,
      "Ġaccuses": 7565,
      "Ġzip": 7566,
      "Ġrecon": 7567,
      "Ġrecre": 7568,
      "Ġtransist": 7569,
      "Ġwarp": 7570,
      "Ġsaudi": 7571,
      "Ġgrows": 7572,
      "Ġcrm": 7573,
      "Ġmedieval": 7574,
      "Ġhacks": 7575,
      "Ġparli": 7576,
      "Ġswarm": 7577,
      "Ġtwitch": 7578,
      "tool": 7579,
      "launch": 7580,
      "Ġlongest": 7581,
      "itories": 7582,
      "Ġdemos": 7583,
      "Ġdebut": 7584,
      "Ġregions": 7585,
      "Ġproductive": 7586,
      "Ġlogging": 7587,
      "Ġdiscovering": 7588,
      "Ġrelated": 7589,
      "Ġgraphene": 7590,
      "Ġcryptoc": 7591,
      "Ġ2000": 7592,
      "official": 7593,
      "serv": 7594,
      "Ġfediverse": 7595,
      "Ġannouncing": 7596,
      "Ġconnected": 7597,
      "Ġclassical": 7598,
      "Ġversus": 7599,
      "Ġmillenn": 7600,
      "Ġcharacters": 7601,
      "Ġdeployments": 7602,
      "Ġcompete": 7603,
      "Ġsalesforce": 7604,
      "going": 7605,
      "Ġsubscri": 7606,
      "Ġaccelerating": 7607,
      "Ġcookies": 7608,
      "Ġsensors": 7609,
      "Ġburst": 7610,
      "Ġsentenced": 7611,
      "Ġtablet": 7612,
      "Ġsheet": 7613,
      "Ġcognition": 7614,
      "Ġpreparing": 7615,
      "Ġmitig": 7616,
      "Ġsurprise": 7617,
      "techn": 7618,
      "Ġcrazy": 7619,
      "Ġrepositories": 7620,
      "Ġethical": 7621,
      "ervation": 7622,
      "Ġbeginning": 7623,
      "Ġegypt": 7624,
      "Ġsimulate": 7625,
      "Ġessays": 7626,
      "Ġallowed": 7627,
      "Ġhello": 7628,
      "Ġtunnel": 7629,
      "Ġtickets": 7630,
      "Ġdawn": 7631,
      "Ġintegrity": 7632,
      "Ġexpressions": 7633,
      "Ġfleet": 7634,
      "printed": 7635,
      "Ġtransparent": 7636,
      "Ġshaped": 7637,
      "grown": 7638,
      "Ġprecision": 7639,
      "Ġpredicts": 7640,
      "Ġdominance": 7641,
      "Ġscreenshots": 7642,
      "Ġrivals": 7643,
      "Ġforgotten": 7644,
      "Ġrobotaxi": 7645,
      "Ġtetris": 7646,
      "Ġauction": 7647,
      "Ġfamilies": 7648,
      "Ġozempic": 7649,
      "Ġvertical": 7650,
      "Ġireland": 7651,
      "Ġexplanation": 7652,
      "Ġargentina": 7653,
      "Ġwhistlebl": 7654,
      "Ġanatomy": 7655,
      "Ġparliament": 7656,
      "250": 7657,
      "44": 7658,
      "cope": 7659,
      "found": 7660,
      "mes": 7661,
      "mpp": 7662,
      "mini": 7663,
      "pop": 7664,
      "rim": 7665,
      "sf": 7666,
      "sim": 7667,
      "tic": 7668,
      "vi": 7669,
      "write": 7670,
      "zes": 7671,
      "inem": 7672,
      "inate": 7673,
      "Ġtight": 7674,
      "Ġtaken": 7675,
      "Ġsota": 7676,
      "Ġsanta": 7677,
      "Ġcv": 7678,
      "Ġcel": 7679,
      "Ġfro": 7680,
      "Ġfacts": 7681,
      "Ġpep": 7682,
      "Ġmp": 7683,
      "Ġbm": 7684,
      "Ġbicy": 7685,
      "Ġthrow": 7686,
      "Ġlam": 7687,
      "Ġlyn": 7688,
      "Ġgent": 7689,
      "Ġgpts": 7690,
      "stage": 7691,
      "Ġnsa": 7692,
      "deep": 7693,
      "asion": 7694,
      "olving": 7695,
      "igra": 7696,
      "Ġvit": 7697,
      "Ġvill": 7698,
      "ithm": 7699,
      "ither": 7700,
      "chip": 7701,
      "cepts": 7702,
      "Ġrural": 7703,
      "Ġdeeper": 7704,
      "Ġneander": 7705,
      "uls": 7706,
      "umm": 7707,
      "Ġconduct": 7708,
      "estream": 7709,
      "Ġbuck": 7710,
      "Ġenem": 7711,
      "plant": 7712,
      "Ġital": 7713,
      "query": 7714,
      "Ġbeam": 7715,
      "Ġbeach": 7716,
      "Ġuncon": 7717,
      "Ġintent": 7718,
      "Ġintention": 7719,
      "elled": 7720,
      "Ġcodeb": 7721,
      "irect": 7722,
      "Ġdisorder": 7723,
      "Ġwebb": 7724,
      "ava": 7725,
      "Ġable": 7726,
      "Ġgenerates": 7727,
      "Ġphoenix": 7728,
      "cohol": 7729,
      "Ġraised": 7730,
      "Ġtrail": 7731,
      "Ġzed": 7732,
      "Ġrecip": 7733,
      "Ġrecipe": 7734,
      "iox": 7735,
      "Ġbacked": 7736,
      "Ġdecide": 7737,
      "Ġpowering": 7738,
      "Ġboards": 7739,
      "context": 7740,
      "Ġhighest": 7741,
      "Ġgravit": 7742,
      "Ġexports": 7743,
      "Ġexposes": 7744,
      "Ġinsider": 7745,
      "Ġslides": 7746,
      "Ġhackathon": 7747,
      "Ġsketch": 7748,
      "Ġfilters": 7749,
      "Ġfutures": 7750,
      "Ġ800": 7751,
      "Ġsteph": 7752,
      "Ġlogical": 7753,
      "Ġ197": 7754,
      "lands": 7755,
      "Ġsingapore": 7756,
      "Ġjoint": 7757,
      "Ġsampling": 7758,
      "Ġlands": 7759,
      "Ġfeds": 7760,
      "Ġirish": 7761,
      "Ġtransforming": 7762,
      "olete": 7763,
      "Ġsells": 7764,
      "Ġalgorithmic": 7765,
      "onomy": 7766,
      "Ġconcrete": 7767,
      "what": 7768,
      "lining": 7769,
      "Ġdifferences": 7770,
      "Ġsecretary": 7771,
      "Ġputin": 7772,
      "Ġbasics": 7773,
      "Ġhearing": 7774,
      "Ġsugar": 7775,
      "Ġcombining": 7776,
      "Ġcookie": 7777,
      "Ġmoral": 7778,
      "Ġhorse": 7779,
      "Ġauthority": 7780,
      "Ġicons": 7781,
      "Ġtrials": 7782,
      "Ġproofs": 7783,
      "Ġiii": 7784,
      "Ġramp": 7785,
      "Ġtailscale": 7786,
      "Ġfootage": 7787,
      "Ġstablecoin": 7788,
      "Ġrecommendation": 7789,
      "Ġbeginners": 7790,
      "Ġharvest": 7791,
      "Ġsimulating": 7792,
      "Ġbayesian": 7793,
      "Ġburnout": 7794,
      "Ġsweet": 7795,
      "Ġbluep": 7796,
      "Ġaliens": 7797,
      "Ġgeometric": 7798,
      "Ġwrapper": 7799,
      "Ġnovember": 7800,
      "Ġconcurrent": 7801,
      "Ġabandoned": 7802,
      "copy": 7803,
      "function": 7804,
      "Ġregulators": 7805,
      "Ġopportunities": 7806,
      "Ġmvp": 7807,
      "Ġartifacts": 7808,
      "Ġearthquake": 7809,
      "Ġcrystal": 7810,
      "install": 7811,
      "Ġmongodb": 7812,
      "Ġgrammar": 7813,
      "Ġruling": 7814,
      "Ġfundamentals": 7815,
      "Ġfantasy": 7816,
      "Ġethernet": 7817,
      "Ġcryptocur": 7818,
      "Ġneanderth": 7819,
      "dam": 7820,
      "eor": 7821,
      "hr": 7822,
      "kin": 7823,
      "pat": 7824,
      "sub": 7825,
      "tps": 7826,
      "vo": 7827,
      "inet": 7828,
      "Ġtil": 7829,
      "erge": 7830,
      "Ġcave": 7831,
      "enabled": 7832,
      "Ġffm": 7833,
      "Ġpizz": 7834,
      "Ġwage": 7835,
      "Ġhired": 7836,
      "Ġbc": 7837,
      "Ġbike": 7838,
      "Ġdance": 7839,
      "Ġdilemma": 7840,
      "aria": 7841,
      "arma": 7842,
      "Ġlag": 7843,
      "oust": 7844,
      "owing": 7845,
      "Ġanom": 7846,
      "Ġgiven": 7847,
      "stone": 7848,
      "Ġnl": 7849,
      "Ġnich": 7850,
      "dead": 7851,
      "asm": 7852,
      "Ġshit": 7853,
      "rays": 7854,
      "olid": 7855,
      "iment": 7856,
      "Ġvp": 7857,
      "Ġvel": 7858,
      "Ġveter": 7859,
      "oto": 7860,
      "Ġonboarding": 7861,
      "agnet": 7862,
      "Ġrid": 7863,
      "Ġrack": 7864,
      "Ġcoders": 7865,
      "this": 7866,
      "abis": 7867,
      "oof": 7868,
      "Ġjw": 7869,
      "Ġkv": 7870,
      "Ġcloses": 7871,
      "plication": 7872,
      "istan": 7873,
      "Ġalerts": 7874,
      "Ġalcohol": 7875,
      "Ġcompound": 7876,
      "Ġspying": 7877,
      "iph": 7878,
      "ipment": 7879,
      "resistant": 7880,
      "Ġorange": 7881,
      "Ġtooling": 7882,
      "Ġengland": 7883,
      "Ġgeneric": 7884,
      "Ġraising": 7885,
      "Ġoutages": 7886,
      "ockets": 7887,
      "Ġmicrop": 7888,
      "odies": 7889,
      "Ġsimd": 7890,
      "Ġbackend": 7891,
      "Ġminute": 7892,
      "umpy": 7893,
      "Ġglac": 7894,
      "Ġknew": 7895,
      "Ġbutter": 7896,
      "yping": 7897,
      "flight": 7898,
      "Ġconsist": 7899,
      "Ġfiling": 7900,
      "Ġpartial": 7901,
      "Ġactor": 7902,
      "news": 7903,
      "Ġobsc": 7904,
      "Ġsubmar": 7905,
      "Ġdefence": 7906,
      "ynchron": 7907,
      "2003": 7908,
      "Ġarchives": 7909,
      "Ġsuperconduct": 7910,
      "Ġbusy": 7911,
      "Ġformats": 7912,
      "Ġavat": 7913,
      "Ġelectro": 7914,
      "Ġdistro": 7915,
      "Ġfirebase": 7916,
      "Ġdelivers": 7917,
      "Ġsmallest": 7918,
      "Ġrelational": 7919,
      "Ġrefact": 7920,
      "Ġdiam": 7921,
      "Ġprocessors": 7922,
      "Ġlayers": 7923,
      "Ġcapability": 7924,
      "Ġjoining": 7925,
      "Ġsilver": 7926,
      "Ġcourses": 7927,
      "Ġoperators": 7928,
      "Ġgeorge": 7929,
      "Ġsalt": 7930,
      "Ġsalary": 7931,
      "Ġstreams": 7932,
      "bler": 7933,
      "Ġcheating": 7934,
      "Ġradiation": 7935,
      "minute": 7936,
      "Ġcompilation": 7937,
      "Ġimplemented": 7938,
      "Ġengineered": 7939,
      "aneous": 7940,
      "Ġconstruct": 7941,
      "Ġincreased": 7942,
      "Ġequipment": 7943,
      "Ġpaths": 7944,
      "Ġpyram": 7945,
      "Ġsubscriptions": 7946,
      "1997": 7947,
      "Ġcounting": 7948,
      "ometimes": 7949,
      "Ġinstalling": 7950,
      "Ġillum": 7951,
      "Ġmorph": 7952,
      "Ġsynthes": 7953,
      "Ġsuspends": 7954,
      "Ġdashboards": 7955,
      "Ġdownloads": 7956,
      "Ġcircuits": 7957,
      "Ġmechanism": 7958,
      "Ġtelemetry": 7959,
      "Ġsnapshot": 7960,
      "Ġcapitalism": 7961,
      "Ġatlantic": 7962,
      "Ġstronger": 7963,
      "Ġcampaigns": 7964,
      "Ġreceives": 7965,
      "Ġgaussian": 7966,
      "Ġregulations": 7967,
      "Ġmaintainers": 7968,
      "Ġparameter": 7969,
      "Ġnarrative": 7970,
      "Ġestimation": 7971,
      "Ġdiagnosis": 7972,
      "Ġthermal": 7973,
      "Ġshooting": 7974,
      "Ġnotebooklm": 7975,
      "speech": 7976,
      "Ġstatistical": 7977,
      "Ġpulse": 7978,
      "Ġassessment": 7979,
      "Ġhijack": 7980,
      "Ġresilience": 7981,
      "Ġdefinition": 7982,
      "Ġnih": 7983,
      "Ġvoyager": 7984,
      "Ġbottleneck": 7985,
      "Ġinstrument": 7986,
      "Ġaurora": 7987,
      "Ġlecture": 7988,
      "Ġdisplays": 7989,
      "Ġpretty": 7990,
      "Ġpropaganda": 7991,
      "Ġremotely": 7992,
      "Ġluxury": 7993,
      "Ġconsensus": 7994,
      "igravity": 7995,
      "Ġcodebases": 7996,
      "cm": 7997,
      "dig": 7998,
      "drag": 7999,
      "fish": 8000,
      "hub": 8001,
      "ja": 8002,
      "low": 8003,
      "loss": 8004,
      "mox": 8005,
      "oys": 8006,
      "rates": 8007,
      "squ": 8008,
      "system": 8009,
      "tons": 8010,
      "walk": 8011,
      "inated": 8012,
      "Ġties": 8013,
      "react": 8014,
      "Ġfetch": 8015,
      "Ġhints": 8016,
      "itable": 8017,
      "itzer": 8018,
      "Ġdad": 8019,
      "Ġdart": 8020,
      "Ġdry": 8021,
      "ario": 8022,
      "isl": 8023,
      "iser": 8024,
      "Ġinher": 8025,
      "Ġtough": 8026,
      "Ġeleg": 8027,
      "ille": 8028,
      "Ġforth": 8029,
      "Ġforcing": 8030,
      "ometer": 8031,
      "elog": 8032,
      "utable": 8033,
      "Ġyield": 8034,
      "agents": 8035,
      "amental": 8036,
      "Ġasus": 8037,
      "Ġusd": 8038,
      "verty": 8039,
      "uments": 8040,
      "Ġjs": 8041,
      "Ġjim": 8042,
      "Ġconqu": 8043,
      "opl": 8044,
      "Ġcloth": 8045,
      "Ġcloning": 8046,
      "essage": 8047,
      "Ġagric": 8048,
      "Ġagrees": 8049,
      "Ġens": 8050,
      "Ġappear": 8051,
      "istics": 8052,
      "ecting": 8053,
      "Ġ120": 8054,
      "Ġscar": 8055,
      "angle": 8056,
      "Ġroute": 8057,
      "Ġnotifications": 8058,
      "Ġresumes": 8059,
      "Ġwebr": 8060,
      "Ġamend": 8061,
      "Ġquiz": 8062,
      "Ġ37": 8063,
      "coder": 8064,
      "Ġseems": 8065,
      "Ġdescribe": 8066,
      "ulture": 8067,
      "Ġrecru": 8068,
      "Ġfeat": 8069,
      "Ġoffering": 8070,
      "ended": 8071,
      "Ġsmith": 8072,
      "Ġsmooth": 8073,
      "Ġsolves": 8074,
      "Ġxz": 8075,
      "Ġdece": 8076,
      "cles": 8077,
      "Ġinfring": 8078,
      "Ġwarren": 8079,
      "Ġgroc": 8080,
      "Ġunderground": 8081,
      "Ġgraf": 8082,
      "Ġexposing": 8083,
      "Ġmultip": 8084,
      "Ġprotests": 8085,
      "Ġdetailed": 8086,
      "Ġpersist": 8087,
      "Ġasset": 8088,
      "ynote": 8089,
      "Ġstarliner": 8090,
      "Ġformation": 8091,
      "Ġpool": 8092,
      "Ġpoverty": 8093,
      "Ġgrants": 8094,
      "Ġmarc": 8095,
      "Ġpassed": 8096,
      "Ġoptimized": 8097,
      "Ġmissed": 8098,
      "engers": 8099,
      "Ġpersonality": 8100,
      "Ġcaps": 8101,
      "learning": 8102,
      "Ġsample": 8103,
      "Ġlawmakers": 8104,
      "Ġvirus": 8105,
      "Ġbreakdown": 8106,
      "Ġintellect": 8107,
      "bridge": 8108,
      "Ġhalts": 8109,
      "Ġwatchdog": 8110,
      "Ġrespond": 8111,
      "Ġbankman": 8112,
      "Ġreduces": 8113,
      "Ġreduced": 8114,
      "Ġdifferential": 8115,
      "Ġmodules": 8116,
      "track": 8117,
      "trust": 8118,
      "Ġllam": 8119,
      "Ġshuts": 8120,
      "Ġconstitution": 8121,
      "Ġkernels": 8122,
      "Ġholding": 8123,
      "Ġcatastroph": 8124,
      "Ġprotections": 8125,
      "Ġstreets": 8126,
      "1999": 8127,
      "ceptions": 8128,
      "century": 8129,
      "Ġrouters": 8130,
      "Ġsuspected": 8131,
      "Ġdestruction": 8132,
      "Ġprovides": 8133,
      "Ġinnovative": 8134,
      "Ġsandboxes": 8135,
      "fried": 8136,
      "Ġconverting": 8137,
      "Ġvaccines": 8138,
      "Ġobsolete": 8139,
      "ersonic": 8140,
      "Ġmiracle": 8141,
      "Ġallegedly": 8142,
      "Ġreinvent": 8143,
      "Ġneuros": 8144,
      "Ġlatex": 8145,
      "ĠâĨĴ": 8146,
      "Ġjailbreak": 8147,
      "Ġclusters": 8148,
      "Ġtomorrow": 8149,
      "Ġcoinbase": 8150,
      "Ġdelayed": 8151,
      "Ġpredicting": 8152,
      "Ġinfluencers": 8153,
      "Ġlawyer": 8154,
      "Ġaggregator": 8155,
      "Ġunicode": 8156,
      "Ġhopes": 8157,
      "Ġstructural": 8158,
      "Ġjunior": 8159,
      "Ġdeclarative": 8160,
      "Ġimpressions": 8161,
      "Ġthomas": 8162,
      "Ġwaiting": 8163,
      "Ġwaterm": 8164,
      "Ġagreement": 8165,
      "Ġepisode": 8166,
      "wiki": 8167,
      "Ġfebruary": 8168,
      "Ġpoetry": 8169,
      "Ġprofessor": 8170,
      "Ġannoying": 8171,
      "Ġkitchen": 8172,
      "ithmetic": 8173,
      "Ġffmpeg": 8174,
      "Ġsubmarine": 8175,
      "ynchronous": 8176,
      ".,": 8177,
      "39": 8178,
      "bas": 8179,
      "bol": 8180,
      "bus": 8181,
      "efficient": 8182,
      "fc": 8183,
      "fram": 8184,
      "har": 8185,
      "hog": 8186,
      "iq": 8187,
      "iat": 8188,
      "men": 8189,
      "mat": 8190,
      "sk": 8191,
      "search": 8192,
      "taking": 8193,
      "uro": 8194,
      "uum": 8195,
      "vim": 8196,
      "Ġ*": 8197,
      "Ġ>": 8198,
      "Ġti": 8199,
      "Ġsb": 8200,
      "Ġsail": 8201,
      "Ġsection": 8202,
      "Ġsourced": 8203,
      "Ġsometimes": 8204,
      "erals": 8205,
      "erves": 8206,
      "rew": 8207,
      "reet": 8208,
      "Ġfool": 8209,
      "Ġfashion": 8210,
      "Ġpad": 8211,
      "Ġprag": 8212,
      "Ġpurs": 8213,
      "Ġmn": 8214,
      "Ġmamm": 8215,
      "Ġwet": 8216,
      "Ġwaf": 8217,
      "Ġhide": 8218,
      "Ġhair": 8219,
      "Ġhims": 8220,
      "itual": 8221,
      "Ġbs": 8222,
      "Ġboun": 8223,
      "Ġthro": 8224,
      "Ġdma": 8225,
      "ales": 8226,
      "Ġot": 8227,
      "arant": 8228,
      "arily": 8229,
      "Ġlite": 8230,
      "Ġinform": 8231,
      "ico": 8232,
      "Ġeinstein": 8233,
      "enty": 8234,
      "ented": 8235,
      "depend": 8236,
      "Ġsharp": 8237,
      "Ġyaml": 8238,
      "Ġvet": 8239,
      "Ġvoid": 8240,
      "Ġisa": 8241,
      "agers": 8242,
      "amine": 8243,
      "Ġchur": 8244,
      "Ġchains": 8245,
      "Ġchunk": 8246,
      "Ġash": 8247,
      "Ġcompens": 8248,
      "umble": 8249,
      "Ġcondition": 8250,
      "Ġky": 8251,
      "Ġkil": 8252,
      "Ġworm": 8253,
      "illing": 8254,
      "resp": 8255,
      "eller": 8256,
      "ibe": 8257,
      "Ġprism": 8258,
      "sey": 8259,
      "Ġlex": 8260,
      "Ġresur": 8261,
      "Ġreserve": 8262,
      "Ġquake": 8263,
      "Ġmyself": 8264,
      "Ġblaz": 8265,
      "Ġblames": 8266,
      "epad": 8267,
      "worth": 8268,
      "Ġupon": 8269,
      "Ġselection": 8270,
      "Ġautoc": 8271,
      "Ġoutcomes": 8272,
      "Ġrecur": 8273,
      "Ġalliance": 8274,
      "Ġmich": 8275,
      "Ġmeteor": 8276,
      "Ġmins": 8277,
      "Ġmines": 8278,
      "Ġposting": 8279,
      "Ġvisibility": 8280,
      "Ġfinder": 8281,
      "Ġmonolith": 8282,
      "Ġunderrated": 8283,
      "ancers": 8284,
      "Ġmemo": 8285,
      "Ġmember": 8286,
      "Ġinstruction": 8287,
      "Ġmacs": 8288,
      "Ġmultilingual": 8289,
      "Ġslower": 8290,
      "Ġrelevant": 8291,
      "Ġplanets": 8292,
      "Ġbanning": 8293,
      "Ġdetected": 8294,
      "Ġskept": 8295,
      "Ġcurve": 8296,
      "Ġmayor": 8297,
      "Ġeru": 8298,
      "Ġsignup": 8299,
      "Ġdebuts": 8300,
      "Ġregion": 8301,
      "Ġinvestments": 8302,
      "Ġantigravity": 8303,
      "Ġmarri": 8304,
      "Ġreplay": 8305,
      "Ġrelig": 8306,
      "Ġ1980": 8307,
      "Ġgenerators": 8308,
      "prot": 8309,
      "Ġuniversities": 8310,
      "Ġforens": 8311,
      "Ġbiom": 8312,
      "server": 8313,
      "Ġmicrobi": 8314,
      "Ġwinner": 8315,
      "Ġlatent": 8316,
      "Ġurges": 8317,
      "Ġfarming": 8318,
      "brand": 8319,
      "Ġtrusted": 8320,
      "Ġspotted": 8321,
      "Ġexploits": 8322,
      "Ġincrement": 8323,
      "Ġorganizations": 8324,
      "Ġsoul": 8325,
      "Ġfundamental": 8326,
      "Ġneuralink": 8327,
      "Ġcultural": 8328,
      "Ġefficiently": 8329,
      "Ġaccelerator": 8330,
      "Ġsenate": 8331,
      "Ġmorning": 8332,
      "Ġfavour": 8333,
      "Ġimportance": 8334,
      "Ġsimplicity": 8335,
      "Ġutil": 8336,
      "Ġbroker": 8337,
      "Ġsuspend": 8338,
      "Ġfacility": 8339,
      "Ġhubble": 8340,
      "Ġdivide": 8341,
      "Ġfaq": 8342,
      "Ġcatching": 8343,
      "Ġargument": 8344,
      "Ġpositive": 8345,
      "Ġpolymarket": 8346,
      "Ġmixt": 8347,
      "Ġresponsible": 8348,
      "Ġprofitable": 8349,
      "Ġarrived": 8350,
      "Ġeditors": 8351,
      "Ġcompletes": 8352,
      "Ġsuccessfully": 8353,
      "Ġexpanding": 8354,
      "ariants": 8355,
      "Ġcontributions": 8356,
      "Ġeffortless": 8357,
      "Ġcdc": 8358,
      "Ġcouple": 8359,
      "Ġstraight": 8360,
      "Ġpictures": 8361,
      "Ġalexa": 8362,
      "defined": 8363,
      "Ġcitizen": 8364,
      "Ġcruise": 8365,
      "Ġtemporal": 8366,
      "Ġscreenshot": 8367,
      "Ġchronic": 8368,
      "Ġunicorn": 8369,
      "Ġcategory": 8370,
      "Ġproxmox": 8371,
      "Ġpedest": 8372,
      "Ġapplied": 8373,
      "Ġspanish": 8374,
      "Ġdeclares": 8375,
      "Ġcisa": 8376,
      "Ġhaven": 8377,
      "Ġofficer": 8378,
      "Ġangeles": 8379,
      "Ġdinosaur": 8380,
      "Ġpfas": 8381,
      "Ġbounty": 8382,
      "Ġreproducible": 8383,
      "journey": 8384,
      "width": 8385,
      "Ġbrutal": 8386,
      "Ġhurricane": 8387,
      "Ġenshittification": 8388,
      "Ġvintage": 8389,
      "Ġitalian": 8390,
      "Ġconsistency": 8391,
      "Ġwebrtc": 8392,
      "?)": 8393,
      "cience": 8394,
      "front": 8395,
      "gers": 8396,
      "gun": 8397,
      "hal": 8398,
      "home": 8399,
      "iro": 8400,
      "iom": 8401,
      "ipl": 8402,
      "joy": 8403,
      "ker": 8404,
      "loop": 8405,
      "mot": 8406,
      "mob": 8407,
      "pread": 8408,
      "rt": 8409,
      "rid": 8410,
      "sign": 8411,
      "uid": 8412,
      "vad": 8413,
      "ĠÎ": 8414,
      "inc": 8415,
      "Ġtay": 8416,
      "Ġcere": 8417,
      "Ġciting": 8418,
      "onald": 8419,
      "rele": 8420,
      "reck": 8421,
      "Ġful": 8422,
      "Ġfuck": 8423,
      "Ġfruit": 8424,
      "Ġmike": 8425,
      "Ġmcd": 8426,
      "Ġbol": 8427,
      "Ġbag": 8428,
      "Ġbost": 8429,
      "Ġbsd": 8430,
      "any": 8431,
      "Ġdangers": 8432,
      "ali": 8433,
      "Ġops": 8434,
      "arms": 8435,
      "Ġluck": 8436,
      "Ġlying": 8437,
      "edy": 8438,
      "icago": 8439,
      "Ġtoile": 8440,
      "Ġtops": 8441,
      "Ġtodo": 8442,
      "Ġants": 8443,
      "Ġgp": 8444,
      "Ġgath": 8445,
      "Ġgulf": 8446,
      "stellar": 8447,
      "Ġnap": 8448,
      "Ġnaming": 8449,
      "Ġrewriting": 8450,
      "Ġshake": 8451,
      "rad": 8452,
      "olis": 8453,
      "igan": 8454,
      "Ġvps": 8455,
      "Ġonto": 8456,
      "chang": 8457,
      "uries": 8458,
      "Ġrac": 8459,
      "ppers": 8460,
      "Ġdee": 8461,
      "Ġasynchronous": 8462,
      "2000": 8463,
      "unding": 8464,
      "user": 8465,
      "Ġjax": 8466,
      "Ġjane": 8467,
      "iration": 8468,
      "ifiable": 8469,
      "Ġbuzz": 8470,
      "Ġages": 8471,
      "Ġagree": 8472,
      "plan": 8473,
      "quet": 8474,
      "Ġbee": 8475,
      "Ġunknown": 8476,
      "apes": 8477,
      "Ġspar": 8478,
      "Ġspies": 8479,
      "Ġscann": 8480,
      "Ġdogs": 8481,
      "antom": 8482,
      "Ġsud": 8483,
      "Ġarrow": 8484,
      "Ġarithmetic": 8485,
      "Ġgenius": 8486,
      "Ġquad": 8487,
      "ikely": 8488,
      "Ġ2028": 8489,
      "ached": 8490,
      "Ġabove": 8491,
      "Ġtrades": 8492,
      "Ġdescription": 8493,
      "owned": 8494,
      "Ġclaw": 8495,
      "Ġrecap": 8496,
      "Ġrepet": 8497,
      "Ġsmok": 8498,
      "Ġdrift": 8499,
      "Ġbacks": 8500,
      "Ġxi": 8501,
      "Ġfastapi": 8502,
      "Ġkeynote": 8503,
      "Ġwarner": 8504,
      "Ġwarrant": 8505,
      "weg": 8506,
      "Ġinvoice": 8507,
      "Ġmonday": 8508,
      "tee": 8509,
      "shots": 8510,
      "Ġattor": 8511,
      "Ġattribut": 8512,
      "Ġsearchable": 8513,
      "Ġchangelog": 8514,
      "Ġcouldn": 8515,
      "Ġparse": 8516,
      "Ġconsiders": 8517,
      "Ġlauncher": 8518,
      "Ġplanned": 8519,
      "Ġearn": 8520,
      "Ġreaders": 8521,
      "onda": 8522,
      "ovo": 8523,
      "Ġfoundations": 8524,
      "Ġowns": 8525,
      "laim": 8526,
      "Ġsupporting": 8527,
      "Ġarchae": 8528,
      "Ġcontrolled": 8529,
      "Ġ78": 8530,
      "Ġenter": 8531,
      "Ġelectrical": 8532,
      "Ġincent": 8533,
      "Ġvisually": 8534,
      "Ġ94": 8535,
      "Ġpassport": 8536,
      "Ġlabels": 8537,
      "Ġstateful": 8538,
      "Ġhttps": 8539,
      "Ġbookmarks": 8540,
      "Ġreactive": 8541,
      "Ġrequiring": 8542,
      "Ġeasiest": 8543,
      "Ġlaying": 8544,
      "Ġfriction": 8545,
      "health": 8546,
      "Ġ2020": 8547,
      "Ġdirection": 8548,
      "Ġirs": 8549,
      "Ġinteractions": 8550,
      "Ġmilk": 8551,
      "Ġclassification": 8552,
      "theast": 8553,
      "Ġcounty": 8554,
      "Ġcompiling": 8555,
      "Ġfallacy": 8556,
      "Ġterr": 8557,
      "Ġavailability": 8558,
      "structured": 8559,
      "Ġprotocols": 8560,
      "Ġorganize": 8561,
      "Ġpanels": 8562,
      "pods": 8563,
      "Ġconnecting": 8564,
      "Ġpalest": 8565,
      "Ġdifferently": 8566,
      "Ġcaptured": 8567,
      "Ġcleaning": 8568,
      "Ġaccelerated": 8569,
      "Ġswiftui": 8570,
      "Ġdebugger": 8571,
      "Ġaffects": 8572,
      "Ġprepares": 8573,
      "Ġcollections": 8574,
      "haul": 8575,
      "Ġbeauty": 8576,
      "Ġupgrading": 8577,
      "Ġfootball": 8578,
      "optim": 8579,
      "Ġsequoia": 8580,
      "Ġmastering": 8581,
      "ĠâĢĺ": 8582,
      "Ġadventures": 8583,
      "Ġinvented": 8584,
      "Ġimplant": 8585,
      "Ġcredits": 8586,
      "Ġdestroying": 8587,
      "Ġrotation": 8588,
      "Ġtags": 8589,
      "Ġvariables": 8590,
      "Ġmeasurement": 8591,
      "Ġmixed": 8592,
      "Ġpico": 8593,
      "Ġlovable": 8594,
      "Ġmerger": 8595,
      "Ġlicenses": 8596,
      "Ġaugust": 8597,
      "Ġappeal": 8598,
      "Ġappeals": 8599,
      "Ġsituation": 8600,
      "Ġcontroversy": 8601,
      "Ġrepresentation": 8602,
      "Ġinstitute": 8603,
      "Ġtrigger": 8604,
      "Ġatmosphere": 8605,
      "Ġawareness": 8606,
      "Ġfemale": 8607,
      "Ġdismant": 8608,
      "Ġvendor": 8609,
      "knowledge": 8610,
      "Ġgallery": 8611,
      "Ġugly": 8612,
      "Ġaudiob": 8613,
      "Ġcanonical": 8614,
      "Ġwizard": 8615,
      "beta": 8616,
      "Ġnegative": 8617,
      "Ġcolumn": 8618,
      "Ġdemystifying": 8619,
      "router": 8620,
      "etzner": 8621,
      "Ġpypi": 8622,
      "service": 8623,
      "31": 8624,
      "aults": 8625,
      "bell": 8626,
      "bound": 8627,
      "dk": 8628,
      "diff": 8629,
      "iem": 8630,
      "lat": 8631,
      "live": 8632,
      "local": 8633,
      "tol": 8634,
      "uing": 8635,
      "uard": 8636,
      "vector": 8637,
      "viet": 8638,
      "wa": 8639,
      "wright": 8640,
      "xx": 8641,
      "yard": 8642,
      "zos": 8643,
      "zip": 8644,
      "Ġace": 8645,
      "inct": 8646,
      "inating": 8647,
      "Ġtb": 8648,
      "Ġtear": 8649,
      "Ġtied": 8650,
      "Ġsad": 8651,
      "Ġsod": 8652,
      "Ġsaves": 8653,
      "Ġssl": 8654,
      "Ġcab": 8655,
      "Ġcure": 8656,
      "Ġcortex": 8657,
      "rection": 8658,
      "Ġfoods": 8659,
      "Ġmang": 8660,
      "Ġmile": 8661,
      "Ġwides": 8662,
      "Ġhood": 8663,
      "Ġhires": 8664,
      "Ġhedge": 8665,
      "Ġhetzner": 8666,
      "itz": 8667,
      "Ġbern": 8668,
      "Ġbored": 8669,
      "Ġlg": 8670,
      "Ġlm": 8671,
      "Ġlots": 8672,
      "Ġinbox": 8673,
      "street": 8674,
      "Ġnations": 8675,
      "acon": 8676,
      "Ġupt": 8677,
      "etics": 8678,
      "omen": 8679,
      "Ġshark": 8680,
      "Ġshipped": 8681,
      "olism": 8682,
      "Ġrum": 8683,
      "Ġasian": 8684,
      "Ġcomet": 8685,
      "thread": 8686,
      "aba": 8687,
      "Ġjon": 8688,
      "Ġjets": 8689,
      "Ġjira": 8690,
      "Ġaged": 8691,
      "Ġapplying": 8692,
      "Ġitems": 8693,
      "Ġopencode": 8694,
      "Ġunpre": 8695,
      "Ġplagi": 8696,
      "Ġscene": 8697,
      "antics": 8698,
      "Ġsudo": 8699,
      "ortion": 8700,
      "Ġrover": 8701,
      "Ġroast": 8702,
      "Ġnotepad": 8703,
      "sea": 8704,
      "uded": 8705,
      "Ġacid": 8706,
      "Ġresidents": 8707,
      "Ġdisag": 8708,
      "Ġcontacts": 8709,
      "Ġwebpage": 8710,
      "Ġ365": 8711,
      "Ġ27": 8712,
      "Ġengagement": 8713,
      "Ġserve": 8714,
      "Ġgenerations": 8715,
      "Ġraid": 8716,
      "Ġtrapped": 8717,
      "Ġtrailer": 8718,
      "Ġhey": 8719,
      "Ġaccent": 8720,
      "Ġperception": 8721,
      "Ġsoftbank": 8722,
      "Ġmuscle": 8723,
      "Ġsoviet": 8724,
      "intosh": 8725,
      "appy": 8726,
      "rolls": 8727,
      "Ġremind": 8728,
      "inson": 8729,
      "Ġpromote": 8730,
      "Ġairplane": 8731,
      "Ġfoundry": 8732,
      "Ġskip": 8733,
      "Ġretreat": 8734,
      "Ġendless": 8735,
      "Ġassets": 8736,
      "Ġ65": 8737,
      "Ġ600": 8738,
      "2001": 8739,
      "2002": 8740,
      "Ġcaus": 8741,
      "Ġsupercharg": 8742,
      "Ġadvoc": 8743,
      "Ġadvancing": 8744,
      "195": 8745,
      "Ġenters": 8746,
      "Ġregist": 8747,
      "Ġincidents": 8748,
      "Ġsettle": 8749,
      "Ġpasskeys": 8750,
      "leton": 8751,
      "Ġprofits": 8752,
      "program": 8753,
      "Ġjoe": 8754,
      "Ġjoh": 8755,
      "Ġeconomist": 8756,
      "Ġmessy": 8757,
      "cedented": 8758,
      "Ġauthors": 8759,
      "Ġdealing": 8760,
      "Ġbotnet": 8761,
      "Ġradical": 8762,
      "exper": 8763,
      "Ġsucceed": 8764,
      "Ġnears": 8765,
      "Ġpope": 8766,
      "anny": 8767,
      "Ġpauses": 8768,
      "Ġbars": 8769,
      "Ġequival": 8770,
      "Ġmisle": 8771,
      "Ġhitting": 8772,
      "Ġfactories": 8773,
      "Ġbinaries": 8774,
      "Ġpyd": 8775,
      "Ġhomep": 8776,
      "Ġinstalled": 8777,
      "Ġshaders": 8778,
      "Ġcomplain": 8779,
      "Ġsentence": 8780,
      "Ġlosses": 8781,
      "Ġcollector": 8782,
      "Ġeleph": 8783,
      "Ġspreading": 8784,
      "Ġtelecom": 8785,
      "Ġarguments": 8786,
      "Ġlocked": 8787,
      "Ġloading": 8788,
      "Ġpresidential": 8789,
      "Ġevaluate": 8790,
      "compet": 8791,
      "Ġjournalism": 8792,
      "Ġcrowds": 8793,
      "Ġproperties": 8794,
      "Ġmigrate": 8795,
      "Ġkindle": 8796,
      "Ġevolve": 8797,
      "labs": 8798,
      "Ġcomposition": 8799,
      "Ġmysteries": 8800,
      "Ġfatal": 8801,
      "Ġtitle": 8802,
      "Ġvanilla": 8803,
      "Ġexploitation": 8804,
      "Ġsurprisingly": 8805,
      "Ġgrew": 8806,
      "Ġmrna": 8807,
      "Ġcivilization": 8808,
      "...": 8809,
      "Ġhunting": 8810,
      "Ġsexual": 8811,
      "Ġmindset": 8812,
      "Ġembracing": 8813,
      "Ġbuffett": 8814,
      "Ġmolecular": 8815,
      "Ġsorting": 8816,
      "Ġwidget": 8817,
      "Ġentrepreneurs": 8818,
      "Ġopinionated": 8819,
      "Ġopportunity": 8820,
      "Ġfreelancers": 8821,
      "Ġclipboard": 8822,
      "Ġoutperforms": 8823,
      "Ġmartin": 8824,
      "Ġbullshit": 8825,
      "Ġtactics": 8826,
      "Ġpoisoning": 8827,
      "Ġrecycling": 8828,
      "Ġrestaurant": 8829,
      "Ġbridging": 8830,
      "Ġneurons": 8831,
      "Ġexplosion": 8832,
      "Ġneighbor": 8833,
      "Ġdiversity": 8834,
      "Ġtackle": 8835,
      "Ġvarious": 8836,
      "Ġhighlighting": 8837,
      "Ġstimulation": 8838,
      "Ġparameters": 8839,
      "mortem": 8840,
      "Ġwhistleblower": 8841,
      "Ġblueprint": 8842,
      "Ġcryptocurrency": 8843,
      "dragon": 8844,
      "Ġwidespread": 8845,
      "Ġplagiar": 8846,
      "43": 8847,
      "big": 8848,
      "bial": 8849,
      "cv": 8850,
      "fting": 8851,
      "good": 8852,
      "iod": 8853,
      "oint": 8854,
      "pur": 8855,
      "pub": 8856,
      "pres": 8857,
      "rants": 8858,
      "zing": 8859,
      "Ã¡": 8860,
      "Ġtu": 8861,
      "Ġted": 8862,
      "Ġtam": 8863,
      "Ġtid": 8864,
      "Ġtld": 8865,
      "Ġcrop": 8866,
      "Ġcube": 8867,
      "env": 8868,
      "enna": 8869,
      "Ġfare": 8870,
      "Ġpian": 8871,
      "ingly": 8872,
      "Ġwing": 8873,
      "itar": 8874,
      "Ġbat": 8875,
      "Ġbatt": 8876,
      "Ġborn": 8877,
      "Ġdol": 8878,
      "Ġdsl": 8879,
      "Ġdirty": 8880,
      "Ġoreg": 8881,
      "robot": 8882,
      "Ġlec": 8883,
      "Ġlid": 8884,
      "Ġinline": 8885,
      "eding": 8886,
      "Ġnin": 8887,
      "Ġnord": 8888,
      "Ġrewards": 8889,
      "Ġrebuild": 8890,
      "Ġutop": 8891,
      "etnam": 8892,
      "Ġstations": 8893,
      "ima": 8894,
      "Ġyell": 8895,
      "Ġvite": 8896,
      "Ġvery": 8897,
      "ĠâĢĵ>": 8898,
      "otech": 8899,
      "charge": 8900,
      "Ġproves": 8901,
      "uri": 8902,
      "urance": 8903,
      "Ġchasing": 8904,
      "Ġrsa": 8905,
      "Ġdepl": 8906,
      "Ġcops": 8907,
      "emu": 8908,
      "idel": 8909,
      "Ġjones": 8910,
      "Ġjpm": 8911,
      "ocity": 8912,
      "Ġexists": 8913,
      "Ġclosure": 8914,
      "Ġburea": 8915,
      "Ġenum": 8916,
      "Ġenabled": 8917,
      "Ġalp": 8918,
      "Ġcompatible": 8919,
      "Ġnewest": 8920,
      "Ġunders": 8921,
      "ipher": 8922,
      "ials": 8923,
      "action": 8924,
      "Ġardu": 8925,
      "Ġgenes": 8926,
      "Ġgenome": 8927,
      "Ġadvers": 8928,
      "Ġnotation": 8929,
      "Ġinterstellar": 8930,
      "Ġreset": 8931,
      "Ġwebapp": 8932,
      "Ġempt": 8933,
      "Ġemerge": 8934,
      "Ġabund": 8935,
      "Ġ36": 8936,
      "Ġ29": 8937,
      "Ġgenerally": 8938,
      "Ġphantom": 8939,
      "Ġtraders": 8940,
      "Ġtraged": 8941,
      "odynam": 8942,
      "Ġmeter": 8943,
      "Ġdrink": 8944,
      "Ġxp": 8945,
      "Ġxia": 8946,
      "Ġminor": 8947,
      "boy": 8948,
      "Ġfined": 8949,
      "Ġstudios": 8950,
      "conf": 8951,
      "Ġmedium": 8952,
      "Ġlocks": 8953,
      "Ġswim": 8954,
      "Ġreads": 8955,
      "Ġended": 8956,
      "fully": 8957,
      "Ġsubway": 8958,
      "Ġsubmit": 8959,
      "Ġdefens": 8960,
      "Ġdefend": 8961,
      "Ġcontrolling": 8962,
      "Ġ77": 8963,
      "Ġentering": 8964,
      "Ġcustomizable": 8965,
      "Ġ98": 8966,
      "Ġgrpc": 8967,
      "Ġkeyword": 8968,
      "Ġreplit": 8969,
      "Ġpassengers": 8970,
      "Ġhandbook": 8971,
      "Ġhappiness": 8972,
      "Ġtimer": 8973,
      "Ġsamples": 8974,
      "Ġvibec": 8975,
      "Ġvirgin": 8976,
      "Ġchecklist": 8977,
      "Ġclasses": 8978,
      "Ġeffectiveness": 8979,
      "Ġsemantics": 8980,
      "Ġidentifying": 8981,
      "Ġtaxonomy": 8982,
      "Ġcharles": 8983,
      "Ġspeeds": 8984,
      "Ġorganized": 8985,
      "arent": 8986,
      "Ġvietnam": 8987,
      "Ġapproaches": 8988,
      "brew": 8989,
      "Ġscrut": 8990,
      "Ġnato": 8991,
      "Ġpipe": 8992,
      "Ġaccountability": 8993,
      "Ġheard": 8994,
      "Ġmeasures": 8995,
      "Ġcaptures": 8996,
      "Ġjudg": 8997,
      "Ġscammers": 8998,
      "centric": 8999,
      "Ġhorror": 9000,
      "liest": 9001,
      "Ġscales": 9002,
      "Ġobservations": 9003,
      "openai": 9004,
      "Ġscrew": 9005,
      "Ġdivision": 9006,
      "Ġmidjourney": 9007,
      "Ġchallenging": 9008,
      "friend": 9009,
      "Ġsummarize": 9010,
      "Ġtao": 9011,
      "Ġjournalists": 9012,
      "Ġfloor": 9013,
      "Ġfloppy": 9014,
      "Ġrecommended": 9015,
      "Ġrecently": 9016,
      "Ġwireguard": 9017,
      "brains": 9018,
      "Ġhypers": 9019,
      "Ġdiscussion": 9020,
      "Ġsustainability": 9021,
      "Ġvictor": 9022,
      "Ġimagination": 9023,
      "Ġgolf": 9024,
      "Ġfalcon": 9025,
      "Ġvotes": 9026,
      "Ġregulatory": 9027,
      "Ġguardrails": 9028,
      "Ġquitting": 9029,
      "Ġintegrating": 9030,
      "Ġindependence": 9031,
      "Ġpoker": 9032,
      "Ġislands": 9033,
      "Ġimprovement": 9034,
      "Ġscraper": 9035,
      "Ġrapidly": 9036,
      "Ġvalued": 9037,
      "Ġomn": 9038,
      "Ġnyt": 9039,
      "Ġfortune": 9040,
      "Ġchemicals": 9041,
      "Ġaugmented": 9042,
      "Ġsuggestions": 9043,
      "Ġassociation": 9044,
      "Ġassociated": 9045,
      "Ġrailway": 9046,
      "Ġinfluencer": 9047,
      "Ġjupiter": 9048,
      "Ġpriorit": 9049,
      "wdc": 9050,
      "Ġfabric": 9051,
      "Ġdestroyed": 9052,
      "Ġdedicated": 9053,
      "Ġtweet": 9054,
      "Ġshifts": 9055,
      "Ġwildfire": 9056,
      "Ġretirement": 9057,
      "Ġsubtit": 9058,
      "Ġdictation": 9059,
      "imensional": 9060,
      "Ġinequality": 9061,
      "Ġsabotage": 9062,
      "Ġantibiot": 9063,
      "Ġuncertainty": 9064,
      "Ġfifth": 9065,
      "prompt": 9066,
      "Ġprivilege": 9067,
      "Ġneutrality": 9068,
      "Ġphenomen": 9069,
      "Ġwarehouse": 9070,
      "technical": 9071,
      "Ġpizza": 9072,
      "itzerland": 9073,
      "Ġamendment": 9074,
      "Ġgrafana": 9075,
      "Ġintellectual": 9076,
      "Ġhimself": 9077,
      "Ġoregon": 9078,
      "76": 9079,
      "cn": 9080,
      "cial": 9081,
      "dest": 9082,
      "dist": 9083,
      "een": 9084,
      "fre": 9085,
      "fus": 9086,
      "hatt": 9087,
      "lint": 9088,
      "mr": 9089,
      "rary": 9090,
      "rations": 9091,
      "sen": 9092,
      "tag": 9093,
      "turn": 9094,
      "uv": 9095,
      "vol": 9096,
      "yout": 9097,
      "Ã¼": 9098,
      "inks": 9099,
      "Ġtin": 9100,
      "Ġtac": 9101,
      "erved": 9102,
      "Ġcron": 9103,
      "Ġfis": 9104,
[...]
