{
  "version": "1.0",
  "truncation": null,
  "padding": null,
  "added_tokens": [
    {
      "id": 0,
      "content": "<pad>",
      "single_word": false,
      "lstrip": false,
      "rstrip": false,
      "normalized": false,
      "special": true
    },
    {
      "id": 1,
      "content": "<eos>",
      "single_word": false,
      "lstrip": false,
      "rstrip": false,
      "normalized": false,
      "special": true
    },
    {
      "id": 2,
      "content": "<unk>",
      "single_word": false,
      "lstrip": false,
      "rstrip": false,
      "normalized": false,
      "special": true
    }
  ],
  "normalizer": {
    "type": "Sequence",
    "normalizers": [
      {
        "type": "NFKC"
      },
      {
        "type": "Lowercase"
      },
      {
        "type": "Replace",
        "pattern": {
          "Regex": "\\s+"
        },
        "content": " "
      },
      {
        "type": "Strip",
        "strip_left": true,
        "strip_right": true
      }
    ]
  },
  "pre_tokenizer": {
    "type": "ByteLevel",
    "add_prefix_space": true,
    "trim_offsets": true,
    "use_regex": true
  },
  "post_processor": null,
  "decoder": {
    "type": "ByteLevel",
    "add_prefix_space": true,
    "trim_offsets": true,
    "use_regex": true
  },
  "model": {
    "type": "BPE",
    "dropout": null,
    "unk_token": "<unk>",
    "continuing_subword_prefix": null,
    "end_of_word_suffix": null,
    "fuse_unk": false,
    "byte_fallback": false,
    "ignore_merges": false,
    "vocab": {
      "<pad>": 0,
      "<eos>": 1,
      "<unk>": 2,
      "!": 3,
      "\"": 4,
      "#": 5,
      "$": 6,
      "%": 7,
      "&": 8,
      "'": 9,
      "(": 10,
      ")": 11,
      "*": 12,
      "+": 13,
      ",": 14,
      "-": 15,
      ".": 16,
      "/": 17,
      "0": 18,
      "1": 19,
      "2": 20,
      "3": 21,
      "4": 22,
      "5": 23,
      "6": 24,
      "7": 25,
      "8": 26,
      "9": 27,
      ":": 28,
      ";": 29,
      "<": 30,
      "=": 31,
      ">": 32,
      "?": 33,
      "@": 34,
      "[": 35,
      "\\": 36,
      "]": 37,
      "^": 38,
      "_": 39,
      "`": 40,
      "a": 41,
      "b": 42,
      "c": 43,
      "d": 44,
      "e": 45,
      "f": 46,
      "g": 47,
      "h": 48,
      "i": 49,
      "j": 50,
      "k": 51,
      "l": 52,
      "m": 53,
      "n": 54,
      "o": 55,
      "p": 56,
      "q": 57,
      "r": 58,
      "s": 59,
      "t": 60,
      "u": 61,
      "v": 62,
      "w": 63,
      "x": 64,
      "y": 65,
      "z": 66,
      "{": 67,
      "|": 68,
      "}": 69,
      "~": 70,
      "¡": 71,
      "¢": 72,
      "£": 73,
      "¤": 74,
      "¥": 75,
      "¦": 76,
      "§": 77,
      "¨": 78,
      "©": 79,
      "ª": 80,
      "«": 81,
      "¬": 82,
      "®": 83,
      "¯": 84,
      "°": 85,
      "±": 86,
      "²": 87,
      "³": 88,
      "´": 89,
      "µ": 90,
      "¶": 91,
      "·": 92,
      "¸": 93,
      "¹": 94,
      "º": 95,
      "»": 96,
      "¼": 97,
      "¾": 98,
      "¿": 99,
      "Â": 100,
      "Ã": 101,
      "Ä": 102,
      "Å": 103,
      "É": 104,
      "Ê": 105,
      "Ì": 106,
      "Î": 107,
      "Ï": 108,
      "Ð": 109,
      "Ñ": 110,
      "×": 111,
      "á": 112,
      "â": 113,
      "ã": 114,
      "å": 115,
      "ç": 116,
      "ó": 117,
      "Ĉ": 118,
      "Ġ": 119,
      "Ģ": 120,
      "ģ": 121,
      "Ĥ": 122,
      "ĥ": 123,
      "Ħ": 124,
      "ħ": 125,
      "Ĩ": 126,
      "ĩ": 127,
      "Ī": 128,
      "ī": 129,
      "Ĭ": 130,
      "ĭ": 131,
      "Į": 132,
      "į": 133,
      "İ": 134,
      "ı": 135,
      "Ĳ": 136,
      "ĳ": 137,
      "Ĵ": 138,
      "ĵ": 139,
      "Ķ": 140,
      "ķ": 141,
      "ĸ": 142,
      "Ĺ": 143,
      "ĺ": 144,
      "Ļ": 145,
      "ļ": 146,
      "ľ": 147,
      "Ŀ": 148,
      "ŀ": 149,
      "Ł": 150,
      "ł": 151,
      "Ń": 152,
      "Ġa": 153,
      "in": 154,
      "Ġt": 155,
      "Ġs": 156,
      "er": 157,
      "Ġc": 158,
      "on": 159,
      "re": 160,
      "or": 161,
      "en": 162,
      "Ġf": 163,
      "at": 164,
      "ing": 165,
      "Ġp": 166,
      "es": 167,
      "Ġw": 168,
      "Ġm": 169,
      "Ġh": 170,
      "it": 171,
      "an": 172,
      "Ġb": 173,
      "Ġth": 174,
      "Ġd": 175,
      "al": 176,
      "Ġo": 177,
      "ar": 178,
      "ro": 179,
      "is": 180,
      "Ġl": 181,
      "Ġthe": 182,
      "Ġin": 183,
      "ed": 184,
      "ic": 185,
      "ou": 186,
      "Ġto": 187,
      "ow": 188,
      "Ġan": 189,
      "Ġg": 190,
      "st": 191,
      "ion": 192,
      "le": 193,
      "Ġn": 194,
      "Ġe": 195,
      "il": 196,
      "Ġre": 197,
      "ac": 198,
      "ent": 199,
      "Ġof": 200,
      "de": 201,
      "Ġfor": 202,
      "Ġu": 203,
      "om": 204,
      "et": 205,
      "as": 206,
      "Ġand": 207,
      "Ġsh": 208,
      "Ġhn": 209,
      "el": 210,
      "ec": 211,
      "ra": 212,
      "Ġai": 213,
      "Ġst": 214,
      "ol": 215,
      "im": 216,
      "ut": 217,
      "âĢ": 218,
      "âĢĵ": 219,
      "ig": 220,
      "ers": 221,
      "Ġy": 222,
      "Ġv": 223,
      "ĠâĢĵ": 224,
      "Ġshow": 225,
      "iv": 226,
      "'s": 227,
      "ith": 228,
      "ot": 229,
      "Ġon": 230,
      "ation": 231,
      "ch": 232,
      "Ġwh": 233,
      "Ġis": 234,
      "Ġwith": 235,
      "Ġpro": 236,
      "am": 237,
      "ce": 238,
      "ur": 239,
      "Ġch": 240,
      "Ġr": 241,
      "ag": 242,
      "Ġyou": 243,
      "Ġi": 244,
      "ter": 245,
      "ay": 246,
      "pp": 247,
      "em": 248,
      "Ġ(": 249,
      "20": 250,
      "Ġas": 251,
      "un": 252,
      "Ġne": 253,
      "id": 254,
      "ul": 255,
      "Ġco": 256,
      "Ġmo": 257,
      "Ġde": 258,
      "Ġcom": 259,
      "pt": 260,
      "Ġus": 261,
      "th": 262,
      "ver": 263,
      "os": 264,
      "us": 265,
      "ab": 266,
      "ad": 267,
      "ts": 268,
      "ide": 269,
      "Ġj": 270,
      "um": 271,
      "ir": 272,
      "ct": 273,
      "Ġcon": 274,
      "oo": 275,
      "est": 276,
      "ak": 277,
      "ear": 278,
      "ack": 279,
      "oc": 280,
      "ly": 281,
      "Ġex": 282,
      "Ġk": 283,
      "op": 284,
      "ity": 285,
      "Ġcl": 286,
      "ate": 287,
      "if": 288,
      "ive": 289,
      "Ġwe": 290,
      "ess": 291,
      "Ġbu": 292,
      "rom": 293,
      "pen": 294,
      "Ġag": 295,
      "Ġen": 296,
      "ine": 297,
      "and": 298,
      "Ġwor": 299,
      "Ġapp": 300,
      "Ġtr": 301,
      "ist": 302,
      "pl": 303,
      "ure": 304,
      "Ġit": 305,
      "ill": 306,
      "ve": 307,
      "qu": 308,
      "Ġhow": 309,
      "Ġbe": 310,
      "Ġ[": 311,
      "Ġ1": 312,
      "Ġal": 313,
      "ust": 314,
      "igh": 315,
      "Ġcomp": 316,
      "ect": 317,
      "Ġun": 318,
      "Ġnew": 319,
      "Ġopen": 320,
      "Ġfrom": 321,
      "our": 322,
      "ap": 323,
      "are": 324,
      "Ġyour": 325,
      "Ġsc": 326,
      "Ġsp": 327,
      "ri": 328,
      "ideo": 329,
      "ld": 330,
      "Ġpl": 331,
      "Ġbuil": 332,
      "ub": 333,
      "202": 334,
      "ding": 335,
      "age": 336,
      "ast": 337,
      "Ġask": 338,
      "Ġat": 339,
      "Ġare": 340,
      "ang": 341,
      "ies": 342,
      "ain": 343,
      "ia": 344,
      "ks": 345,
      "Ġwhat": 346,
      "ment": 347,
      "ds": 348,
      "for": 349,
      "art": 350,
      "Ġint": 351,
      "iz": 352,
      "ant": 353,
      "ip": 354,
      "og": 355,
      "Ġdat": 356,
      "res": 357,
      "video": 358,
      "der": 359,
      "ell": 360,
      "oun": 361,
      "ial": 362,
      "all": 363,
      "Ġcan": 364,
      "of": 365,
      "Ġsu": 366,
      "Ġthat": 367,
      "Ġdo": 368,
      "Ġim": 369,
      "Ġar": 370,
      "ort": 371,
      "ans": 372,
      "ew": 373,
      "act": 374,
      "Ġ'": 375,
      "per": 376,
      "Ġro": 377,
      "Ġby": 378,
      "Ġagent": 379,
      "ram": 380,
      "ib": 381,
      "Ġwhy": 382,
      "ight": 383,
      "Ġad": 384,
      "Ġgen": 385,
      "out": 386,
      "ard": 387,
      "ost": 388,
      "able": 389,
      "one": 390,
      "Ġcode": 391,
      "se": 392,
      "form": 393,
      "ace": 394,
      "ech": 395,
      "Ġnot": 396,
      "ence": 397,
      "ind": 398,
      "Ġac": 399,
      "Ġpr": 400,
      "ions": 401,
      "Ġor": 402,
      "Ġsy": 403,
      "ice": 404,
      "du": 405,
      "lm": 406,
      "Ġcont": 407,
      "Ġle": 408,
      "ical": 409,
      "ud": 410,
      "Ġdev": 411,
      "Ġmode": 412,
      "Ġam": 413,
      "ite": 414,
      "ph": 415,
      "ge": 416,
      "Ġinter": 417,
      "ign": 418,
      "ory": 419,
      "Ġmy": 420,
      "Ġqu": 421,
      "Ġres": 422,
      "ire": 423,
      "Ġgoo": 424,
      "av": 425,
      "Ġbl": 426,
      "ail": 427,
      "Ġdata": 428,
      "ry": 429,
      "Ġweb": 430,
      "Ġtool": 431,
      "ach": 432,
      "ark": 433,
      "oft": 434,
      "ik": 435,
      "'t": 436,
      "ree": 437,
      "Ġdis": 438,
      "ake": 439,
      "ob": 440,
      "ore": 441,
      "Ġwork": 442,
      "Ġ202": 443,
      "Ġ\"": 444,
      "Ġmodel": 445,
      "Ġllm": 446,
      "ime": 447,
      "Ġem": 448,
      "Ġab": 449,
      "ource": 450,
      "ens": 451,
      "ance": 452,
      "Ġte": 453,
      "00": 454,
      "ep": 455,
      "xt": 456,
      "Ġ2": 457,
      "ai": 458,
      "Ġman": 459,
      "ug": 460,
      "Ġla": 461,
      "ase": 462,
      "ware": 463,
      "ould": 464,
      "co": 465,
      "ated": 466,
      "ass": 467,
      "Ġse": 468,
      "Ġph": 469,
      "Ġ3": 470,
      "Ġtech": 471,
      "Ġgener": 472,
      "ere": 473,
      "Ġgo": 474,
      "Ġ$": 475,
      "Ġup": 476,
      "Ġeng": 477,
      "earch": 478,
      "Ġsec": 479,
      "up": 480,
      "Ġaut": 481,
      "ff": 482,
      "ics": 483,
      "row": 484,
      "stem": 485,
      "ator": 486,
      "gle": 487,
      "ros": 488,
      "ave": 489,
      "ning": 490,
      "Ġser": 491,
      "Ġover": 492,
      "Ġra": 493,
      "Ġusing": 494,
      "ient": 495,
      "Ġlin": 496,
      "ame": 497,
      "ations": 498,
      "ower": 499,
      "ary": 500,
      "irst": 501,
      "Ġfl": 502,
      "ult": 503,
      "Ġtra": 504,
      "Ġno": 505,
      "ays": 506,
      "df": 507,
      "own": 508,
      "Ġdes": 509,
      "ath": 510,
      "Ġbuilt": 511,
      "ction": 512,
      "Ġgoogle": 513,
      "ous": 514,
      "Ġcre": 515,
      "iew": 516,
      "ron": 517,
      "Ġengine": 518,
      "ix": 519,
      "Ġma": 520,
      "ative": 521,
      "ock": 522,
      "Ġev": 523,
      "Ġaf": 524,
      "ook": 525,
      "Ġsystem": 526,
      "Ġhe": 527,
      "201": 528,
      "ome": 529,
      "Ġout": 530,
      "Ġimp": 531,
      "Ġz": 532,
      "ile": 533,
      "Ġcla": 534,
      "Ġacc": 535,
      "od": 536,
      "Ġhas": 537,
      "Ġoff": 538,
      "Ġabout": 539,
      "rit": 540,
      "ting": 541,
      "Ġrev": 542,
      "ru": 543,
      "Ġme": 544,
      "elop": 545,
      "Ġpre": 546,
      "ating": 547,
      "Ġyear": 548,
      "Ġmic": 549,
      "ork": 550,
      "pe": 551,
      "Ġdevelop": 552,
      "Ġall": 553,
      "ys": 554,
      "Ġper": 555,
      "Ġchat": 556,
      "ber": 557,
      "Ġfirst": 558,
      "Ġinto": 559,
      "ased": 560,
      "Ġcol": 561,
      "ian": 562,
      "Ġget": 563,
      "Ġuse": 564,
      "Ġrec": 565,
      "ual": 566,
      "Ġcomm": 567,
      "yth": 568,
      "Ġmore": 569,
      "Ġlang": 570,
      "ress": 571,
      "Ġwill": 572,
      "Ġnow": 573,
      "Ġapple": 574,
      "Ġafter": 575,
      "Ġprog": 576,
      "Ġsim": 577,
      "Ġchin": 578,
      "Ġfree": 579,
      "Ġsoft": 580,
      "ude": 581,
      "ash": 582,
      "Ġits": 583,
      "end": 584,
      "Ġrep": 585,
      "Ġmet": 586,
      "Ġlangu": 587,
      "Ġap": 588,
      "Ġever": 589,
      "Ġagents": 590,
      "ue": 591,
      "Ġsm": 592,
      "Ġfe": 593,
      "Ġbet": 594,
      "ick": 595,
      "Ġrun": 596,
      "ser": 597,
      "io": 598,
      "Ġcomput": 599,
      "Ġsol": 600,
      "Ġdr": 601,
      "ike": 602,
      "Ġtrans": 603,
      "Ġstart": 604,
      "ble": 605,
      "Ġsoftware": 606,
      "Ġgu": 607,
      "Ġreal": 608,
      "ie": 609,
      "net": 610,
      "ink": 611,
      "ors": 612,
      "Ġmus": 613,
      "Ġprodu": 614,
      "uc": 615,
      "ates": 616,
      "Ġlear": 617,
      "ms": 618,
      "ound": 619,
      "Ġfast": 620,
      "Ġprogram": 621,
      "ish": 622,
      "Ġhum": 623,
      "Ġback": 624,
      "ey": 625,
      "aking": 626,
      "Ġinf": 627,
      "Ġhave": 628,
      "Ġdec": 629,
      "enc": 630,
      "bo": 631,
      "ux": 632,
      "Ġfin": 633,
      "Ġclaude": 634,
      "Ġpost": 635,
      "Ġone": 636,
      "Ġworld": 637,
      "Ġmon": 638,
      "Ġ4": 639,
      "Ġmin": 640,
      "cl": 641,
      "Ġbo": 642,
      "ript": 643,
      "erm": 644,
      "Ġtime": 645,
      "Ġx": 646,
      "Ġlanguage": 647,
      "Ġsa": 648,
      "Ġmark": 649,
      "ject": 650,
      "ise": 651,
      "Ġexpl": 652,
      "we": 653,
      "ong": 654,
      "Ġwar": 655,
      "ns": 656,
      "Ġed": 657,
      "und": 658,
      "atch": 659,
      "iss": 660,
      "Ġpe": 661,
      "Ġinv": 662,
      "Ġ5": 663,
      "Ġind": 664,
      "Ġvis": 665,
      "ren": 666,
      "unch": 667,
      "Ġthan": 668,
      "Ġstud": 669,
      "to": 670,
      "ility": 671,
      "lic": 672,
      "ric": 673,
      "con": 674,
      "Ġso": 675,
      "Ġsource": 676,
      "als": 677,
      "pdf": 678,
      "Ġsupp": 679,
      "Ġgame": 680,
      "ific": 681,
      "ump": 682,
      "Ġpower": 683,
      "Ġnet": 684,
      "Ġany": 685,
      "source": 686,
      "te": 687,
      "Ġbuilding": 688,
      "Ġgl": 689,
      "bot": 690,
      "elf": 691,
      "its": 692,
      "ering": 693,
      "Ġcr": 694,
      "ows": 695,
      "ement": 696,
      "Ġcar": 697,
      "anc": 698,
      "Ġtur": 699,
      "Ġopenai": 700,
      "les": 701,
      "Ġmade": 702,
      "Ġsur": 703,
      "Ġrust": 704,
      "Ġhigh": 705,
      "ution": 706,
      "int": 707,
      "Ġbuild": 708,
      "Ġart": 709,
      "com": 710,
      "Ġmodels": 711,
      "Ġpol": 712,
      "rol": 713,
      "ple": 714,
      "Ġunder": 715,
      "Ġhel": 716,
      "ages": 717,
      "Ġeu": 718,
      "Ġgra": 719,
      "urity": 720,
      "Ġmake": 721,
      "Ġexp": 722,
      "Ġdesign": 723,
      "lect": 724,
      "Ġjust": 725,
      "sh": 726,
      "olog": 727,
      "Ġcould": 728,
      "Ġmult": 729,
      "Ġext": 730,
      "Ġkn": 731,
      "Ġmem": 732,
      "Ġsearch": 733,
      "Ġyears": 734,
      "Ġmicros": 735,
      "app": 736,
      "Ġwhen": 737,
      "Ġloc": 738,
      "Ġdown": 739,
      "Ġcoding": 740,
      "line": 741,
      "Ġchina": 742,
      "ition": 743,
      "Ġtest": 744,
      "Ġrem": 745,
      "Ġlaunch": 746,
      "Ġass": 747,
      "atform": 748,
      "ython": 749,
      "cript": 750,
      "ets": 751,
      "rain": 752,
      "Ġinst": 753,
      "Ġclou": 754,
      "Ġel": 755,
      "Ġlinux": 756,
      "Ġatt": 757,
      "ons": 758,
      "az": 759,
      "Ġty": 760,
      "Ġwas": 761,
      "ists": 762,
      "Ġchang": 763,
      "Ġpar": 764,
      "Ġwho": 765,
      "Ġmac": 766,
      "Ġplan": 767,
      "rop": 768,
      "Ġbr": 769,
      "Ġbig": 770,
      "eric": 771,
      "Ġcompan": 772,
      "Ġear": 773,
      "Ġprom": 774,
      "reat": 775,
      "ming": 776,
      "Ġsw": 777,
      "Ġjob": 778,
      "Ġrele": 779,
      "Ġanal": 780,
      "Ġllms": 781,
      "wn": 782,
      "Ġresearch": 783,
      "Ġbre": 784,
      "arg": 785,
      "ience": 786,
      "oy": 787,
      "Ġmanag": 788,
      "fl": 789,
      "Ġhack": 790,
      "Ġcons": 791,
      "Ġexper": 792,
      "Ġhuman": 793,
      "Ġpython": 794,
      "Ġwind": 795,
      "Ġbrow": 796,
      "gpt": 797,
      "Ġins": 798,
      "Ġmicrosoft": 799,
      "Ġmed": 800,
      "Ġsays": 801,
      "Ġlif": 802,
      "Ġvs": 803,
      "Ġdeep": 804,
      "Ġserv": 805,
      "ents": 806,
      "ings": 807,
      "Ġdoes": 808,
      "Ġway": 809,
      "Ġsl": 810,
      "fer": 811,
      "vid": 812,
      "Ġprot": 813,
      "Ġthis": 814,
      "Ġbut": 815,
      "Ġlike": 816,
      "ict": 817,
      "erg": 818,
      "ature": 819,
      "ord": 820,
      "Ġban": 821,
      "Ġsecurity": 822,
      "ices": 823,
      "Ġfun": 824,
      "Ġneed": 825,
      "Ġameric": 826,
      "ek": 827,
      "ov": 828,
      "Ġend": 829,
      "Ġspace": 830,
      "Ġplatform": 831,
      "Ġhelp": 832,
      "ital": 833,
      "rypt": 834,
      "Ġlib": 835,
      "ner": 836,
      "ale": 837,
      "ql": 838,
      "Ġsoc": 839,
      "Ġread": 840,
      "ugh": 841,
      "Ġfil": 842,
      "ople": 843,
      "ins": 844,
      "ization": 845,
      "ws": 846,
      "Ġdon": 847,
      "cess": 848,
      "Ġact": 849,
      "Ġfound": 850,
      "Ġopt": 851,
      "acy": 852,
      "Ġpeople": 853,
      "vel": 854,
      "atter": 855,
      "Ġpers": 856,
      "Ġtrump": 857,
      "Ġtechn": 858,
      "ond": 859,
      "Ġtw": 860,
      "Ġvideo": 861,
      "Ġcal": 862,
      "Ġret": 863,
      "Ġair": 864,
      "itor": 865,
      "ount": 866,
      "Ġ6": 867,
      "Ġsk": 868,
      "Ġfram": 869,
      "Ġagain": 870,
      "Ġchatgpt": 871,
      "Ġpart": 872,
      "Ġlocal": 873,
      "Ġdet": 874,
      "Ġval": 875,
      "Ġmost": 876,
      "ruct": 877,
      "Ġsub": 878,
      "Ġapi": 879,
      "Ġwrit": 880,
      "Ġproble": 881,
      "Ġcur": 882,
      "Ġeff": 883,
      "Ġstartup": 884,
      "Ġpo": 885,
      "ivers": 886,
      "ax": 887,
      "oss": 888,
      "Ġautom": 889,
      "Ġgam": 890,
      "Ġevery": 891,
      "akes": 892,
      "cp": 893,
      "Ġfut": 894,
      "Ġ2025": 895,
      "Ġour": 896,
      "old": 897,
      "Ġpriv": 898,
      "Ġtools": 899,
      "cover": 900,
      "Ġbec": 901,
      "Ġself": 902,
      "Ġarch": 903,
      "ese": 904,
      "Ġnext": 905,
      "Ġdef": 906,
      "ose": 907,
      "Ġsupport": 908,
      "gh": 909,
      "Ġpub": 910,
      "Ġnetw": 911,
      "Ġmay": 912,
      "Ġplay": 913,
      "ero": 914,
      "ines": 915,
      "Ġtrack": 916,
      "Ġbrowser": 917,
      "ful": 918,
      "ood": 919,
      "Ġob": 920,
      "Ġfuture": 921,
      "ream": 922,
      "Ġtheir": 923,
      "Ġris": 924,
      "Ġsch": 925,
      "ater": 926,
      "Ġstr": 927,
      "Ġadv": 928,
      "oth": 929,
      "Ġreview": 930,
      "Ġca": 931,
      "Ġlife": 932,
      "ull": 933,
      "ible": 934,
      "Ġown": 935,
      "200": 936,
      "ious": 937,
      "ied": 938,
      "Ġshould": 939,
      "Ġscient": 940,
      "pr": 941,
      "ism": 942,
      "Ġcontrol": 943,
      "Ġ2024": 944,
      "view": 945,
      "Ġproject": 946,
      "tern": 947,
      "Ġframew": 948,
      "Ġ7": 949,
      "Ġpay": 950,
      "Ġwithout": 951,
      "Ġrobot": 952,
      "based": 953,
      "time": 954,
      "ects": 955,
      "Ġ10": 956,
      "Ġstar": 957,
      "ough": 958,
      "Ġhist": 959,
      "Ġwindows": 960,
      "19": 961,
      "yn": 962,
      "Ġtes": 963,
      "ities": 964,
      "ability": 965,
      "man": 966,
      "alth": 967,
      "Ġprogramming": 968,
      "Ġlong": 969,
      "ithub": 970,
      "ft": 971,
      "Ġtext": 972,
      "Ġsocial": 973,
      "Ġsign": 974,
      "Ġhy": 975,
      "ces": 976,
      "led": 977,
      "Ġer": 978,
      "ploy": 979,
      "Ġent": 980,
      "uss": 981,
      "Ġknow": 982,
      "ify": 983,
      "ross": 984,
      "Ġelect": 985,
      "Ġif": 986,
      "Ġserver": 987,
      "ck": 988,
      "Ġgro": 989,
      "Ġmach": 990,
      "Ġdig": 991,
      "ery": 992,
      "Ġbetter": 993,
      "Ġinvest": 994,
      "Ġmemory": 995,
      "Ġgithub": 996,
      "Ġuk": 997,
      "Ġlearning": 998,
      "Ġproduct": 999,
      "ok": 1000,
      "formance": 1001,
      "Ġlibr": 1002,
      "gen": 1003,
      "ling": 1004,
      "Ġav": 1005,
      "Ġnews": 1006,
      "la": 1007,
      "Ġthey": 1008,
      "Ġke": 1009,
      "Ġgood": 1010,
      "rib": 1011,
      "Ġengineering": 1012,
      "Ġbrain": 1013,
      "Ġmarket": 1014,
      "Ġframework": 1015,
      "ps": 1016,
      "Ġbest": 1017,
      "Ġguide": 1018,
      "Ġcloud": 1019,
      "ments": 1020,
      "rov": 1021,
      "Ġsuper": 1022,
      "Ġdem": 1023,
      "Ġdoc": 1024,
      "Ġdeb": 1025,
      "Ġsimple": 1026,
      "Ġsaf": 1027,
      "Ġbus": 1028,
      "Ġform": 1029,
      "Ġinc": 1030,
      "Ġinternet": 1031,
      "Ġcy": 1032,
      "Ġben": 1033,
      "sc": 1034,
      "rough": 1035,
      "Ġprompt": 1036,
      "Ġce": 1037,
      "Ġset": 1038,
      "Ġbill": 1039,
      "Ġrepl": 1040,
      "ational": 1041,
      "Ġapps": 1042,
      "ustom": 1043,
      "Ġwebs": 1044,
      "Ġmusk": 1045,
      "Ġhard": 1046,
      "Ġsyn": 1047,
      "pu": 1048,
      "ier": 1049,
      "ned": 1050,
      "Ġcent": 1051,
      "att": 1052,
      "Ġ8": 1053,
      "Ġ9": 1054,
      "less": 1055,
      "ips": 1056,
      "ich": 1057,
      "Ġred": 1058,
      "ives": 1059,
      "Ġcustom": 1060,
      "itch": 1061,
      "Ġspe": 1062,
      "ize": 1063,
      "Ġperson": 1064,
      "inal": 1065,
      "Ġteam": 1066,
      "Ġdif": 1067,
      "Ġstudy": 1068,
      "ology": 1069,
      "iness": 1070,
      "ized": 1071,
      "Ġdevelopment": 1072,
      "Ġcall": 1073,
      "Ġmaking": 1074,
      "Ġcop": 1075,
      "Ġcost": 1076,
      "Ġjav": 1077,
      "Ġthink": 1078,
      "Ġquant": 1079,
      "Ġcomputer": 1080,
      "Ġmeta": 1081,
      "ues": 1082,
      "ouse": 1083,
      "Ġkey": 1084,
      "ness": 1085,
      "ants": 1086,
      "Ġann": 1087,
      "fs": 1088,
      "orn": 1089,
      "arge": 1090,
      "Ġlet": 1091,
      "ild": 1092,
      "Ġglob": 1093,
      "ty": 1094,
      "day": 1095,
      "read": 1096,
      "Ġdatab": 1097,
      "Ġide": 1098,
      "Ġamaz": 1099,
      "ency": 1100,
      "Ġste": 1101,
      "Ġadd": 1102,
      "Ġver": 1103,
      "Ġlead": 1104,
      "Ġtrain": 1105,
      "ely": 1106,
      "ss": 1107,
      "let": 1108,
      "Ġbeh": 1109,
      "ructure": 1110,
      "lo": 1111,
      "Ġaltern": 1112,
      "eg": 1113,
      "Ġlog": 1114,
      "ural": 1115,
      "Ġaccess": 1116,
      "ration": 1117,
      "Ġmcp": 1118,
      "eck": 1119,
      "Ġvisual": 1120,
      "power": 1121,
      "Ġfire": 1122,
      "Ġdist": 1123,
      "ular": 1124,
      "Ġfr": 1125,
      "Ġupd": 1126,
      "Ġreg": 1127,
      "ases": 1128,
      "Ġamazon": 1129,
      "ern": 1130,
      "Ġusers": 1131,
      "Ġglobal": 1132,
      "way": 1133,
      "alk": 1134,
      "Ġeuro": 1135,
      "Ġproblem": 1136,
      "Ġonline": 1137,
      "Ġreport": 1138,
      "Ġhistory": 1139,
      "Ġperformance": 1140,
      "Ġnetwork": 1141,
      "iving": 1142,
      "reen": 1143,
      "Ġdiscover": 1144,
      "Ġdid": 1145,
      "ooks": 1146,
      "Ġdigital": 1147,
      "Ġmar": 1148,
      "vidia": 1149,
      "Ġlook": 1150,
      "Ġwhere": 1151,
      "atic": 1152,
      "Ġmath": 1153,
      "ube": 1154,
      "Ġcap": 1155,
      "Ġfind": 1156,
      "Ġmiss": 1157,
      "use": 1158,
      "ellig": 1159,
      "Ġlibrary": 1160,
      "Ġant": 1161,
      "Ġoptim": 1162,
      "book": 1163,
      "Ġtop": 1164,
      "Ġtyp": 1165,
      "Ġagainst": 1166,
      "Ġhand": 1167,
      "Ġnvidia": 1168,
      "Ġmoder": 1169,
      "Ġsome": 1170,
      "Ġconf": 1171,
      "Ġhar": 1172,
      "Ġq": 1173,
      "Ġlab": 1174,
      "Ġgpt": 1175,
      "Ġdel": 1176,
      "Ġrel": 1177,
      "Ġstop": 1178,
      "Ġid": 1179,
      "Ġmov": 1180,
      "mark": 1181,
      "Ġless": 1182,
      "Ġbusiness": 1183,
      "Ġold": 1184,
      "Ġeurope": 1185,
      "Ġ19": 1186,
      "Ġgenerator": 1187,
      "Ġtim": 1188,
      "lex": 1189,
      "Ġhealth": 1190,
      "Ġgraph": 1191,
      "vers": 1192,
      "Ġterm": 1193,
      "Ġlive": 1194,
      "rodu": 1195,
      "Ġsystems": 1196,
      "Ġgr": 1197,
      "Ġcam": 1198,
      "down": 1199,
      "land": 1200,
      "Ġstate": 1201,
      "gres": 1202,
      "Ġscience": 1203,
      "Ġcrypt": 1204,
      "Ġfail": 1205,
      "Ġpass": 1206,
      "Ġreact": 1207,
      "uring": 1208,
      "olution": 1209,
      "Ġcompany": 1210,
      "ote": 1211,
      "Ġsn": 1212,
      "Ġdi": 1213,
      "Ġmedia": 1214,
      "ke": 1215,
      "Ġgem": 1216,
      "2023": 1217,
      "eng": 1218,
      "Ġfix": 1219,
      "Ġpostgres": 1220,
      "Ġmodern": 1221,
      "Ġsmall": 1222,
      "ten": 1223,
      "Ġstill": 1224,
      "Ġattack": 1225,
      "Ġprof": 1226,
      "js": 1227,
      "ral": 1228,
      "Ġlist": 1229,
      "ety": 1230,
      "Ġcommun": 1231,
      "Ġday": 1232,
      "Ġintellig": 1233,
      "Ġtwo": 1234,
      "Ġquantum": 1235,
      "cer": 1236,
      "orts": 1237,
      "Ġecon": 1238,
      "ulator": 1239,
      "Ġmulti": 1240,
      "ma": 1241,
      "Ġphot": 1242,
      "Ġcreate": 1243,
      "Ġfeature": 1244,
      "Ġeconom": 1245,
      "air": 1246,
      "ini": 1247,
      "Ġthere": 1248,
      "els": 1249,
      "aw": 1250,
      "Ġlight": 1251,
      "Ġgrow": 1252,
      "'re": 1253,
      "ites": 1254,
      "stand": 1255,
      "ired": 1256,
      "Ġassist": 1257,
      "oice": 1258,
      "Ġcut": 1259,
      "Ġht": 1260,
      "imate": 1261,
      "Ġimage": 1262,
      "Ġpublic": 1263,
      "Ġthem": 1264,
      "Ġleg": 1265,
      "uck": 1266,
      "Ġhome": 1267,
      "Ġvib": 1268,
      "rong": 1269,
      "Ġscientists": 1270,
      "Ġpersonal": 1271,
      "Ġlo": 1272,
      "ret": 1273,
      "ract": 1274,
      "Ġhapp": 1275,
      "Ġemail": 1276,
      "Ġcour": 1277,
      "Ġage": 1278,
      "he": 1279,
      "Ġbro": 1280,
      "ots": 1281,
      "Ġextens": 1282,
      "Ġge": 1283,
      "Ġgover": 1284,
      "Ġ20": 1285,
      "ential": 1286,
      "Ġauth": 1287,
      "roid": 1288,
      "Ġlay": 1289,
      "Ġstor": 1290,
      "ther": 1291,
      "Ġkill": 1292,
      "ysis": 1293,
      "ils": 1294,
      "ergy": 1295,
      "Ġfiles": 1296,
      "Ġalternative": 1297,
      "Ġmap": 1298,
      "Ġland": 1299,
      "Ġren": 1300,
      "Ġrequ": 1301,
      "raph": 1302,
      "Ġfaster": 1303,
      "Ġbit": 1304,
      "ivity": 1305,
      "Ġsmart": 1306,
      "ules": 1307,
      "Ġjo": 1308,
      "Ġsil": 1309,
      "Ġshare": 1310,
      "Ġyout": 1311,
      "Ġlarge": 1312,
      "lear": 1313,
      "board": 1314,
      "ights": 1315,
      "Ġfile": 1316,
      "Ġgames": 1317,
      "Ġdatabase": 1318,
      "ift": 1319,
      "Ġ100": 1320,
      "phone": 1321,
      "Ġgovern": 1322,
      "Ġaud": 1323,
      "Ġpack": 1324,
      "lement": 1325,
      "host": 1326,
      "Ġzero": 1327,
      "ything": 1328,
      "Ġmachine": 1329,
      "ging": 1330,
      "Ġreve": 1331,
      "Ġprocess": 1332,
      "Ġunderstand": 1333,
      "Ġtell": 1334,
      "ards": 1335,
      "Ġruss": 1336,
      "Ġunivers": 1337,
      "Ġ2026": 1338,
      "ox": 1339,
      "Ġtake": 1340,
      "rome": 1341,
      "Ġoper": 1342,
      "Ġonly": 1343,
      "Ġused": 1344,
      "irect": 1345,
      "ium": 1346,
      "Ġbook": 1347,
      "Ġgit": 1348,
      "ason": 1349,
      "pend": 1350,
      "aut": 1351,
      "back": 1352,
      "Ġsal": 1353,
      "ality": 1354,
      "oll": 1355,
      "powered": 1356,
      "hip": 1357,
      "aces": 1358,
      "Ġdead": 1359,
      "Ġspec": 1360,
      "Ġworks": 1361,
      "Ġchinese": 1362,
      "ense": 1363,
      "Ġkeep": 1364,
      "Ġsam": 1365,
      "leg": 1366,
      "Ġanalysis": 1367,
      "bit": 1368,
      "Ġapplic": 1369,
      "Ġlaw": 1370,
      "Ġintelligence": 1371,
      "Ġanth": 1372,
      "Ġlink": 1373,
      "ying": 1374,
      "Ġeas": 1375,
      "Ġenergy": 1376,
      "izing": 1377,
      "Ġbreak": 1378,
      "Ġcor": 1379,
      "Ġport": 1380,
      "Ġblock": 1381,
      "Ġearth": 1382,
      "ext": 1383,
      "cast": 1384,
      "mar": 1385,
      "Ġmess": 1386,
      "Ġche": 1387,
      "Ġsee": 1388,
      "br": 1389,
      "Ġsing": 1390,
      "Ġthrough": 1391,
      "Ġcoll": 1392,
      "Ġmusic": 1393,
      "ird": 1394,
      "Ġpred": 1395,
      "Ġwebsite": 1396,
      "itect": 1397,
      "Ġbi": 1398,
      "Ġintrodu": 1399,
      "box": 1400,
      "ilot": 1401,
      "Ġceo": 1402,
      "ited": 1403,
      "ental": 1404,
      "Ġvir": 1405,
      "Ġelon": 1406,
      "Ġtesla": 1407,
      "ml": 1408,
      "Ġphys": 1409,
      "ced": 1410,
      "Ġanaly": 1411,
      "Ġdetect": 1412,
      "ade": 1413,
      "Ġcli": 1414,
      "ones": 1415,
      "icon": 1416,
      "Ġiss": 1417,
      "ush": 1418,
      "Ġamerica": 1419,
      "Ġast": 1420,
      "Ġhere": 1421,
      "Ġdom": 1422,
      "Ġir": 1423,
      "ateg": 1424,
      "Ġfed": 1425,
      "Ġface": 1426,
      "Ġandroid": 1427,
      "Ġcontent": 1428,
      "Ġyoutube": 1429,
      "Ġwant": 1430,
      "pro": 1431,
      "Ġsql": 1432,
      "Ġnon": 1433,
      "Ġdeal": 1434,
      "Ġanthrop": 1435,
      "itive": 1436,
      "cept": 1437,
      "Ġmacos": 1438,
      "Ġarchitect": 1439,
      "iqu": 1440,
      "top": 1441,
      "Ġfore": 1442,
      "Ġwin": 1443,
      "Ġdirect": 1444,
      "Ġtransform": 1445,
      "Ġmil": 1446,
      "Ġrest": 1447,
      "usion": 1448,
      "Ġwriting": 1449,
      "Ġdocum": 1450,
      "ats": 1451,
      "Ġmag": 1452,
      "Ġlim": 1453,
      "aper": 1454,
      "Ġfeed": 1455,
      "Ġjobs": 1456,
      "bers": 1457,
      "lish": 1458,
      "Ġip": 1459,
      "Ġexec": 1460,
      "Ġbeen": 1461,
      "Ġintel": 1462,
      "Ġgetting": 1463,
      "iel": 1464,
      "jects": 1465,
      "ool": 1466,
      "Ġfull": 1467,
      "round": 1468,
      "Ġbehind": 1469,
      "Ġgreat": 1470,
      "Ġindust": 1471,
      "Ġmanagement": 1472,
      "fore": 1473,
      "gan": 1474,
      "Ġhead": 1475,
      "put": 1476,
      "Ġref": 1477,
      "ourn": 1478,
      "ains": 1479,
      "Ġsay": 1480,
      "ank": 1481,
      "Ġstream": 1482,
      "Ġinterview": 1483,
      "Ġbench": 1484,
      "Ġgemini": 1485,
      "bs": 1486,
      "Ġnum": 1487,
      "ascript": 1488,
      "Ġes": 1489,
      "Ġchange": 1490,
      "Ġservice": 1491,
      "Ġprivacy": 1492,
      "dit": 1493,
      "Ġsat": 1494,
      "ert": 1495,
      "Ġbad": 1496,
      "Ġep": 1497,
      "oney": 1498,
      "Ġwould": 1499,
      "Ġuser": 1500,
      "dr": 1501,
      "ll": 1502,
      "eth": 1503,
      "Ġvia": 1504,
      "ures": 1505,
      "Ġmicro": 1506,
      "na": 1507,
      "Ġanthropic": 1508,
      "oid": 1509,
      "Ġbased": 1510,
      "Ġnas": 1511,
      "apan": 1512,
      "cing": 1513,
      "pus": 1514,
      "Ġtem": 1515,
      "Ġtesting": 1516,
      "++": 1517,
      "Ġjapan": 1518,
      "Ġclass": 1519,
      "Ġgeneration": 1520,
      "Ġterminal": 1521,
      "bed": 1522,
      "Ġthreat": 1523,
      "Ġvul": 1524,
      "Ġalg": 1525,
      "Ġdesk": 1526,
      "Ġcase": 1527,
      "Ġpres": 1528,
      "Ġvers": 1529,
      "Ġprop": 1530,
      "2021": 1531,
      "Ġjavascript": 1532,
      "Ġenc": 1533,
      "Ġdeveloper": 1534,
      "ken": 1535,
      "Ġthough": 1536,
      "Ġcheck": 1537,
      "Ġbeing": 1538,
      "Ġmonth": 1539,
      "ulation": 1540,
      "ger": 1541,
      "Ġscal": 1542,
      "Ġquest": 1543,
      "Ġrad": 1544,
      "Ġdevelopers": 1545,
      "ribut": 1546,
      "oring": 1547,
      "iver": 1548,
      "Ġphone": 1549,
      "Ġmakes": 1550,
      "Ġstand": 1551,
      "Ġvibe": 1552,
      "tr": 1553,
      "Ġlat": 1554,
      "Ġgot": 1555,
      "Ġrelease": 1556,
      "Ġreleased": 1557,
      "50": 1558,
      "bl": 1559,
      "Ġblack": 1560,
      "Ġsolar": 1561,
      "ification": 1562,
      "Ġshort": 1563,
      "Ġchall": 1564,
      "Ġmod": 1565,
      "rite": 1566,
      "iny": 1567,
      "Ġvoice": 1568,
      "pping": 1569,
      "iven": 1570,
      "Ġcompanies": 1571,
      "Ġcontext": 1572,
      "code": 1573,
      "Ġskill": 1574,
      "gener": 1575,
      "Ġbefore": 1576,
      "Ġinteract": 1577,
      "Ġdisc": 1578,
      "af": 1579,
      "be": 1580,
      "gest": 1581,
      "Ġworking": 1582,
      "Ġlearn": 1583,
      "lection": 1584,
      "Ġnor": 1585,
      "Ġchar": 1586,
      "2022": 1587,
      "Ġannoun": 1588,
      "load": 1589,
      "pre": 1590,
      "Ġinde": 1591,
      "Ġstory": 1592,
      "Ġrunning": 1593,
      "Ġeffect": 1594,
      "Ġrisk": 1595,
      "me": 1596,
      "Ġos": 1597,
      "ask": 1598,
      "Ġchrome": 1599,
      "Ġios": 1600,
      "idd": 1601,
      "Ġword": 1602,
      "ront": 1603,
      "orith": 1604,
      "Ġpi": 1605,
      "Ġcompil": 1606,
      "Ġagentic": 1607,
      "ween": 1608,
      "Ġaws": 1609,
      "raft": 1610,
      "Ġclient": 1611,
      "Ġnotes": 1612,
      "Ġstrateg": 1613,
      "ified": 1614,
      "Ġother": 1615,
      "Ġwrong": 1616,
      "ids": 1617,
      "Ġinteg": 1618,
      "Ġtechnology": 1619,
      "nect": 1620,
      "Ġfall": 1621,
      "ograph": 1622,
      "Ġtypes": 1623,
      "Ġnasa": 1624,
      "face": 1625,
      "Ġoffic": 1626,
      "Ġbetween": 1627,
      "Ġdiffer": 1628,
      "Ġcrypto": 1629,
      "Ġalgorith": 1630,
      "min": 1631,
      "Ġur": 1632,
      "Ġjourn": 1633,
      "Ġacross": 1634,
      "flow": 1635,
      "Ġelectric": 1636,
      "Ġdesktop": 1637,
      "2024": 1638,
      "Ġturn": 1639,
      "Ġextension": 1640,
      "Ġlow": 1641,
      "Ġui": 1642,
      "Ġweek": 1643,
      "uch": 1644,
      "yle": 1645,
      "Ġcount": 1646,
      "Ġpop": 1647,
      "aring": 1648,
      "Ġstore": 1649,
      "Ġrules": 1650,
      "Ġpract": 1651,
      "Ġblog": 1652,
      "Ġclaim": 1653,
      "Ġcyber": 1654,
      "Ġsum": 1655,
      "Ġmill": 1656,
      "Ġhit": 1657,
      "Ġstat": 1658,
      "used": 1659,
      "Ġsurve": 1660,
      "Ġlaunches": 1661,
      "Ġsafety": 1662,
      "ison": 1663,
      "Ġview": 1664,
      "Ġtype": 1665,
      "Ġcrit": 1666,
      "Ġwon": 1667,
      "ari": 1668,
      "Ġchild": 1669,
      "other": 1670,
      "lare": 1671,
      "ama": 1672,
      "ury": 1673,
      "Ġprin": 1674,
      "Ġemploy": 1675,
      "Ġproduction": 1676,
      "Ġprivate": 1677,
      "Ġtraining": 1678,
      "uz": 1679,
      "wor": 1680,
      "year": 1681,
      "Ġ-": 1682,
      "Ġ/": 1683,
      "ional": 1684,
      "Ġnear": 1685,
      "Ġsuc": 1686,
      "Ġlaws": 1687,
      "Ġimplement": 1688,
      "ex": 1689,
      "pect": 1690,
      "Ġtoo": 1691,
      "mer": 1692,
      "Ġsell": 1693,
      "Ġsite": 1694,
      "Ġfar": 1695,
      "Ġmob": 1696,
      "Ġbug": 1697,
      "Ġreason": 1698,
      "Ġstack": 1699,
      "Ġright": 1700,
      "Ġsingle": 1701,
      "onom": 1702,
      "Ġmoney": 1703,
      "Ġbatter": 1704,
      "2020": 1705,
      "Ġimpact": 1706,
      "Ġlast": 1707,
      "ocol": 1708,
      "Ġimprov": 1709,
      "Ġident": 1710,
      "mo": 1711,
      "yc": 1712,
      "iting": 1713,
      "Ġdays": 1714,
      "Ġredu": 1715,
      "Ġexperim": 1716,
      "iction": 1717,
      "Ġupdate": 1718,
      "ving": 1719,
      "Ġrecord": 1720,
      "ee": 1721,
      "gra": 1722,
      "ward": 1723,
      "Ġmal": 1724,
      "Ġrub": 1725,
      "Ġeditor": 1726,
      "Ġbank": 1727,
      "Ġthings": 1728,
      "ises": 1729,
      "Ġnuc": 1730,
      "imal": 1731,
      "Ġchip": 1732,
      "Ġiphone": 1733,
      "ands": 1734,
      "Ġengineer": 1735,
      "Ġmonitor": 1736,
      "10": 1737,
      "lin": 1738,
      "ole": 1739,
      "Ġtrust": 1740,
      "ically": 1741,
      "ynam": 1742,
      "Ġspeed": 1743,
      "ky": 1744,
      "Ġcare": 1745,
      "Ġfront": 1746,
      "Ġpat": 1747,
      "Ġput": 1748,
      "ley": 1749,
      "istic": 1750,
      "ape": 1751,
      "Ġimages": 1752,
      "Ġworkers": 1753,
      "Ġstri": 1754,
      "coin": 1755,
      "ody": 1756,
      "Ġeverything": 1757,
      "Ġinfra": 1758,
      "Ġearly": 1759,
      "Ġmanager": 1760,
      "Ġgovernment": 1761,
      "ef": 1762,
      "first": 1763,
      "Ġtalk": 1764,
      "Ġenv": 1765,
      "Ġgets": 1766,
      "Ġassistant": 1767,
      "uit": 1768,
      "Ġter": 1769,
      "Ġmuch": 1770,
      "formation": 1771,
      "iforn": 1772,
      "ector": 1773,
      "Ġorig": 1774,
      "Ġresp": 1775,
      "Ġ0": 1776,
      "Ġtarg": 1777,
      "Ġcross": 1778,
      "Ġtheory": 1779,
      "Ġcoming": 1780,
      "osing": 1781,
      "Ġfinds": 1782,
      "Ġvulner": 1783,
      "Ġclimate": 1784,
      "ounder": 1785,
      "Ġtax": 1786,
      "000": 1787,
      "Ġhal": 1788,
      "urn": 1789,
      "Ġexplain": 1790,
      "Ġeffic": 1791,
      "Ġofficial": 1792,
      "'m": 1793,
      "ves": 1794,
      "Ġsem": 1795,
      "Ġul": 1796,
      "Ġcaliforn": 1797,
      "sp": 1798,
      "vent": 1799,
      "Ġpc": 1800,
      "ily": 1801,
      "Ġdeath": 1802,
      "Ġarm": 1803,
      "by": 1804,
      "Ġbot": 1805,
      "Ġnative": 1806,
      "ident": 1807,
      "rupt": 1808,
      "Ġvision": 1809,
      "Ġnuclear": 1810,
      "mic": 1811,
      "son": 1812,
      "Ġcle": 1813,
      "Ġgpu": 1814,
      "Ġisn": 1815,
      "osed": 1816,
      "Ġconnect": 1817,
      "Ġgenerative": 1818,
      "2019": 1819,
      "Ġcomputing": 1820,
      "Ġnever": 1821,
      "Ġembed": 1822,
      "ising": 1823,
      "Ġgenerate": 1824,
      "Ġprotect": 1825,
      "Ġwatch": 1826,
      "Ġhost": 1827,
      "Ġlit": 1828,
      "Ġdeploy": 1829,
      "Ġorgan": 1830,
      "Ġcloudf": 1831,
      "Ġcourt": 1832,
      "Ġcalifornia": 1833,
      "ony": 1834,
      "Ġthree": 1835,
      "ication": 1836,
      "Ġmaj": 1837,
      "ences": 1838,
      "press": 1839,
      "Ġpan": 1840,
      "ision": 1841,
      "rag": 1842,
      "play": 1843,
      "Ġencrypt": 1844,
      "Ġtiny": 1845,
      "Ġcell": 1846,
      "unt": 1847,
      "ocks": 1848,
      "Ġprotocol": 1849,
      "ledge": 1850,
      "Ġmobile": 1851,
      "Ġcloudflare": 1852,
      "'ve": 1853,
      "Ġfir": 1854,
      "Ġstructure": 1855,
      "Ġindia": 1856,
      "Ġarchitecture": 1857,
      "oses": 1858,
      "Ġconver": 1859,
      "Ġkern": 1860,
      "ires": 1861,
      "oot": 1862,
      "Ġwrite": 1863,
      "Ġcompet": 1864,
      "Ġswitch": 1865,
      "ze": 1866,
      "Ġfre": 1867,
      "Ġhis": 1868,
      "Ġshows": 1869,
      "Ġscale": 1870,
      "Ġsen": 1871,
      "Ġrise": 1872,
      "ults": 1873,
      "Ġalt": 1874,
      "Ġ2023": 1875,
      "Ġsaas": 1876,
      "anced": 1877,
      "Ġdocument": 1878,
      "Ġindustry": 1879,
      "Ġpy": 1880,
      "Ġhouse": 1881,
      "Ġbooks": 1882,
      "eler": 1883,
      "Ġvide": 1884,
      "ames": 1885,
      "ables": 1886,
      "iron": 1887,
      "aker": 1888,
      "aster": 1889,
      "ikto": 1890,
      "Ġgoing": 1891,
      "Ġsecret": 1892,
      "Ġremote": 1893,
      "Ġgroup": 1894,
      "ror": 1895,
      "sw": 1896,
      "Ġpa": 1897,
      "Ġmany": 1898,
      "Ġmajor": 1899,
      "ann": 1900,
      "pped": 1901,
      "Ġconvers": 1902,
      "Ġbuy": 1903,
      "Ġ50": 1904,
      "Ġunderstanding": 1905,
      "orks": 1906,
      "structure": 1907,
      "Ġ11": 1908,
      "Ġplans": 1909,
      "Ġamerican": 1910,
      "Ġtikto": 1911,
      "Ġhour": 1912,
      "ilities": 1913,
      "Ġexperience": 1914,
      "Ġschool": 1915,
      "Ġcopilot": 1916,
      "ane": 1917,
      "like": 1918,
      "wh": 1919,
      "Ġwants": 1920,
      "Ġdark": 1921,
      "Ġdynam": 1922,
      "Ġec": 1923,
      "ators": 1924,
      "Ġhumans": 1925,
      "ton": 1926,
      "Ġfact": 1927,
      "Ġwater": 1928,
      "Ġhom": 1929,
      "the": 1930,
      "Ġinside": 1931,
      "Ġcapt": 1932,
      "Ġpush": 1933,
      "Ġboo": 1934,
      "Ġsales": 1935,
      "cy": 1936,
      "Ġprojects": 1937,
      "Ġplug": 1938,
      "Ġamd": 1939,
      "Ġmeet": 1940,
      "serv": 1941,
      "Ġchanges": 1942,
      "ests": 1943,
      "Ġshut": 1944,
      "raw": 1945,
      "Ġleak": 1946,
      "Ġfunction": 1947,
      "Ġavail": 1948,
      "Ġbitcoin": 1949,
      "ides": 1950,
      "Ġanyone": 1951,
      "Ġcommunity": 1952,
      "Ġtiktok": 1953,
      "Ġwom": 1954,
      "ute": 1955,
      "Ġappro": 1956,
      "Ġcomplex": 1957,
      "ache": 1958,
      "Ġteach": 1959,
      "Ġmeth": 1960,
      "uzz": 1961,
      "Ġenviron": 1962,
      "free": 1963,
      "ior": 1964,
      "Ġpath": 1965,
      "Ġmain": 1966,
      "Ġll": 1967,
      "Ġbey": 1968,
      "Ġcanad": 1969,
      "Ġ40": 1970,
      "Ġincre": 1971,
      "Ġvideos": 1972,
      "tp": 1973,
      "Ġcity": 1974,
      "acing": 1975,
      "Ġ30": 1976,
      "ificial": 1977,
      "ler": 1978,
      "eral": 1979,
      "erence": 1980,
      "Ġfam": 1981,
      "Ġhol": 1982,
      "Ġlost": 1983,
      "ider": 1984,
      "iple": 1985,
      "Ġintern": 1986,
      "Ġresearchers": 1987,
      "Ġbeyond": 1988,
      "Ġhear": 1989,
      "Ġdrop": 1990,
      "Ġ12": 1991,
      "seek": 1992,
      "Ġcontain": 1993,
      "Ġauto": 1994,
      "generated": 1995,
      "ault": 1996,
      "cts": 1997,
      "part": 1998,
      "aving": 1999,
      "erman": 2000,
      "Ġstorage": 2001,
      "Ġinteractive": 2002,
      "des": 2003,
      "ui": 2004,
      "Ġwhich": 2005,
      "Ġsecure": 2006,
      "Ġrag": 2007,
      "Ġiran": 2008,
      "ystem": 2009,
      "Ġbin": 2010,
      "off": 2011,
      "Ġcolor": 2012,
      "Ġtracking": 2013,
      "Ġbenchmark": 2014,
      "Ġversion": 2015,
      "val": 2016,
      "Ġsan": 2017,
      "Ġbar": 2018,
      "ised": 2019,
      "etic": 2020,
      "Ġartificial": 2021,
      "Ġknowledge": 2022,
      "Ġruby": 2023,
      "da": 2024,
      "Ġside": 2025,
      "Ġfri": 2026,
      "Ġpod": 2027,
      "Ġmis": 2028,
      "Ġbas": 2029,
      "Ġscreen": 2030,
      "Ġspot": 2031,
      "ange": 2032,
      "rent": 2033,
      "Ġera": 2034,
      "gn": 2035,
      "por": 2036,
      "Ġtal": 2037,
      "Ġmyst": 2038,
      "Ġreveals": 2039,
      "get": 2040,
      "Ġfund": 2041,
      "Ġps": 2042,
      "aging": 2043,
      "Ġroad": 2044,
      "Ġboard": 2045,
      "Ġexplo": 2046,
      "Ġcris": 2047,
      "Ġhacker": 2048,
      "Ġtimes": 2049,
      "tc": 2050,
      "Ġstep": 2051,
      "ops": 2052,
      "Ġimm": 2053,
      "Ġacqu": 2054,
      "Ġult": 2055,
      "bu": 2056,
      "ule": 2057,
      "Ġsou": 2058,
      "Ġsave": 2059,
      "Ġpdf": 2060,
      "eter": 2061,
      "oph": 2062,
      "aren": 2063,
      "aily": 2064,
      "ffic": 2065,
      "Ġmeas": 2066,
      "Ġcalc": 2067,
      "Ġcopy": 2068,
      "go": 2069,
      "right": 2070,
      "Ġpip": 2071,
      "erse": 2072,
      "Ġpolic": 2073,
      "Ġstartups": 2074,
      "Ġdiff": 2075,
      "Ġeasy": 2076,
      "Ġskills": 2077,
      "Ġsuccess": 2078,
      "Ġinfrastructure": 2079,
      "tle": 2080,
      "Ġgreen": 2081,
      "Ġmoon": 2082,
      "Ġbiggest": 2083,
      "Ġdeepseek": 2084,
      "Ġpublish": 2085,
      "Ġsatell": 2086,
      "Ġkernel": 2087,
      "Ġboost": 2088,
      "ls": 2089,
      "ted": 2090,
      "Ġpage": 2091,
      "Ġequ": 2092,
      "urs": 2093,
      "Ġautonom": 2094,
      "Ġengineers": 2095,
      "Ġacceler": 2096,
      "Ġinfl": 2097,
      "Ġbring": 2098,
      "Ġapplications": 2099,
      "opt": 2100,
      "uel": 2101,
      "Ġcat": 2102,
      "Ġcult": 2103,
      "Ġtoday": 2104,
      "Ġscr": 2105,
      "Ġchatbot": 2106,
      "Ġdrug": 2107,
      "Ġinference": 2108,
      "Ġenter": 2109,
      "Ġcamer": 2110,
      "ci": 2111,
      "ng": 2112,
      "ded": 2113,
      "pa": 2114,
      "port": 2115,
      "ved": 2116,
      "erc": 2117,
      "Ġdaily": 2118,
      "Ġnav": 2119,
      "Ġstock": 2120,
      "Ġcharg": 2121,
      "Ġjud": 2122,
      "Ġeven": 2123,
      "Ġfeatures": 2124,
      "Ġindex": 2125,
      "Ġtre": 2126,
      "Ġpaper": 2127,
      "ally": 2128,
      "Ġnat": 2129,
      "idence": 2130,
      "force": 2131,
      "Ġlevel": 2132,
      "Ġrevolution": 2133,
      "Ġservices": 2134,
      "Ġtests": 2135,
      "Ġvirt": 2136,
      "Ġclean": 2137,
      "cel": 2138,
      "Ġanother": 2139,
      "Ġgerman": 2140,
      "ention": 2141,
      "âĢĻ": 2142,
      "iring": 2143,
      "ples": 2144,
      "Ġdoesn": 2145,
      "Ġlove": 2146,
      "Ġsand": 2147,
      "Ġfight": 2148,
      "Ġpatter": 2149,
      "Ġml": 2150,
      "Ġmight": 2151,
      "Ġbel": 2152,
      "rap": 2153,
      "Ġvol": 2154,
      "Ġcomb": 2155,
      "Ġconst": 2156,
      "Ġrock": 2157,
      "Ġoffice": 2158,
      "Ġpolit": 2159,
      "Ġsilicon": 2160,
      "Ġavailable": 2161,
      "agram": 2162,
      "Ġtechnical": 2163,
      "Ġproblems": 2164,
      "Ġbecome": 2165,
      "Ġhardware": 2166,
      "Ġfake": 2167,
      "Ġwik": 2168,
      "Ġmot": 2169,
      "Ġline": 2170,
      "Ġwritten": 2171,
      "199": 2172,
      "Ġcalls": 2173,
      "Ġpain": 2174,
      "Ġanc": 2175,
      "acc": 2176,
      "acts": 2177,
      "ources": 2178,
      "aste": 2179,
      "Ġeval": 2180,
      "Ġmathem": 2181,
      "Ġhtml": 2182,
      "Ġhappen": 2183,
      "Ġaudio": 2184,
      "db": 2185,
      "tain": 2186,
      "Ġwere": 2187,
      "Ġdog": 2188,
      "Ġvi": 2189,
      "Ġscript": 2190,
      "Ġquick": 2191,
      "2018": 2192,
      "Ġaccount": 2193,
      "Ġturns": 2194,
      "Ġidea": 2195,
      "ah": 2196,
      "cc": 2197,
      "do": 2198,
      "utes": 2199,
      "Ġ18": 2200,
      "Ġlearned": 2201,
      "link": 2202,
      "mit": 2203,
      "pm": 2204,
      "po": 2205,
      "Ġfour": 2206,
      "Ġhor": 2207,
      "Ġdock": 2208,
      "Ġlarg": 2209,
      "Ġquality": 2210,
      "Ġcrash": 2211,
      "Ġconsum": 2212,
      "Ġfeedback": 2213,
      "Ġtarget": 2214,
      "Ġcrisis": 2215,
      "Ġ.": 2216,
      "Ġfine": 2217,
      "Ġpal": 2218,
      "Ġmass": 2219,
      "Ġinstall": 2220,
      "Ġslow": 2221,
      "Ġgrowth": 2222,
      "ints": 2223,
      "Ġpot": 2224,
      "Ġinformation": 2225,
      "asp": 2226,
      "ival": 2227,
      "ination": 2228,
      "Ġtar": 2229,
      "Ġhot": 2230,
      "berg": 2231,
      "prise": 2232,
      "Ġeconomy": 2233,
      "Ġrussian": 2234,
      "Ġlinked": 2235,
      "Ġissues": 2236,
      "ield": 2237,
      "Ġdifferent": 2238,
      "Ġapproach": 2239,
      "bre": 2240,
      "lines": 2241,
      "mon": 2242,
      "Ġlic": 2243,
      "Ġtrade": 2244,
      "Ġfinanc": 2245,
      "Ġcompiler": 2246,
      "Ġvirtual": 2247,
      "base": 2248,
      "Ġads": 2249,
      "ora": 2250,
      "ene": 2251,
      "Ġmen": 2252,
      "Ġansw": 2253,
      "Ġcontin": 2254,
      "Ġinvestig": 2255,
      "Ġsynth": 2256,
      "Ġteams": 2257,
      "ores": 2258,
      "sm": 2259,
      "Ġchips": 2260,
      "Ġconc": 2261,
      "Ġbeg": 2262,
      "Ġcreating": 2263,
      "Ġcommon": 2264,
      "Ġmarkdown": 2265,
      "weight": 2266,
      "Ġavoid": 2267,
      "Ġreasoning": 2268,
      "Ġautonomous": 2269,
      "house": 2270,
      "onds": 2271,
      "Ġmig": 2272,
      "icles": 2273,
      "Ġshe": 2274,
      "Ġeveryone": 2275,
      "Ġbattery": 2276,
      "Ġbur": 2277,
      "acter": 2278,
      "dev": 2279,
      "amp": 2280,
      "Ġscam": 2281,
      "Ġgeneral": 2282,
      "Ġcreated": 2283,
      "Ġefficient": 2284,
      "no": 2285,
      "Ġcoun": 2286,
      "Ġwhite": 2287,
      "Ġneural": 2288,
      "Ġcore": 2289,
      "Ġclick": 2290,
      "Ġ15": 2291,
      "Ġ16": 2292,
      "Ġspacex": 2293,
      "Ġdistribut": 2294,
      "Ġlooking": 2295,
      "100": 2296,
      "bon": 2297,
      "ders": 2298,
      "Ġest": 2299,
      "Ġsent": 2300,
      "aries": 2301,
      "rove": 2302,
      "etry": 2303,
      "uth": 2304,
      "ibility": 2305,
      "Ġminimal": 2306,
      "ossible": 2307,
      "Ġpostgresql": 2308,
      "Ġannounces": 2309,
      "ana": 2310,
      "Ġduring": 2311,
      "antic": 2312,
      "Ġcancer": 2313,
      "Ġcurs": 2314,
      "Ġlessons": 2315,
      "Ġcritical": 2316,
      "Ġpodcast": 2317,
      "aff": 2318,
      "kit": 2319,
      "Ġaround": 2320,
      "Ġcpu": 2321,
      "red": 2322,
      "lete": 2323,
      "eline": 2324,
      "emb": 2325,
      "ries": 2326,
      "uber": 2327,
      "Ġpowered": 2328,
      "Ġfoundation": 2329,
      "Ġbecom": 2330,
      "30": 2331,
      "ees": 2332,
      "ars": 2333,
      "Ġvector": 2334,
      "Ġcogn": 2335,
      "Ġuses": 2336,
      "ctions": 2337,
      "Ġnode": 2338,
      "Ġthinking": 2339,
      "Ġpackage": 2340,
      "':": 2341,
      "nov": 2342,
      "Ġaff": 2343,
      "Ġtaking": 2344,
      "Ġcss": 2345,
      "Ġhad": 2346,
      "icle": 2347,
      "Ġve": 2348,
      "irc": 2349,
      "Ġemerg": 2350,
      "Ġ25": 2351,
      "Ġjava": 2352,
      "Ġideas": 2353,
      "hosted": 2354,
      "Ġaltman": 2355,
      "ners": 2356,
      "Ġice": 2357,
      "Ġsun": 2358,
      "Ġmist": 2359,
      "Ġop": 2360,
      "Ġtow": 2361,
      "Ġanim": 2362,
      "une": 2363,
      "Ġprice": 2364,
      "Ġlanguages": 2365,
      "Ġstrategy": 2366,
      "Ġevalu": 2367,
      "most": 2368,
      "Ġfav": 2369,
      "Ġfood": 2370,
      "ste": 2371,
      "Ġreach": 2372,
      "omm": 2373,
      "Ġflight": 2374,
      "ather": 2375,
      "2017": 2376,
      "Ġsubs": 2377,
      "Ġschem": 2378,
      "Ġclaims": 2379,
      "ven": 2380,
      "Ġsus": 2381,
      "ends": 2382,
      "Ġwell": 2383,
      "Ġcook": 2384,
      "abilities": 2385,
      "Ġjson": 2386,
      "ials": 2387,
      "claw": 2388,
      "Ġneeds": 2389,
      "Ġnetworks": 2390,
      "Ġreveal": 2391,
      "Ġphysics": 2392,
      "idden": 2393,
      "Ġlawsuit": 2394,
      "dd": 2395,
      "xy": 2396,
      "Ġcard": 2397,
      "Ġpix": 2398,
      "edia": 2399,
      "Ġglass": 2400,
      "Ġmultiple": 2401,
      "Ġpoint": 2402,
      "Ġmonths": 2403,
      "Ġchalleng": 2404,
      "Ġalgorithm": 2405,
      "zy": 2406,
      "Ġsom": 2407,
      "Ġpri": 2408,
      "esis": 2409,
      "anger": 2410,
      "Ġnote": 2411,
      "Ġdevices": 2412,
      "Ġtex": 2413,
      "Ġdrive": 2414,
      "Ġeuropean": 2415,
      "Ġrussia": 2416,
      "Ġtypescript": 2417,
      "Ġlargest": 2418,
      "Ġtv": 2419,
      "Ġbir": 2420,
      "Ġgold": 2421,
      "Ġyet": 2422,
      "ung": 2423,
      "Ġkids": 2424,
      "Ġorder": 2425,
      "Ġcommand": 2426,
      "ission": 2427,
      "Ġbreach": 2428,
      "Ġcenter": 2429,
      "Ġreddit": 2430,
      "Ġcosts": 2431,
      "Ġauthor": 2432,
      "ollow": 2433,
      "Ġsqlite": 2434,
      "Ġnumber": 2435,
      "Ġhours": 2436,
      "pass": 2437,
      "Ġfoc": 2438,
      "Ġwall": 2439,
      "Ġmor": 2440,
      "Ġbra": 2441,
      "Ġbrit": 2442,
      "aves": 2443,
      "Ġboot": 2444,
      "attle": 2445,
      "Ġaddress": 2446,
      "Ġlightweight": 2447,
      "ians": 2448,
      "enge": 2449,
      "Ġpur": 2450,
      "Ġmech": 2451,
      "Ġloss": 2452,
      "Ġut": 2453,
      "2014": 2454,
      "Ġobserv": 2455,
      "Ġprompts": 2456,
      "Ġfiref": 2457,
      "Ġscaling": 2458,
      "Ġancient": 2459,
      "Ġsens": 2460,
      "Ġfounder": 2461,
      "icing": 2462,
      "Ġnational": 2463,
      "Ġwhile": 2464,
      "Ġsafe": 2465,
      "Ġintroduction": 2466,
      "Ġdocker": 2467,
      "25": 2468,
      "ring": 2469,
      "self": 2470,
      "Ġic": 2471,
      "Ġpos": 2472,
      "Ġdest": 2473,
      "unk": 2474,
      "Ġscan": 2475,
      "Ġsecond": 2476,
      "Ġtravel": 2477,
      "Ġevent": 2478,
      "Ġevolution": 2479,
      "berry": 2480,
      "Ġautomation": 2481,
      "cent": 2482,
      "Ġill": 2483,
      "Ġshell": 2484,
      "ocr": 2485,
      "ope": 2486,
      "Ġworth": 2487,
      "Ġimport": 2488,
      "Ġphotos": 2489,
      "Ġdomain": 2490,
      "Ġstandard": 2491,
      "Ġcursor": 2492,
      "embly": 2493,
      "iant": 2494,
      "tics": 2495,
      "Ġfive": 2496,
      "Ġden": 2497,
      "Ġdash": 2498,
      "Ġdue": 2499,
      "2025": 2500,
      "Ġproducts": 2501,
      "Ġdebug": 2502,
      "Ġthoughts": 2503,
      "Ġlatest": 2504,
      "Ġemployees": 2505,
      "reg": 2506,
      "Ġlock": 2507,
      "Ġnan": 2508,
      "Ġstre": 2509,
      "Ġ14": 2510,
      "Ġlapt": 2511,
      "Ġrecor": 2512,
      "Ġremov": 2513,
      "Ġswift": 2514,
      "Ġdiscovery": 2515,
      "Ġmilit": 2516,
      "Ġchildren": 2517,
      "eing": 2518,
      "side": 2519,
      "Ġcirc": 2520,
      "Ġpuzz": 2521,
      "Ġdream": 2522,
      "Ġprob": 2523,
      "Ġexam": 2524,
      "Ġcompon": 2525,
      "Ġdevice": 2526,
      "Ġminutes": 2527,
      "Ġcars": 2528,
      "Ġpredict": 2529,
      "bsd": 2530,
      "driven": 2531,
      "Ġscratch": 2532,
      "li": 2533,
      "Ġsd": 2534,
      "Ġsin": 2535,
      "ories": 2536,
      "Ġey": 2537,
      "Ġstates": 2538,
      "agent": 2539,
      "aps": 2540,
      "Ġruns": 2541,
      "ological": 2542,
      "Ġbillion": 2543,
      "Ġanti": 2544,
      "Ġjournal": 2545,
      "ground": 2546,
      "xic": 2547,
      "ych": 2548,
      "Ġtakes": 2549,
      "Ġsle": 2550,
      "Ġmust": 2551,
      "aly": 2552,
      "raine": 2553,
      "Ġprovid": 2554,
      "Ġcompl": 2555,
      "pens": 2556,
      "Ġtraffic": 2557,
      "Ġadvanced": 2558,
      "Ġhyper": 2559,
      "Ġattacks": 2560,
      "Ġstreaming": 2561,
      "Ġsurvey": 2562,
      "Ġpolicy": 2563,
      "Ġmathemat": 2564,
      "Ġmechan": 2565,
      "11": 2566,
      "word": 2567,
      "ining": 2568,
      "Ġmind": 2569,
      "Ġher": 2570,
      "itter": 2571,
      "Ġloo": 2572,
      "Ġii": 2573,
      "pper": 2574,
      "Ġsug": 2575,
      "Ġmean": 2576,
      "Ġrecomm": 2577,
      "Ġcomputers": 2578,
      "Ġrobots": 2579,
      "Ġproductivity": 2580,
      "Ġreplace": 2581,
      "Ġwebsites": 2582,
      "Ġdetection": 2583,
      "Ġenvironment": 2584,
      "Ġdistributed": 2585,
      "cr": 2586,
      "not": 2587,
      "Ġaction": 2588,
      "asks": 2589,
      "Ġhackers": 2590,
      "Ġtracker": 2591,
      "Ġmachines": 2592,
      "Ġexperiment": 2593,
      "apt": 2594,
      "Ġten": 2595,
      "stack": 2596,
      "agn": 2597,
      "ford": 2598,
      "Ġinterface": 2599,
      "Ġsimpl": 2600,
      "Ġmini": 2601,
      "cription": 2602,
      "Ġukraine": 2603,
      "Ġreplac": 2604,
      "Ġmissing": 2605,
      "Ġastron": 2606,
      "Ġexecut": 2607,
      "Ġquestions": 2608,
      "ography": 2609,
      "Ġhalf": 2610,
      "Ġtarif": 2611,
      "bi": 2612,
      "mers": 2613,
      "Ġaway": 2614,
      "Ġdies": 2615,
      "Ġshad": 2616,
      "Ġenough": 2617,
      "Ġrout": 2618,
      "Ġimprove": 2619,
      "Ġboom": 2620,
      "light": 2621,
      "ta": 2622,
      "Ġcrow": 2623,
      "Ġwal": 2624,
      "Ġhidden": 2625,
      "Ġtoken": 2626,
      "ember": 2627,
      "andom": 2628,
      "izer": 2629,
      "Ġphil": 2630,
      "Ġevidence": 2631,
      "Ġreality": 2632,
      "Ġamericans": 2633,
      "Ġlegal": 2634,
      "Ġanalytics": 2635,
      "ique": 2636,
      "Ġsouth": 2637,
      "64": 2638,
      "pired": 2639,
      "Ġeth": 2640,
      "Ġrace": 2641,
      "uses": 2642,
      "Ġexist": 2643,
      "Ġkore": 2644,
      "Ġrob": 2645,
      "Ġadmin": 2646,
      "ored": 2647,
      "Ġreverse": 2648,
      "ression": 2649,
      "Ġbecame": 2650,
      "Ġlonger": 2651,
      "Ġelectron": 2652,
      "Ġrender": 2653,
      "Ġapplication": 2654,
      "Ġnearly": 2655,
      "Ġfinancial": 2656,
      "over": 2657,
      "Ġinnov": 2658,
      "Ġnob": 2659,
      "Ġdepend": 2660,
      "Ġusage": 2661,
      "apers": 2662,
      "Ġflow": 2663,
      "Ġdrone": 2664,
      "Ġtransl": 2665,
      "Ġmonitoring": 2666,
      "Ġmilitary": 2667,
      "ause": 2668,
      "ead": 2669,
      "ged": 2670,
      "ij": 2671,
      "Ġfly": 2672,
      "Ġfollow": 2673,
      "Ġhall": 2674,
      "Ġ13": 2675,
      "Ġ17": 2676,
      "Ġarg": 2677,
      "Ġcarbon": 2678,
      "Ġuniversal": 2679,
      "Ġthought": 2680,
      "Ġnorth": 2681,
      "Ġllama": 2682,
      "Ġcanada": 2683,
      "Ġpsych": 2684,
      "pace": 2685,
      "ined": 2686,
      "Ġmit": 2687,
      "Ġmatter": 2688,
      "isco": 2689,
      "ruction": 2690,
      "Ġsurv": 2691,
      "ifying": 2692,
      "rated": 2693,
      "rest": 2694,
      "org": 2695,
      "Ġyork": 2696,
      "Ġkuber": 2697,
      "Ġ24": 2698,
      "2015": 2699,
      "netes": 2700,
      "Ġreading": 2701,
      "Ġhttp": 2702,
      "Ġinflu": 2703,
      "Ġ200": 2704,
      "Ġtor": 2705,
      "Ġmer": 2706,
      "Ġmat": 2707,
      "Ġrew": 2708,
      "chain": 2709,
      "Ġopenclaw": 2710,
      "dings": 2711,
      "Ġupgra": 2712,
      "Ġbeta": 2713,
      "Ġboeing": 2714,
      "Ġexploring": 2715,
      "Ġoptimization": 2716,
      "aspberry": 2717,
      "Ġkubernetes": 2718,
      "sl": 2719,
      "Ġaust": 2720,
      "ata": 2721,
      "iles": 2722,
      "Ġraspberry": 2723,
      "Ġunl": 2724,
      "Ġsym": 2725,
      "Ġgoes": 2726,
      "Ġrails": 2727,
      "Ġmax": 2728,
      "Ġsupply": 2729,
      "ference": 2730,
      "Ġchallenge": 2731,
      "fect": 2732,
      "key": 2733,
      "oj": 2734,
      "Ġfew": 2735,
      "isp": 2736,
      "Ġstatic": 2737,
      "Ġchain": 2738,
      "umb": 2739,
      "Ġunve": 2740,
      "Ġrole": 2741,
      "Ġprices": 2742,
      "Ġseries": 2743,
      "Ġtrading": 2744,
      "Ġcollection": 2745,
      "Ġprogress": 2746,
      "cont": 2747,
      "Ġvalid": 2748,
      "Ġvalley": 2749,
      "Ġsignal": 2750,
      "Ġspeech": 2751,
      "Ġdynamic": 2752,
      "rets": 2753,
      "Ġdiv": 2754,
      "Ġcome": 2755,
      "Ġpricing": 2756,
      "Ġstudents": 2757,
      "Ġinstead": 2758,
      "Ġcapital": 2759,
      "Ġlimit": 2760,
      "Ġfirm": 2761,
      "Ġveh": 2762,
      "Ġfirefox": 2763,
      "ban": 2764,
      "so": 2765,
      "Ġtasks": 2766,
      "Ġpast": 2767,
      "arm": 2768,
      "Ġgn": 2769,
      "Ġnight": 2770,
      "Ġrich": 2771,
      "place": 2772,
      "Ġresults": 2773,
      "Ġdownload": 2774,
      "Ġarchive": 2775,
      "ync": 2776,
      "Ġcustomer": 2777,
      "Ġupdates": 2778,
      "head": 2779,
      "Ġimplementation": 2780,
      "Ġsatellite": 2781,
      "Ġenterprise": 2782,
      "Ġtable": 2783,
      "Ġfac": 2784,
      "Ġdu": 2785,
      "Ġdou": 2786,
      "ively": 2787,
      "Ġquery": 2788,
      "Ġtele": 2789,
      "Ġsolution": 2790,
      "Ġwarns": 2791,
      "Ġeduc": 2792,
      "Ġsoon": 2793,
      "Ġcrack": 2794,
      "Ġservers": 2795,
      "Ġmoving": 2796,
      "Ġlayer": 2797,
      "24": 2798,
      "ode": 2799,
      "Ġsame": 2800,
      "Ġsound": 2801,
      "Ġfa": 2802,
      "Ġmater": 2803,
      "Ġgas": 2804,
      "uning": 2805,
      "ession": 2806,
      "Ġenh": 2807,
      "Ġscre": 2808,
      "Ġmanage": 2809,
      "ugg": 2810,
      "2016": 2811,
      "ashing": 2812,
      "auth": 2813,
      "Ġnavig": 2814,
      "Ġjudge": 2815,
      "Ġcognitive": 2816,
      "Ġcit": 2817,
      "Ġple": 2818,
      "Ġmid": 2819,
      "Ġdam": 2820,
      "alle": 2821,
      "level": 2822,
      "Ġcho": 2823,
      "Ġcool": 2824,
      "Ġreleases": 2825,
      "Ġreturn": 2826,
      "Ġidentity": 2827,
      "cal": 2828,
      "Ġbri": 2829,
      "Ġliving": 2830,
      "Ġgive": 2831,
      "iling": 2832,
      "Ġship": 2833,
      "Ġproof": 2834,
      "Ġalmost": 2835,
      "duct": 2836,
      "Ġrepos": 2837,
      "flix": 2838,
      "Ġfunding": 2839,
      "Ġcustomers": 2840,
      "Ġwordpress": 2841,
      "Ġculture": 2842,
      "Ġcamera": 2843,
      "12": 2844,
      "86": 2845,
      "map": 2846,
      "ove": 2847,
      "ening": 2848,
      "Ġwire": 2849,
      "Ġmatch": 2850,
      "Ġoil": 2851,
      "oms": 2852,
      "Ġplant": 2853,
      "Ġaren": 2854,
      "Ġsecrets": 2855,
      "Ġprep": 2856,
      "Ġedge": 2857,
      "Ġedition": 2858,
      "Ġstudio": 2859,
      "Ġautomated": 2860,
      "Ġnumbers": 2861,
      "Ġradio": 2862,
      "Ġcalculator": 2863,
      "Ġpotential": 2864,
      "bble": 2865,
      "fact": 2866,
      "ways": 2867,
      "Ġess": 2868,
      "Ġtren": 2869,
      "Ġbattle": 2870,
      "Ġthing": 2871,
      "Ġgpus": 2872,
      "Ġsharing": 2873,
      "ears": 2874,
      "2013": 2875,
      "Ġfeel": 2876,
      "Ġpowerful": 2877,
      "Ġpolice": 2878,
      "Ġvalue": 2879,
      "marks": 2880,
      "Ġfavor": 2881,
      "stein": 2882,
      "Ġsleep": 2883,
      "16": 2884,
      "ney": 2885,
      "Ġbal": 2886,
      "Ġthen": 2887,
      "arter": 2888,
      "omb": 2889,
      "rael": 2890,
      "ived": 2891,
      "Ġyoung": 2892,
      "Ġconcer": 2893,
      "astic": 2894,
      "Ġcodex": 2895,
      "Ġlines": 2896,
      "Ġoffline": 2897,
      "Ġreports": 2898,
      "Ġstarted": 2899,
      "Ġmedical": 2900,
      "Ġkeyboard": 2901,
      "Ġfranc": 2902,
      "Ġplugin": 2903,
      "Ġchallenges": 2904,
      "ga": 2905,
      "ges": 2906,
      "tech": 2907,
      "uff": 2908,
      "Ġ&": 2909,
      "Ġrom": 2910,
      "Ġfra": 2911,
      "Ġmaker": 2912,
      "Ġtok": 2913,
      "style": 2914,
      "Ġnix": 2915,
      "Ġrandom": 2916,
      "through": 2917,
      "akers": 2918,
      "ounts": 2919,
      "Ġseconds": 2920,
      "Ġprevent": 2921,
      "Ġdriver": 2922,
      "Ġready": 2923,
      "Ġdemand": 2924,
      "Ġbehav": 2925,
      "Ġconfig": 2926,
      "Ġmaps": 2927,
      "Ġfederal": 2928,
      "Ġnatural": 2929,
      "ris": 2930,
      "vm": 2931,
      "Ġram": 2932,
      "ina": 2933,
      "Ġfig": 2934,
      "Ġfoot": 2935,
      "Ġhits": 2936,
      "Ġhiring": 2937,
      "Ġbid": 2938,
      "Ġstable": 2939,
      "Ġonce": 2940,
      "ogn": 2941,
      "Ġsea": 2942,
      "Ġraises": 2943,
      "Ġposts": 2944,
      "ements": 2945,
      "Ġexpect": 2946,
      "Ġfounders": 2947,
      "Ġdocs": 2948,
      "Ġdebt": 2949,
      "Ġfacebook": 2950,
      "Ġvulnerability": 2951,
      "Ġencryption": 2952,
      "Ġsandbox": 2953,
      "Ġbirth": 2954,
      "80": 2955,
      "bm": 2956,
      "her": 2957,
      "Ġtask": 2958,
      "Ġcra": 2959,
      "oud": 2960,
      "Ġname": 2961,
      "osystem": 2962,
      "abor": 2963,
      "ured": 2964,
      "Ġadopt": 2965,
      "phones": 2966,
      "Ġflo": 2967,
      "ief": 2968,
      "Ġturning": 2969,
      "Ġbecause": 2970,
      "Ġscientific": 2971,
      "Ġdemo": 2972,
      "Ġdiscovered": 2973,
      "Ġcuts": 2974,
      "brid": 2975,
      "Ġmagic": 2976,
      "Ġwomen": 2977,
      "Ġrecommend": 2978,
      "gl": 2979,
      "ios": 2980,
      "Ġfaces": 2981,
      "Ġwa": 2982,
      "Ġbab": 2983,
      "arch": 2984,
      "Ġvp": 2985,
      "Ġtry": 2986,
      "fort": 2987,
      "inking": 2988,
      "Ġnetflix": 2989,
      "Ġobject": 2990,
      "Ġletter": 2991,
      "Ġverification": 2992,
      "Ġphoto": 2993,
      "ollar": 2994,
      "Ġcopyright": 2995,
      "gress": 2996,
      "sec": 2997,
      "Ġpress": 2998,
      "Ġpull": 2999,
      "Ġhub": 3000,
      "using": 3001,
      "Ġtruth": 3002,
      "Ġlinks": 3003,
      "Ġbreaking": 3004,
      "Ġadvent": 3005,
      "Ġerror": 3006,
      "Ġlimits": 3007,
      "Ġecosystem": 3008,
      "allel": 3009,
      "32": 3010,
      "list": 3011,
      "rist": 3012,
      "Ġcs": 3013,
      "rep": 3014,
      "Ġwild": 3015,
      "Ġmast": 3016,
      "Ġele": 3017,
      "Ġforce": 3018,
      "Ġmove": 3019,
      "Ġapprov": 3020,
      "ipedia": 3021,
      "Ġworkflow": 3022,
      "Ġsequ": 3023,
      "Ġextract": 3024,
      "Ġvalu": 3025,
      "Ġrisks": 3026,
      "Ġsched": 3027,
      "Ġmarketing": 3028,
      "Ġdidn": 3029,
      "Ġbroad": 3030,
      "Ġintegration": 3031,
      "Ġpopular": 3032,
      "Ġlaptop": 3033,
      "Ġsince": 3034,
      "iet": 3035,
      "Ġtut": 3036,
      "Ġtail": 3037,
      "Ġpapers": 3038,
      "Ġmom": 3039,
      "Ġmatt": 3040,
      "Ġthread": 3041,
      "Ġincl": 3042,
      "amb": 3043,
      "Ġrule": 3044,
      "Ġemulator": 3045,
      "issions": 3046,
      "Ġpoly": 3047,
      "Ġactions": 3048,
      "Ġgrok": 3049,
      "Ġconfir": 3050,
      "Ġuniverse": 3051,
      "Ġmillion": 3052,
      "pers": 3053,
      "ters": 3054,
      "Ġtro": 3055,
      "Ġcatch": 3056,
      "edly": 3057,
      "Ġstaff": 3058,
      "Ġisrael": 3059,
      "Ġchem": 3060,
      "Ġtrial": 3061,
      "Ġwhats": 3062,
      "offs": 3063,
      "Ġinterest": 3064,
      "Ġflu": 3065,
      "Ġruntime": 3066,
      "text": 3067,
      "Ġparad": 3068,
      "Ġgaming": 3069,
      "Ġdefense": 3070,
      "Ġmalware": 3071,
      "Ġpixel": 3072,
      "su": 3073,
      "Ġpatch": 3074,
      "Ġdns": 3075,
      "Ġgal": 3076,
      "ership": 3077,
      "Ġvacc": 3078,
      "Ġrate": 3079,
      "Ġcomplete": 3080,
      "Ġdoing": 3081,
      "Ġmyth": 3082,
      "Ġrare": 3083,
      "Ġhelps": 3084,
      "Ġcurrent": 3085,
      "scale": 3086,
      "Ġsnap": 3087,
      "Ġbroken": 3088,
      "Ġcollabor": 3089,
      "Ġexecution": 3090,
      "ether": 3091,
      "ething": 3092,
      "Ġultra": 3093,
      "Ġviol": 3094,
      "Ġtexas": 3095,
      "Ġstreet": 3096,
      "aur": 3097,
      "rum": 3098,
      "Ġaw": 3099,
      "Ġcert": 3100,
      "Ġmental": 3101,
      "Ġbase": 3102,
      "Ġgar": 3103,
      "Ġghost": 3104,
      "Ġagi": 3105,
      "plate": 3106,
      "illa": 3107,
      "Ġalleg": 3108,
      "Ġcompar": 3109,
      "apse": 3110,
      "ared": 3111,
      "rones": 3112,
      "ishing": 3113,
      "Ġinstant": 3114,
      "Ġparallel": 3115,
      "Ġcareer": 3116,
      "Ġmethod": 3117,
      "iation": 3118,
      "sa": 3119,
      "work": 3120,
      "ĠâĢ": 3121,
      "Ġtreat": 3122,
      "Ġspl": 3123,
      "acle": 3124,
      "Ġcomes": 3125,
      "vert": 3126,
      "Ġtrying": 3127,
      "rial": 3128,
      "Ġprim": 3129,
      "Ġleft": 3130,
      "Ġblue": 3131,
      "Ġblocks": 3132,
      "Ġcollect": 3133,
      "Ġapis": 3134,
      "Ġhacking": 3135,
      "Ġsteam": 3136,
      "Ġmission": 3137,
      "Ġcheap": 3138,
      "Ġissue": 3139,
      "Ġfraud": 3140,
      "40": 3141,
      "hing": 3142,
      "lang": 3143,
      "rust": 3144,
      "Ġsav": 3145,
      "Ġfit": 3146,
      "Ġwalk": 3147,
      "Ġhell": 3148,
      "Ġthird": 3149,
      "Ġdj": 3150,
      "Ġinject": 3151,
      "icks": 3152,
      "ray": 3153,
      "Ġstyle": 3154,
      "ably": 3155,
      "Ġweap": 3156,
      "Ġspy": 3157,
      "Ġnovel": 3158,
      "odal": 3159,
      "Ġperfect": 3160,
      "Ġsimul": 3161,
      "Ġdetail": 3162,
      "Ġprocessing": 3163,
      "Ġwhatsapp": 3164,
      "bol": 3165,
      "come": 3166,
      "fri": 3167,
      "lab": 3168,
      "sing": 3169,
      "Ġciv": 3170,
      "atives": 3171,
      "Ġpick": 3172,
      "Ġdna": 3173,
      "Ġdrones": 3174,
      "Ġef": 3175,
      "Ġchess": 3176,
      "ife": 3177,
      "Ġdevs": 3178,
      "Ġamid": 3179,
      "Ġcommit": 3180,
      "Ġcompute": 3181,
      "Ġsolve": 3182,
      "Ġrisc": 3183,
      "Ġinvestors": 3184,
      "Ġpropos": 3185,
      "Ġsurveill": 3186,
      "Ġlittle": 3187,
      "Ġpatterns": 3188,
      "Ġtariffs": 3189,
      "ball": 3190,
      "gu": 3191,
      "Ġssh": 3192,
      "Ġfuel": 3193,
      "atory": 3194,
      "ster": 3195,
      "Ġub": 3196,
      "verage": 3197,
      "ume": 3198,
      "open": 3199,
      "api": 3200,
      "Ġbuilder": 3201,
      "Ġblues": 3202,
      "Ġdisrupt": 3203,
      "Ġgod": 3204,
      "Ġoutage": 3205,
      "Ġbox": 3206,
      "Ġmarkets": 3207,
      "Ġattention": 3208,
      "ught": 3209,
      "Ġadvice": 3210,
      "Ġmars": 3211,
      "Ġfailure": 3212,
      "Ġjoh": 3213,
      "Ġjourney": 3214,
      "Ġexplained": 3215,
      "Ġfrancisco": 3216,
      "60": 3217,
      "ha": 3218,
      "iable": 3219,
      "las": 3220,
      "mail": 3221,
      "Ġâ": 3222,
      "Ġtab": 3223,
      "Ġsqu": 3224,
      "acs": 3225,
      "Ġbeaut": 3226,
      "Ġalph": 3227,
      "Ġspread": 3228,
      "Ġdoom": 3229,
      "Ġheat": 3230,
      "Ġcolle": 3231,
      "Ġfinding": 3232,
      "comp": 3233,
      "Ġchanging": 3234,
      "Ġbegin": 3235,
      "Ġsomething": 3236,
      "mp": 3237,
      "Ġweight": 3238,
      "Ġformer": 3239,
      "Ġcybers": 3240,
      "Ġcells": 3241,
      "Ġfamily": 3242,
      "Ġmystery": 3243,
      "Ġrocket": 3244,
      "Ġpolitical": 3245,
      "Ġunveils": 3246,
      "Ġsurveillance": 3247,
      "99": 3248,
      "cs": 3249,
      "cle": 3250,
      "native": 3251,
      "ont": 3252,
      "Ġpen": 3253,
      "Ġthese": 3254,
      "Ġrt": 3255,
      "Ġcovid": 3256,
      "ikely": 3257,
      "Ġuseful": 3258,
      "endly": 3259,
      "Ġactivity": 3260,
      "Ġstarlink": 3261,
      "ready": 3262,
      "Ġprediction": 3263,
      "Ġphysical": 3264,
      "Ġcontainer": 3265,
      "Ġwikipedia": 3266,
      "Ġmigr": 3267,
      "Ġaustral": 3268,
      "Ġtutor": 3269,
      "Ġfusion": 3270,
      "Ġpark": 3271,
      "Ġparen": 3272,
      "Ġpossible": 3273,
      "Ġlot": 3274,
      "Ġga": 3275,
      "Ġgate": 3276,
      "iler": 3277,
      "asing": 3278,
      "Ġvari": 3279,
      "Ġkind": 3280,
      "Ġdise": 3281,
      "Ġcredit": 3282,
      "Ġexplor": 3283,
      "roll": 3284,
      "Ġground": 3285,
      "Ġcorpor": 3286,
      "Ġcharacter": 3287,
      "Ġpatient": 3288,
      "Ġhappened": 3289,
      "Ġscreens": 3290,
      "cd": 3291,
      "fi": 3292,
      "gs": 3293,
      "Ã©": 3294,
      "Ġtree": 3295,
      "Ġsend": 3296,
      "Ġdanger": 3297,
      "eless": 3298,
      "ems": 3299,
      "under": 3300,
      "Ġago": 3301,
      "Ġunited": 3302,
      "Ġdatas": 3303,
      "Ġcontract": 3304,
      "Ġflash": 3305,
      "Ġsimulator": 3306,
      "Ġplanet": 3307,
      "flows": 3308,
      "Ġdeterm": 3309,
      "Ġeffects": 3310,
      "Ġsetup": 3311,
      "Ġgrowing": 3312,
      "Ġauthent": 3313,
      "Ġdocuments": 3314,
      "Ġrespon": 3315,
      "Ġhalluc": 3316,
      "Ġeducation": 3317,
      "Ġbluesky": 3318,
      "ka": 3319,
      "med": 3320,
      "set": 3321,
      "Ġcities": 3322,
      "Ġmi": 3323,
      "Ġang": 3324,
      "Ġgiant": 3325,
      "ecurity": 3326,
      "ota": 3327,
      "cean": 3328,
      "ades": 3329,
      "Ġbubble": 3330,
      "Ġwords": 3331,
      "Ġrecent": 3332,
      "Ġchanged": 3333,
      "Ġdemocr": 3334,
      "Ġcampa": 3335,
      "Ġanalyz": 3336,
      "world": 3337,
      "Ġgermany": 3338,
      "Ġcampaign": 3339,
      "ben": 3340,
      "iety": 3341,
      "yl": 3342,
      "Ġtit": 3343,
      "Ġsites": 3344,
      "Ġwent": 3345,
      "Ġhate": 3346,
      "Ġworse": 3347,
      "istration": 3348,
      "platform": 3349,
      "Ġunt": 3350,
      "Ġorch": 3351,
      "Ġblood": 3352,
      "Ġworkflows": 3353,
      "Ġreven": 3354,
      "comput": 3355,
      "ship": 3356,
      "Ġwasm": 3357,
      "Ġfunctions": 3358,
      "Ġinvestment": 3359,
      "Ġ80": 3360,
      "Ġgrid": 3361,
      "Ġhappens": 3362,
      "Ġcourse": 3363,
      "Ġrequest": 3364,
      "Ġbasic": 3365,
      "Ġbringing": 3366,
      "Ġpuzzle": 3367,
      "Ġtokens": 3368,
      "zen": 3369,
      "Ġcash": 3370,
      "Ġpure": 3371,
      "Ġbul": 3372,
      "Ġled": 3373,
      "Ġlooks": 3374,
      "icious": 3375,
      "Ġstay": 3376,
      "Ġibm": 3377,
      "Ġneu": 3378,
      "osp": 3379,
      "osoph": 3380,
      "Ġbeat": 3381,
      "rix": 3382,
      "Ġplace": 3383,
      "Ġadapt": 3384,
      "Ġque": 3385,
      "Ġresources": 3386,
      "Ġzig": 3387,
      "Ġexpert": 3388,
      "Ġhistor": 3389,
      "198": 3390,
      "Ġsync": 3391,
      "Ġheart": 3392,
      "Ġdiffusion": 3393,
      "Ġbelie": 3394,
      "Ġanswer": 3395,
      "500": 3396,
      "gb": 3397,
      "llm": 3398,
      "Ġpent": 3399,
      "Ġpages": 3400,
      "Ġbody": 3401,
      "Ġther": 3402,
      "Ġanything": 3403,
      "Ġrecover": 3404,
      "utions": 3405,
      "oty": 3406,
      "agon": 3407,
      "empt": 3408,
      "Ġjul": 3409,
      "Ġscrap": 3410,
      "ipe": 3411,
      "Ġacade": 3412,
      "Ġseek": 3413,
      "Ġgenerated": 3414,
      "Ġafric": 3415,
      "2012": 3416,
      "Ġaccur": 3417,
      "Ġaccounts": 3418,
      "Ġindian": 3419,
      "rict": 3420,
      "Ġinsights": 3421,
      "Ġtwitter": 3422,
      "ribution": 3423,
      "Ġprofit": 3424,
      "Ġoperating": 3425,
      "Ġjapanese": 3426,
      "Ġvulnerabilities": 3427,
      "Ġtalks": 3428,
      "Ġlicense": 3429,
      "Ġdashboard": 3430,
      "Ġsdk": 3431,
      "Ġcivil": 3432,
      "ipp": 3433,
      "iance": 3434,
      "my": 3435,
      "Ġaz": 3436,
      "Ġtick": 3437,
      "Ġwel": 3438,
      "Ġmail": 3439,
      "Ġhous": 3440,
      "Ġrank": 3441,
      "rie": 3442,
      "Ġcreator": 3443,
      "Ġdriving": 3444,
      "Ġstarting": 3445,
      "Ġmultim": 3446,
      "Ġbrid": 3447,
      "Ġcalend": 3448,
      "Ġcause": 3449,
      "Ġformat": 3450,
      "Ġcenters": 3451,
      "Ġcentury": 3452,
      "Ġrequire": 3453,
      "Ġcollapse": 3454,
      "Ġquestion": 3455,
      "Ġsemantic": 3456,
      "Ġmaintain": 3457,
      "Ġbrief": 3458,
      "Ġfavorite": 3459,
      "70": 3460,
      "dition": 3461,
      "eks": 3462,
      "ne": 3463,
      "pi": 3464,
      "ua": 3465,
      "Ġach": 3466,
      "Ġtips": 3467,
      "Ġfren": 3468,
      "Ġpir": 3469,
      "Ġda": 3470,
      "Ġdb": 3471,
      "Ġlisp": 3472,
      "Ġrein": 3473,
      "Ġproper": 3474,
      "Ġbud": 3475,
      "Ġblu": 3476,
      "Ġ26": 3477,
      "Ġenglish": 3478,
      "Ġevol": 3479,
      "Ġsimulation": 3480,
      "Ġfastest": 3481,
      "Ġfinal": 3482,
      "Ġretur": 3483,
      "Ġpartners": 3484,
      "Ġreviews": 3485,
      "Ġdeliv": 3486,
      "Ġmessages": 3487,
      "iddle": 3488,
      "Ġpractical": 3489,
      "Ġfrontier": 3490,
      "buil": 3491,
      "Ġtowards": 3492,
      "Ġphilosoph": 3493,
      "Ġproposal": 3494,
      "tor": 3495,
      "Ġson": 3496,
      "Ġswe": 3497,
      "Ġsize": 3498,
      "Ġduck": 3499,
      "Ġdraw": 3500,
      "Ġsto": 3501,
      "urance": 3502,
      "ads": 3503,
      "Ġsues": 3504,
      "Ġadds": 3505,
      "assembly": 3506,
      "Ġoffer": 3507,
      "Ġinvent": 3508,
      "Ġdefault": 3509,
      "Ġobs": 3510,
      "Ġlabor": 3511,
      "Ġeconomic": 3512,
      "Ġbreakthrough": 3513,
      "Ġmessage": 3514,
      "Ġbenchmarks": 3515,
      "Ġinternational": 3516,
      "Ġmeasure": 3517,
      "craft": 3518,
      "got": 3519,
      "Ġax": 3520,
      "eries": 3521,
      "Ġci": 3522,
      "Ġfoss": 3523,
      "Ġfield": 3524,
      "Ġpg": 3525,
      "Ġpin": 3526,
      "Ġwave": 3527,
      "Ġdive": 3528,
      "Ġoss": 3529,
      "Ġlake": 3530,
      "Ġlond": 3531,
      "ica": 3532,
      "Ġnames": 3533,
      "Ġnpm": 3534,
      "aml": 3535,
      "osure": 3536,
      "Ġroll": 3537,
      "Ġemp": 3538,
      "Ġseo": 3539,
      "Ġphones": 3540,
      "Ġallow": 3541,
      "Ġsold": 3542,
      "Ġbrings": 3543,
      "Ġconsider": 3544,
      "Ġexperts": 3545,
      "Ġplatforms": 3546,
      "Ġsky": 3547,
      "Ġincident": 3548,
      "Ġsummar": 3549,
      "Ġbinary": 3550,
      "Ġlinkedin": 3551,
      "Ġaffect": 3552,
      "Ġdestro": 3553,
      "Ġcomponents": 3554,
      "Ġresponse": 3555,
      "fe": 3556,
      "sql": 3557,
      "saf": 3558,
      "Ġ#": 3559,
      "Ġclear": 3560,
      "Ġopp": 3561,
      "Ġunix": 3562,
      "izes": 3563,
      "Ġpoll": 3564,
      "Ġdesigning": 3565,
      "Ġinstagram": 3566,
      "Ġparam": 3567,
      "Ġfilter": 3568,
      "Ġbenef": 3569,
      "Ġharv": 3570,
      "Ġlabs": 3571,
      "Ġintroducing": 3572,
      "Ġforecast": 3573,
      "Ġprinci": 3574,
      "Ġorigin": 3575,
      "Ġrespons": 3576,
      "Ġbecoming": 3577,
      "Ġrecords": 3578,
      "Ġbehavior": 3579,
      "Ġorchest": 3580,
      "15": 3581,
      "90": 3582,
      "can": 3583,
      "cious": 3584,
      "pc": 3585,
      "vity": 3586,
      "Ġil": 3587,
      "Ġspen": 3588,
      "Ġpet": 3589,
      "Ġways": 3590,
      "Ġhab": 3591,
      "Ġbay": 3592,
      "Ġnature": 3593,
      "Ġshift": 3594,
      "Ġtrue": 3595,
      "istent": 3596,
      "Ġadding": 3597,
      "Ġrap": 3598,
      "Ġoutput": 3599,
      "Ġwars": 3600,
      "Ġstudent": 3601,
      "ances": 3602,
      "intend": 3603,
      "Ġexpress": 3604,
      "Ġplane": 3605,
      "Ġinspired": 3606,
      "oke": 3607,
      "Ġsteal": 3608,
      "Ġfrance": 3609,
      "Ġqw": 3610,
      "Ġgeom": 3611,
      "Ġlayoffs": 3612,
      "Ġesc": 3613,
      "Ġdoge": 3614,
      "Ġlondon": 3615,
      "oom": 3616,
      "esh": 3617,
      "anch": 3618,
      "ister": 3619,
      "Ġgol": 3620,
      "Ġrece": 3621,
      "Ġvent": 3622,
      "Ġconcept": 3623,
      "Ġbuilds": 3624,
      "Ġarr": 3625,
      "Ġdisplay": 3626,
      "Ġflag": 3627,
      "Ġoffers": 3628,
      "Ġpreview": 3629,
      "Ġinfin": 3630,
      "ancing": 3631,
      "Ġsurpr": 3632,
      "plex": 3633,
      "Ġremove": 3634,
      "Ġwhole": 3635,
      "Ġ60": 3636,
      "Ġ70": 3637,
      "Ġhybrid": 3638,
      "Ġkeys": 3639,
      "Ġload": 3640,
      "Ġcountry": 3641,
      "Ġcountries": 3642,
      "Ġwoman": 3643,
      "Ġcontinu": 3644,
      "Ġfocus": 3645,
      "Ġrendering": 3646,
      "Ġvpn": 3647,
      "Ġcybersecurity": 3648,
      "Ġrevenue": 3649,
      "fol": 3650,
      "log": 3651,
      "sd": 3652,
      "wan": 3653,
      "Ġta": 3654,
      "atically": 3655,
      "Ġmaster": 3656,
      "Ġlate": 3657,
      "def": 3658,
      "Ġstrong": 3659,
      "âĢĲ": 3660,
      "Ġproxy": 3661,
      "term": 3662,
      "Ġdepart": 3663,
      "Ġconv": 3664,
      "resh": 3665,
      "Ġemacs": 3666,
      "Ġphp": 3667,
      "Ġcred": 3668,
      "Ġcold": 3669,
      "Ġgui": 3670,
      "Ġturned": 3671,
      "Ġsetting": 3672,
      "Ġemails": 3673,
      "Ġpackages": 3674,
      "Ġcorre": 3675,
      "Ġesp": 3676,
      "Ġreduce": 3677,
      "Ġspotify": 3678,
      "Ġconsumer": 3679,
      "Ġinnovation": 3680,
      "Ġachie": 3681,
      "Ġprinciples": 3682,
      "14": 3683,
      "ĠÂ": 3684,
      "only": 3685,
      "Ġfal": 3686,
      "Ġwins": 3687,
      "Ġdied": 3688,
      "icated": 3689,
      "Ġeg": 3690,
      "chat": 3691,
      "Ġje": 3692,
      "Ġjet": 3693,
      "Ġworst": 3694,
      "Ġcompos": 3695,
      "ounds": 3696,
      "Ġimpl": 3697,
      "Ġprint": 3698,
      "Ġcontribut": 3699,
      "Ġlaunched": 3700,
      "Ġelse": 3701,
      "Ġmovie": 3702,
      "Ġscalable": 3703,
      "Ġpractice": 3704,
      "Ġmillions": 3705,
      "Ġmatters": 3706,
      "Ġcomparison": 3707,
      "founder": 3708,
      "metry": 3709,
      "wall": 3710,
      "Ġtel": 3711,
      "onst": 3712,
      "order": 3713,
      "Ġbird": 3714,
      "arding": 3715,
      "Ġlas": 3716,
      "Ġlater": 3717,
      "ouch": 3718,
      "Ġshop": 3719,
      "ecraft": 3720,
      "Ġvot": 3721,
      "Ġjan": 3722,
      "Ġclock": 3723,
      "Ġroom": 3724,
      "Ġsex": 3725,
      "Ġrecogn": 3726,
      "Ġslop": 3727,
      "Ġfilm": 3728,
      "Ġsignals": 3729,
      "Ġdatabases": 3730,
      "engine": 3731,
      "Ġspecial": 3732,
      "Ġmodular": 3733,
      "Ġalgorithms": 3734,
      "Ġmoment": 3735,
      "Ġdangerous": 3736,
      "ino": 3737,
      "Ġsix": 3738,
      "Ġsale": 3739,
      "esc": 3740,
      "Ġhur": 3741,
      "itions": 3742,
      "Ġbans": 3743,
      "Ġlives": 3744,
      "ications": 3745,
      "Ġnation": 3746,
      "Ġsho": 3747,
      "Ġchief": 3748,
      "idental": 3749,
      "Ġclust": 3750,
      "Ġweeks": 3751,
      "istics": 3752,
      "Ġalign": 3753,
      "ustain": 3754,
      "Ġunre": 3755,
      "Ġarc": 3756,
      "Ġarrest": 3757,
      "ensive": 3758,
      "Ġapache": 3759,
      "encies": 3760,
      "rency": 3761,
      "Ġsurge": 3762,
      "Ġautomatic": 3763,
      "Ġrobotics": 3764,
      "Ġfailed": 3765,
      "Ġprofess": 3766,
      "Ġpresident": 3767,
      "Ġselling": 3768,
      "where": 3769,
      "Ġfriends": 3770,
      "Ġimportant": 3771,
      "Ġloop": 3772,
      "Ġcalendar": 3773,
      "Ġbudget": 3774,
      "intendo": 3775,
      "18": 3776,
      "bra": 3777,
      "hood": 3778,
      "kes": 3779,
      "tal": 3780,
      "wide": 3781,
      "zil": 3782,
      "Ġtai": 3783,
      "Ġcart": 3784,
      "ending": 3785,
      "Ġwashing": 3786,
      "Ġmir": 3787,
      "Ġmiddle": 3788,
      "Ġbots": 3789,
      "Ġder": 3790,
      "Ġocean": 3791,
      "arp": 3792,
      "Ġliqu": 3793,
      "Ġtook": 3794,
      "Ġnintendo": 3795,
      "utter": 3796,
      "Ġyc": 3797,
      "Ġprote": 3798,
      "Ġclose": 3799,
      "apy": 3800,
      "Ġbypass": 3801,
      "Ġnothing": 3802,
      "Ġwebassembly": 3803,
      "Ġseen": 3804,
      "Ġlinear": 3805,
      "2011": 3806,
      "Ġperplex": 3807,
      "ually": 3808,
      "Ġprototy": 3809,
      "Ġplayer": 3810,
      "Ġ90": 3811,
      "Ġlogic": 3812,
      "Ġoptimizing": 3813,
      "Ġlanding": 3814,
      "Ġipo": 3815,
      "Ġencrypted": 3816,
      "untu": 3817,
      "Ġkorea": 3818,
      "Ġmultimodal": 3819,
      "hol": 3820,
      "kn": 3821,
      "pose": 3822,
      "test": 3823,
      "Ġcd": 3824,
      "Ġcand": 3825,
      "Ġball": 3826,
      "Ġlun": 3827,
      "Ġlosing": 3828,
      "Ġinit": 3829,
      "Ġnyc": 3830,
      "Ġchann": 3831,
      "ided": 3832,
      "Ġalways": 3833,
      "Ġdoct": 3834,
      "Ġrepair": 3835,
      "Ġguard": 3836,
      "Ġediting": 3837,
      "Ġconscious": 3838,
      "Ġleader": 3839,
      "Ġrelations": 3840,
      "Ġpassword": 3841,
      "Ġcommunication": 3842,
      "Ġindepend": 3843,
      "Ġbatteries": 3844,
      "Ġoriginal": 3845,
      "Ġconvert": 3846,
      "Ġlevels": 3847,
      "Ġglasses": 3848,
      "Ġcollege": 3849,
      "35": 3850,
      "bar": 3851,
      "ca": 3852,
      "ipping": 3853,
      "rs": 3854,
      "rics": 3855,
      "vas": 3856,
      "Ġflex": 3857,
      "Ġha": 3858,
      "Ġhug": 3859,
      "Ġtom": 3860,
      "imin": 3861,
      "Ġwithin": 3862,
      "Ġcha": 3863,
      "thers": 3864,
      "Ġweird": 3865,
      "Ġtried": 3866,
      "Ġcodebase": 3867,
      "Ġtoolkit": 3868,
      "Ġedit": 3869,
      "Ġexpand": 3870,
      "shot": 3871,
      "Ġactiv": 3872,
      "Ġretro": 3873,
      "Ġretrie": 3874,
      "Ġlocally": 3875,
      "Ġpoor": 3876,
      "print": 3877,
      "Ġcele": 3878,
      "Ġdiagram": 3879,
      "Ġdiagn": 3880,
      "Ġtransformer": 3881,
      "Ġdiscuss": 3882,
      "Ġstructured": 3883,
      "Ġexploit": 3884,
      "Ġpipeline": 3885,
      "Ġconcur": 3886,
      "ev": 3887,
      "iency": 3888,
      "Ġsv": 3889,
      "erv": 3890,
      "Ġwra": 3891,
      "arian": 3892,
      "Ġvan": 3893,
      "Ġchrist": 3894,
      "Ġasync": 3895,
      "Ġcoff": 3896,
      "Ġusb": 3897,
      "Ġclos": 3898,
      "Ġagency": 3899,
      "ourced": 3900,
      "Ġscra": 3901,
      "Ġspac": 3902,
      "Ġgenai": 3903,
      "ups": 3904,
      "Ġray": 3905,
      "Ġdesp": 3906,
      "Ġevents": 3907,
      "2010": 3908,
      "Ġzuck": 3909,
      "Ġhash": 3910,
      "Ġrepo": 3911,
      "Ġdecision": 3912,
      "web": 3913,
      "Ġhigher": 3914,
      "Ġdesigned": 3915,
      "she": 3916,
      "Ġautomate": 3917,
      "Ġalternatives": 3918,
      "Ġstories": 3919,
      "Ġkilling": 3920,
      "Ġclassic": 3921,
      "Ġelectricity": 3922,
      "Ġcompetition": 3923,
      "Ġdocumentation": 3924,
      "Ġchatbots": 3925,
      "Ġcounter": 3926,
      "Ġbrazil": 3927,
      "Ġcorporate": 3928,
      "Ġtaiwan": 3929,
      "'ll": 3930,
      "dro": 3931,
      "ufact": 3932,
      "Ġtag": 3933,
      "Ġtour": 3934,
      "Ġsense": 3935,
      "Ġcens": 3936,
      "enn": 3937,
      "Ġpow": 3938,
      "Ġwear": 3939,
      "Ġdrag": 3940,
      "Ġom": 3941,
      "Ġfork": 3942,
      "Ġrf": 3943,
      "Ġrans": 3944,
      "Ġjail": 3945,
      "Ġunique": 3946,
      "Ġimag": 3947,
      "Ġadm": 3948,
      "ocket": 3949,
      "Ġsolving": 3950,
      "Ġbrand": 3951,
      "Ġlibraries": 3952,
      "Ġvisualization": 3953,
      "Ġharness": 3954,
      "Ġkilled": 3955,
      "Ġimproving": 3956,
      "Ġembedded": 3957,
      "Ġcapture": 3958,
      "Ġsuccessful": 3959,
      "Ġbritish": 3960,
      "Ġadministration": 3961,
      "Ġconcerns": 3962,
      "bench": 3963,
      "Ġspending": 3964,
      "23": 3965,
      "greg": 3966,
      "mal": 3967,
      "more": 3968,
      "ooth": 3969,
      "tax": 3970,
      "Ġahead": 3971,
      "erve": 3972,
      "Ġhim": 3973,
      "Ġhun": 3974,
      "Ġhole": 3975,
      "Ġdone": 3976,
      "Ġok": 3977,
      "Ġoct": 3978,
      "rote": 3979,
      "Ġlov": 3980,
      "lec": 3981,
      "etric": 3982,
      "aming": 3983,
      "Ġrates": 3984,
      "acking": 3985,
      "opol": 3986,
      "plo": 3987,
      "astics": 3988,
      "Ġamong": 3989,
      "Ġinterp": 3990,
      "Ġcreative": 3991,
      "Ġfreebsd": 3992,
      "Ġmuse": 3993,
      "Ġminim": 3994,
      "Ġwarning": 3995,
      "Ġexport": 3996,
      "Ġextre": 3997,
      "Ġhacked": 3998,
      "Ġreader": 3999,
      "Ġentire": 4000,
      "Ġgraphics": 4001,
      "Ġeconomics": 4002,
      "Ġshared": 4003,
      "Ġdirectory": 4004,
      "Ġinterviews": 4005,
      "Ġeffective": 4006,
      "Ġintegr": 4007,
      "Ġstatus": 4008,
      "Ġmalicious": 4009,
      "Ġstripe": 4010,
      "Ġpattern": 4011,
      "Ġobservability": 4012,
      "Ġinjection": 4013,
      "Ġjohn": 4014,
      "Ġdisease": 4015,
      "Ġfrench": 4016,
      "Ġrapid": 4017,
      "Ġdespite": 4018,
      "run": 4019,
      "Ġalex": 4020,
      "Ġsustain": 4021,
      "Ġlar": 4022,
      "Ġlets": 4023,
      "Ġvm": 4024,
      "Ġisland": 4025,
      "Ġrss": 4026,
      "Ġcomments": 4027,
      "Ġcongress": 4028,
      "Ġexpens": 4029,
      "Ġkit": 4030,
      "Ġali": 4031,
      "Ġspect": 4032,
      "Ġmanif": 4033,
      "Ġmanufact": 4034,
      "Ġnoise": 4035,
      "Ġdrivers": 4036,
      "Ġplanning": 4037,
      "Ġregul": 4038,
      "Ġharm": 4039,
      "Ġjoin": 4040,
      "Ġuniversity": 4041,
      "Ġepstein": 4042,
      "onym": 4043,
      "Ġclickhouse": 4044,
      "Ġsubscription": 4045,
      "Ġconfirms": 4046,
      "Ġhallucin": 4047,
      "Ġazure": 4048,
      "care": 4049,
      "sol": 4050,
      "tes": 4051,
      "well": 4052,
      "zilla": 4053,
      "inks": 4054,
      "Ġsources": 4055,
      "Ġwest": 4056,
      "isions": 4057,
      "Ġlower": 4058,
      "Ġtheore": 4059,
      "Ġtoward": 4060,
      "oods": 4061,
      "ifi": 4062,
      "Ġopens": 4063,
      "Ġspent": 4064,
      "ango": 4065,
      "Ġadvert": 4066,
      "Ġmodeling": 4067,
      "Ġaccidental": 4068,
      "Ġitself": 4069,
      "Ġtransp": 4070,
      "Ġcards": 4071,
      "Ġexposed": 4072,
      "Ġslack": 4073,
      "ought": 4074,
      "Ġsigns": 4075,
      "Ġsett": 4076,
      "Ġrequests": 4077,
      "Ġindustrial": 4078,
      "Ġurl": 4079,
      "words": 4080,
      "Ġmeeting": 4081,
      "Ġbecomes": 4082,
      "Ġeffort": 4083,
      "Ġhousing": 4084,
      "Ġdelivery": 4085,
      "safe": 4086,
      "Ġilleg": 4087,
      "Ġsurprising": 4088,
      "Ġperplexity": 4089,
      "Ġransom": 4090,
      "..": 4091,
      "bc": 4092,
      "ius": 4093,
      "ods": 4094,
      "uk": 4095,
      "Ġign": 4096,
      "Ġcas": 4097,
      "Ġfish": 4098,
      "Ġfair": 4099,
      "Ġmut": 4100,
      "Ġdan": 4101,
      "Ġdav": 4102,
      "Ġshape": 4103,
      "Ġstra": 4104,
      "uts": 4105,
      "check": 4106,
      "istry": 4107,
      "Ġspark": 4108,
      "izon": 4109,
      "performance": 4110,
      "Ġoracle": 4111,
      "Ġquit": 4112,
      "Ġteleg": 4113,
      "Ġ21": 4114,
      "Ġmexic": 4115,
      "Ġsupports": 4116,
      "ancy": 4117,
      "Ġmanaging": 4118,
      "Ġexperi": 4119,
      "Ġ64": 4120,
      "Ġpoints": 4121,
      "Ġdeliver": 4122,
      "Ġsnow": 4123,
      "Ġbugs": 4124,
      "Ġexperimental": 4125,
      "Ġhosting": 4126,
      "Ġfirms": 4127,
      "Ġpaid": 4128,
      "Ġinvestigation": 4129,
      "Ġastronom": 4130,
      "Ġexecutive": 4131,
      "Ġessential": 4132,
      "Ġschedul": 4133,
      "books": 4134,
      "hel": 4135,
      "look": 4136,
      "mind": 4137,
      "erious": 4138,
      "orrow": 4139,
      "Ġfat": 4140,
      "Ġhosp": 4141,
      "Ġdie": 4142,
      "Ġlikely": 4143,
      "Ġgre": 4144,
      "Ġeast": 4145,
      "Ġeach": 4146,
      "Ġelection": 4147,
      "imens": 4148,
      "unn": 4149,
      "Ġexch": 4150,
      "Ġcomplet": 4151,
      "Ġcompression": 4152,
      "Ġunit": 4153,
      "Ġorbit": 4154,
      "Ġorders": 4155,
      "Ġgenerating": 4156,
      "Ġserious": 4157,
      "Ġprem": 4158,
      "Ġprograms": 4159,
      "Ġ500": 4160,
      "Ġsurface": 4161,
      "Ġarticles": 4162,
      "Ġwindow": 4163,
      "Ġnewslet": 4164,
      "Ġtells": 4165,
      "Ġpractices": 4166,
      "Ġtalking": 4167,
      "Ġconversations": 4168,
      "Ġfunctional": 4169,
      "Ġteaching": 4170,
      "Ġinternal": 4171,
      "Ġmysterious": 4172,
      "Ġestim": 4173,
      "Ġprize": 4174,
      "Ġcrowd": 4175,
      "Ġmatrix": 4176,
      "Ġgnu": 4177,
      "Ġchemical": 4178,
      "Ġubuntu": 4179,
      "Ġwashington": 4180,
      "Ġcoffee": 4181,
      "cell": 4182,
      "dis": 4183,
      "fix": 4184,
      "kell": 4185,
      "md": 4186,
      "wind": 4187,
      "za": 4188,
      "Ġfear": 4189,
      "Ġpict": 4190,
      "Ġwaste": 4191,
      "Ġod": 4192,
      "Ġnar": 4193,
      "Ġet": 4194,
      "acent": 4195,
      "etch": 4196,
      "Ġstation": 4197,
      "ament": 4198,
      "Ġru": 4199,
      "Ġagre": 4200,
      "quality": 4201,
      "Ġsupre": 4202,
      "Ġmeans": 4203,
      "Ġprec": 4204,
      "Ġmetal": 4205,
      "Ġexplains": 4206,
      "Ġdeepf": 4207,
      "Ġpaying": 4208,
      "Ġsteve": 4209,
      "Ġjoins": 4210,
      "Ġdirectly": 4211,
      "llama": 4212,
      "pective": 4213,
      "Ġbott": 4214,
      "Ġhomes": 4215,
      "Ġmethods": 4216,
      "Ġdrugs": 4217,
      "Ġscheme": 4218,
      "Ġmathematics": 4219,
      "Ġfollowing": 4220,
      "Ġaustralia": 4221,
      "Ġliquid": 4222,
      "\"?": 4223,
      "17": 4224,
      "aware": 4225,
      "ba": 4226,
      "fit": 4227,
      "graph": 4228,
      "ham": 4229,
      "lar": 4230,
      "par": 4231,
      "war": 4232,
      "ycl": 4233,
      "Ġaug": 4234,
      "erberg": 4235,
      "Ġmart": 4236,
      "Ġow": 4237,
      "room": 4238,
      "stream": 4239,
      "Ġshap": 4240,
      "imp": 4241,
      "agi": 4242,
      "osh": 4243,
      "Ġjames": 4244,
      "Ġweather": 4245,
      "Ġalso": 4246,
      "Ġyourself": 4247,
      "izations": 4248,
      "Ġleave": 4249,
      "Ġseed": 4250,
      "Ġnov": 4251,
      "ifications": 4252,
      "Ġassoc": 4253,
      "Ġattempt": 4254,
      "Ġmacbook": 4255,
      "Ġmanagers": 4256,
      "Ġwaymo": 4257,
      "Ġreportedly": 4258,
      "Ġbusinesses": 4259,
      "Ġcutting": 4260,
      "Ġcheaper": 4261,
      "Ġnano": 4262,
      "Ġreplacement": 4263,
      "Ġnobody": 4264,
      "Ġvehicle": 4265,
      "Ġmaterial": 4266,
      "Ġgalax": 4267,
      "Ġpentagon": 4268,
      "Ġzuckerberg": 4269,
      "aire": 4270,
      "ept": 4271,
      "ker": 4272,
      "pir": 4273,
      "win": 4274,
      "Ġsf": 4275,
      "Ġsong": 4276,
      "Ġfda": 4277,
      "Ġfbi": 4278,
      "Ġmouse": 4279,
      "Ġhaving": 4280,
      "ald": 4281,
      "Ġlose": 4282,
      "Ġtoy": 4283,
      "station": 4284,
      "oper": 4285,
      "Ġclone": 4286,
      "Ġasked": 4287,
      "Ġatom": 4288,
      "perature": 4289,
      "iber": 4290,
      "Ġoverview": 4291,
      "Ġhaskell": 4292,
      "bert": 4293,
      "Ġcommod": 4294,
      "Ġtransfer": 4295,
      "Ġfinally": 4296,
      "Ġindie": 4297,
      "Ġconsole": 4298,
      "Ġbanks": 4299,
      "Ġhelped": 4300,
      "Ġscientist": 4301,
      "Ġcentral": 4302,
      "Ġhands": 4303,
      "Ġsomeone": 4304,
      "Ġoldest": 4305,
      "Ġoperations": 4306,
      "Ġdomains": 4307,
      "Ġstrategies": 4308,
      "Ġupgrade": 4309,
      "Ġcitiz": 4310,
      "Ġauthentication": 4311,
      "Ġwelcome": 4312,
      "Ġqwen": 4313,
      "Ġdepartment": 4314,
      "Ġtelegram": 4315,
      "dos": 4316,
      "hs": 4317,
      "life": 4318,
      "mission": 4319,
      "with": 4320,
      "Ġtherm": 4321,
      "alog": 4322,
      "Ġothers": 4323,
      "Ġgiving": 4324,
      "Ġny": 4325,
      "ilar": 4326,
      "Ġstores": 4327,
      "imes": 4328,
      "Ġvict": 4329,
      "ams": 4330,
      "Ġrights": 4331,
      "aged": 4332,
      "Ġmolec": 4333,
      "Ġkid": 4334,
      "iful": 4335,
      "Ġunified": 4336,
      "Ġqueries": 4337,
      "ixir": 4338,
      "Ġcommerc": 4339,
      "Ġhumanity": 4340,
      "Ġactive": 4341,
      "Ġserverless": 4342,
      "Ġlegacy": 4343,
      "Ġbreaks": 4344,
      "Ġportable": 4345,
      "Ġforeign": 4346,
      "Ġcomplexity": 4347,
      "Ġcharging": 4348,
      "Ġquickly": 4349,
      "Ġanswers": 4350,
      "Ġastronaut": 4351,
      "Ġtrends": 4352,
      "Ġexpensive": 4353,
      "Ġransomware": 4354,
      "13": 4355,
      "eper": 4356,
      "fram": 4357,
      "lers": 4358,
      "ping": 4359,
      "writ": 4360,
      "Ġmel": 4361,
      "Ġmix": 4362,
      "Ġboss": 4363,
      "Ġdin": 4364,
      "Ġdivers": 4365,
      "edge": 4366,
      "imer": 4367,
      "chron": 4368,
      "Ġprobe": 4369,
      "Ġcharge": 4370,
      "ager": 4371,
      "Ġmozilla": 4372,
      "vere": 4373,
      "osis": 4374,
      "ado": 4375,
      "aken": 4376,
      "Ġroot": 4377,
      "Ġevs": 4378,
      "Ġafford": 4379,
      "Ġprogrammers": 4380,
      "Ġdecline": 4381,
      "Ġdecades": 4382,
      "Ġinsurance": 4383,
      "Ġneeded": 4384,
      "Ġairlines": 4385,
      "Ġautomatically": 4386,
      "Ġmarketplace": 4387,
      "Ġdebate": 4388,
      "Ġhandle": 4389,
      "raction": 4390,
      "Ġmagnet": 4391,
      "Ġdiscord": 4392,
      "Ġefficiency": 4393,
      "Ġfactory": 4394,
      "Ġsteps": 4395,
      "Ġdebugging": 4396,
      "Ġunlock": 4397,
      "Ġparadox": 4398,
      "Ġdjango": 4399,
      "Ġtutorial": 4400,
      "Ġmuseum": 4401,
      "):": 4402,
      "car": 4403,
      "gin": 4404,
      "iest": 4405,
      "Ġcou": 4406,
      "Ġcache": 4407,
      "onic": 4408,
      "Ġfcc": 4409,
      "inger": 4410,
      "Ġwi": 4411,
      "Ġham": 4412,
      "Ġanonym": 4413,
      "Ġetc": 4414,
      "olt": 4415,
      "amed": 4416,
      "iding": 4417,
      "ula": 4418,
      "Ġdelet": 4419,
      "abled": 4420,
      "Ġbuff": 4421,
      "uda": 4422,
      "Ġmanual": 4423,
      "Ġraise": 4424,
      "Ġtransition": 4425,
      "Ġfinance": 4426,
      "comm": 4427,
      "ologies": 4428,
      "Ġelixir": 4429,
      "Ġwayland": 4430,
      "Ġbanned": 4431,
      "Ġcurated": 4432,
      "Ġrising": 4433,
      "Ġstrugg": 4434,
      "2009": 4435,
      "Ġhype": 4436,
      "market": 4437,
      "Ġhappy": 4438,
      "Ġsmartphone": 4439,
      "Ġshares": 4440,
      "Ġoperation": 4441,
      "Ġepic": 4442,
      "Ġlatency": 4443,
      "Ġviewer": 4444,
      "Ġtargets": 4445,
      "Ġprotection": 4446,
      "forcement": 4447,
      "Ġprobably": 4448,
      "Ġmathematical": 4449,
      "Ġtroub": 4450,
      "Ġbeautiful": 4451,
      "Ġdetermin": 4452,
      "Ġuntil": 4453,
      "Ġcommercial": 4454,
      "fall": 4455,
      "met": 4456,
      "mos": 4457,
      "making": 4458,
      "oding": 4459,
      "ril": 4460,
      "rors": 4461,
      "information": 4462,
      "Ġtens": 4463,
      "erts": 4464,
      "Ġcach": 4465,
      "Ġmerg": 4466,
      "Ġthous": 4467,
      "Ġlamb": 4468,
      "Ġtold": 4469,
      "Ġgmail": 4470,
      "Ġreth": 4471,
      "ceed": 4472,
      "iders": 4473,
      "acks": 4474,
      "Ġcloj": 4475,
      "Ġbuying": 4476,
      "Ġaging": 4477,
      "Ġcomprom": 4478,
      "elling": 4479,
      "Ġround": 4480,
      "Ġdisapp": 4481,
      "Ġdisaster": 4482,
      "Ġdeveloping": 4483,
      "Ġdecent": 4484,
      "enced": 4485,
      "tool": 4486,
      "Ġdefin": 4487,
      "Ġformal": 4488,
      "Ġextensions": 4489,
      "Ġseeks": 4490,
      "Ġforever": 4491,
      "driving": 4492,
      "Ġtempor": 4493,
      "Ġtemplate": 4494,
      "Ġthreatens": 4495,
      "block": 4496,
      "Ġannounce": 4497,
      "Ġleaked": 4498,
      "Ġenvironments": 4499,
      "Ġdrops": 4500,
      "Ġultimate": 4501,
      "point": 4502,
      "break": 4503,
      "Ġlicens": 4504,
      "Ġcandid": 4505,
      "Ġlunar": 4506,
      "crib": 4507,
      "hd": 4508,
      "tuning": 4509,
      "uary": 4510,
      "Ġicon": 4511,
      "Ġtables": 4512,
      "Ġcru": 4513,
      "orid": 4514,
      "ativity": 4515,
      "Ġwil": 4516,
      "Ġmad": 4517,
      "Ġhold": 4518,
      "Ġhero": 4519,
      "Ġoly": 4520,
      "Ġtog": 4521,
      "asons": 4522,
      "ami": 4523,
      "Ġcodes": 4524,
      "Ġends": 4525,
      "Ġtrick": 4526,
      "Ġunion": 4527,
      "Ġspin": 4528,
      "Ġspam": 4529,
      "Ġplastic": 4530,
      "Ġarea": 4531,
      "Ġdatacent": 4532,
      "action": 4533,
      "Ġteen": 4534,
      "Ġzen": 4535,
      "Ġsolo": 4536,
      "orship": 4537,
      "Ġanymore": 4538,
      "Ġparts": 4539,
      "Ġhumanoid": 4540,
      "Ġcontrols": 4541,
      "Ġpayment": 4542,
      "Ġhyp": 4543,
      "Ġincome": 4544,
      "Ġlogs": 4545,
      "Ġaudit": 4546,
      "Ġkeeping": 4547,
      "player": 4548,
      "Ġsatellites": 4549,
      "Ġevaluation": 4550,
      "Ġargum": 4551,
      "Ġplease": 4552,
      "Ġweapon": 4553,
      "Ġscreensh": 4554,
      "Ġafrica": 4555,
      "Ġmanifest": 4556,
      "Ġillegal": 4557,
      "Ġsupreme": 4558,
      "iot": 4559,
      "oon": 4560,
      "Ġts": 4561,
      "Ġcraw": 4562,
      "Ġfont": 4563,
      "Ġmr": 4564,
      "Ġbacter": 4565,
      "roph": 4566,
      "Ġtown": 4567,
      "Ġgap": 4568,
      "state": 4569,
      "Ġfort": 4570,
      "Ġstan": 4571,
      "Ġscen": 4572,
      "Ġsports": 4573,
      "Ġadults": 4574,
      "Ġprison": 4575,
      "ruit": 4576,
      "Ġapart": 4577,
      "Ġexplore": 4578,
      "Ġthanks": 4579,
      "Ġknown": 4580,
      "Ġlaunching": 4581,
      "Ġswed": 4582,
      "Ġleads": 4583,
      "Ġqr": 4584,
      "Ġfixed": 4585,
      "Ġtemperature": 4586,
      "Ġweekly": 4587,
      "Ġemployee": 4588,
      "Ġpatent": 4589,
      "Ġcalcul": 4590,
      "Ġprior": 4591,
      "Ġgolden": 4592,
      "Ġbootst": 4593,
      "Ġreplaced": 4594,
      "Ġdependency": 4595,
      "Ġroman": 4596,
      "Ġparents": 4597,
      "Ġdestroy": 4598,
      "Ġretrieval": 4599,
      "Ġcelebr": 4600,
      "Ġtransparen": 4601,
      "Ġmexico": 4602,
      "gr": 4603,
      "hips": 4604,
      "Ġtui": 4605,
      "rel": 4606,
      "Ġfol": 4607,
      "Ġwrote": 4608,
      "Ġms": 4609,
      "Ġhunt": 4610,
      "Ġber": 4611,
      "Ġdut": 4612,
      "Ġgd": 4613,
      "acity": 4614,
      "del": 4615,
      "Ġux": 4616,
      "rab": 4617,
      "Ġcoin": 4618,
      "aked": 4619,
      "Ġaggreg": 4620,
      "Ġspar": 4621,
      "Ġspring": 4622,
      "avel": 4623,
      "Ġcreators": 4624,
      "Ġrecall": 4625,
      "Ġcommands": 4626,
      "Ġsimilar": 4627,
      "Ġsmarter": 4628,
      "Ġprogrammer": 4629,
      "class": 4630,
      "rene": 4631,
      "Ġsovere": 4632,
      "Ġpoison": 4633,
      "Ġstars": 4634,
      "Ġstarts": 4635,
      "Ġhydro": 4636,
      "Ġsyntax": 4637,
      "Ġmarch": 4638,
      "Ġ199": 4639,
      "Ġeasier": 4640,
      "Ġblocking": 4641,
      "Ġwanted": 4642,
      "ields": 4643,
      "Ġbankrupt": 4644,
      "Ġofficially": 4645,
      "Ġarmy": 4646,
      "Ġliter": 4647,
      "Ġeye": 4648,
      "Ġthreads": 4649,
      "Ġvaccine": 4650,
      "torch": 4651,
      "Ġinfinite": 4652,
      "Ġindependent": 4653,
      "Ġhugging": 4654,
      "Ġsovereign": 4655,
      "()": 4656,
      ",'": 4657,
      "26": 4658,
      "300": 4659,
      "bird": 4660,
      "fin": 4661,
      "lights": 4662,
      "pos": 4663,
      "tical": 4664,
      "Ġtsm": 4665,
      "Ġsort": 4666,
      "Ġspend": 4667,
      "Ġcow": 4668,
      "Ġcry": 4669,
      "Ġmur": 4670,
      "itz": 4671,
      "Ġbash": 4672,
      "Ġboring": 4673,
      "Ġdram": 4674,
      "Ġtheft": 4675,
      "Ġgates": 4676,
      "Ġeat": 4677,
      "Ġstress": 4678,
      "Ġvote": 4679,
      "Ġchart": 4680,
      "Ġriv": 4681,
      "Ġwealth": 4682,
      "illion": 4683,
      "Ġalready": 4684,
      "Ġplain": 4685,
      "Ġprime": 4686,
      "Ġcontrov": 4687,
      "Ġdisney": 4688,
      "Ġemot": 4689,
      "Ġ23": 4690,
      "Ġphase": 4691,
      "Ġmeets": 4692,
      "Ġperform": 4693,
      "Ġdecade": 4694,
      "boards": 4695,
      "Ġturb": 4696,
      "Ġparty": 4697,
      "ternal": 4698,
      "Ġpayments": 4699,
      "Ġstarship": 4700,
      "Ġtimeline": 4701,
      "Ġworkspace": 4702,
      "Ġipad": 4703,
      "Ġputs": 4704,
      "Ġembeddings": 4705,
      "Ġcontainers": 4706,
      "Ġtalent": 4707,
      "Ġimmig": 4708,
      "Ġacquis": 4709,
      "Ġmotor": 4710,
      "Ġopin": 4711,
      "Ġprepare": 4712,
      "Ġdataset": 4713,
      "Ġscraping": 4714,
      "Ġbridge": 4715,
      "Ġreturns": 4716,
      "Ġrecognition": 4717,
      "Ġconsciousness": 4718,
      "Ġexchange": 4719,
      "Ġnewsletter": 4720,
      "Ġolymp": 4721,
      "Ġcontrovers": 4722,
      "fo": 4723,
      "faces": 4724,
      "mas": 4725,
      "Ġing": 4726,
      "Ĥ¬": 4727,
      "inator": 4728,
      "Ġtouch": 4729,
      "Ġsep": 4730,
      "Ġfab": 4731,
      "Ġpitch": 4732,
      "itrust": 4733,
      "Ġburn": 4734,
      "Ġdollar": 4735,
      "Ġgives": 4736,
      "Ġandre": 4737,
      "Ġshr": 4738,
      "rable": 4739,
      "Ġstick": 4740,
      "Ġstuff": 4741,
      "ott": 4742,
      "Ġry": 4743,
      "Ġring": 4744,
      "Ġking": 4745,
      "Ġdating": 4746,
      "resent": 4747,
      "perform": 4748,
      "Ġleaving": 4749,
      "Ġquiet": 4750,
      "Ġresign": 4751,
      "Ġdiscl": 4752,
      "Ġemissions": 4753,
      "Ġflaw": 4754,
      "Ġcreation": 4755,
      "peg": 4756,
      "Ġsolid": 4757,
      "Ġleadership": 4758,
      "Ġdistribution": 4759,
      "Ġantitrust": 4760,
      "Ġmoves": 4761,
      "Ġassistants": 4762,
      "Ġblockchain": 4763,
      "Ġcheat": 4764,
      "Ġphysic": 4765,
      "Ġastero": 4766,
      "preter": 4767,
      "ographic": 4768,
      "Ġprinc": 4769,
      "Ġstrike": 4770,
      "Ġofficials": 4771,
      "Ġembedding": 4772,
      "Ġsenior": 4773,
      "Ġtargeting": 4774,
      "Ġeyes": 4775,
      "Ġvehicles": 4776,
      "ductor": 4777,
      "Ġbiden": 4778,
      "Ġpressure": 4779,
      "Ġsaved": 4780,
      "Ġdetails": 4781,
      "Ġrtx": 4782,
      "Ġalignment": 4783,
      "Ġdeterministic": 4784,
      "Ġtsmc": 4785,
      "75": 4786,
      "au": 4787,
      "band": 4788,
      "brain": 4789,
      "core": 4790,
      "gests": 4791,
      "here": 4792,
      "ih": 4793,
      "jo": 4794,
      "mcp": 4795,
      "nes": 4796,
      "vis": 4797,
      "watch": 4798,
      "wood": 4799,
      "Ġcpus": 4800,
      "atom": 4801,
      "Ġpic": 4802,
      "Ġpilot": 4803,
      "Ġmount": 4804,
      "itory": 4805,
      "icide": 4806,
      "Ġtoxic": 4807,
      "Ġreject": 4808,
      "elines": 4809,
      "Ġwhe": 4810,
      "Ġchoice": 4811,
      "Ġcover": 4812,
      "abet": 4813,
      "ander": 4814,
      "Ġalge": 4815,
      "Ġdoor": 4816,
      "Ġrot": 4817,
      "Ġgenetic": 4818,
      "Ġnotion": 4819,
      "Ġaccept": 4820,
      "aven": 4821,
      "Ġabst": 4822,
      "coding": 4823,
      "Ġprev": 4824,
      "Ġprefer": 4825,
      "Ġcommission": 4826,
      "Ġreally": 4827,
      "coming": 4828,
      "shit": 4829,
      "Ġassembly": 4830,
      "criptions": 4831,
      "Ġstring": 4832,
      "2008": 4833,
      "Ġbillions": 4834,
      "Ġtrained": 4835,
      "Ġcapabilities": 4836,
      "Ġmovies": 4837,
      "Ġfixing": 4838,
      "Ġbroke": 4839,
      "backed": 4840,
      "Ġkeeps": 4841,
      "Ġportfol": 4842,
      "Ġviral": 4843,
      "Ġpresent": 4844,
      "Ġconverter": 4845,
      "Ġpytorch": 4846,
      "Ġconversation": 4847,
      "Ġdynamics": 4848,
      "Ġfriend": 4849,
      "Ġsynthesis": 4850,
      "Ġnotebook": 4851,
      "Ġscanner": 4852,
      "Ġsuggests": 4853,
      "Ġchoose": 4854,
      "friendly": 4855,
      "computer": 4856,
      "Ġbenefits": 4857,
      "dy": 4858,
      "ki": 4859,
      "new": 4860,
      "Ġsit": 4861,
      "Ġsession": 4862,
      "Ġfur": 4863,
      "Ġdar": 4864,
      "Ġdro": 4865,
      "Ġdra": 4866,
      "Ġditch": 4867,
      "Ġollama": 4868,
      "ione": 4869,
      "etime": 4870,
      "Ġaims": 4871,
      "Ġvim": 4872,
      "Ġisol": 4873,
      "uration": 4874,
      "Ġneut": 4875,
      "Ġexerc": 4876,
      "Ġweak": 4877,
      "essions": 4878,
      "Ġtrip": 4879,
      "Ġatlas": 4880,
      "Ġinterpreter": 4881,
      "Ġdisk": 4882,
      "Ġ22": 4883,
      "assist": 4884,
      "Ġcreates": 4885,
      "Ġaccused": 4886,
      "Ġmetrics": 4887,
      "Ġsolutions": 4888,
      "ished": 4889,
      "Ġremember": 4890,
      "Ġplants": 4891,
      "Ġbigger": 4892,
      "Ġhelping": 4893,
      "Ġairb": 4894,
      "Ġrobotax": 4895,
      "Ġleading": 4896,
      "Ġrenew": 4897,
      "Ġintroduces": 4898,
      "Ġdomin": 4899,
      "iveness": 4900,
      "Ġimplementing": 4901,
      "Ġschools": 4902,
      "Ġcanadian": 4903,
      "Ġroadmap": 4904,
      "Ġcameras": 4905,
      "Ġsynthetic": 4906,
      "Ġmigration": 4907,
      "Ġemergency": 4908,
      "Ġbritain": 4909,
      "Ġproviders": 4910,
      "Ġcompliance": 4911,
      "Ġrewrit": 4912,
      "Ġsymbol": 4913,
      "Ġphilosophy": 4914,
      "Ġharvard": 4915,
      "Ġventure": 4916,
      "Ġprofessional": 4917,
      "Ġinterpret": 4918,
      "Ġtogether": 4919,
      "Ġalgebra": 4920,
      "fa": 4921,
      "gpu": 4922,
      "hy": 4923,
      "lash": 4924,
      "racts": 4925,
      "sung": 4926,
      "Ġcve": 4927,
      "Ġcable": 4928,
      "reh": 4929,
      "Ġftc": 4930,
      "atial": 4931,
      "Ġpeter": 4932,
      "Ġwat": 4933,
      "itude": 4934,
      "Ġboth": 4935,
      "Ġopus": 4936,
      "Ġinj": 4937,
      "icate": 4938,
      "Ġshoot": 4939,
      "Ġrival": 4940,
      "Ġneur": 4941,
      "idual": 4942,
      "Ġcoast": 4943,
      "Ġcoach": 4944,
      "Ġcomment": 4945,
      "Ġexcel": 4946,
      "ifies": 4947,
      "Ġapply": 4948,
      "Ġtri": 4949,
      "Ġcompat": 4950,
      "Ġcompare": 4951,
      "Ġcompreh": 4952,
      "ection": 4953,
      "Ġsci": 4954,
      "Ġplot": 4955,
      "Ġorg": 4956,
      "Ġleaves": 4957,
      "Ġqual": 4958,
      "Ġblind": 4959,
      "Ġaband": 4960,
      "iented": 4961,
      "Ġimpossible": 4962,
      "Ġsolved": 4963,
      "Ġbackground": 4964,
      "Ġexplos": 4965,
      "Ġcrime": 4966,
      "Ġarticle": 4967,
      "Ġlocation": 4968,
      "Ġbranch": 4969,
      "Ġpromise": 4970,
      "Ġairport": 4971,
      "Ġcalled": 4972,
      "Ġhandling": 4973,
      "Ġsmaller": 4974,
      "Ġgroups": 4975,
      "Ġequity": 4976,
      "Ġsuggest": 4977,
      "Ġvalidation": 4978,
      "Ġrepository": 4979,
      "Ġadoption": 4980,
      "Ġvaluation": 4981,
      "Ġtherapy": 4982,
      "Ġduckdb": 4983,
      "sheet": 4984,
      "Ġdavid": 4985,
      "Ġclojure": 4986,
      "Ġdecentral": 4987,
      "65": 4988,
      "bin": 4989,
      "bing": 4990,
      "dom": 4991,
      "game": 4992,
      "ht": 4993,
      "iate": 4994,
      "ym": 4995,
      "Ġais": 4996,
      "Ġsir": 4997,
      "Ġcases": 4998,
      "Ġfires": 4999,
      "Ġwide": 5000,
      "Ġwish": 5001,
      "Ġmv": 5002,
      "Ġmand": 5003,
      "Ġmort": 5004,
      "itors": 5005,
      "Ġloses": 5006,
      "icult": 5007,
      "Ġgone": 5008,
      "stri": 5009,
      "Ġuber": 5010,
      "Ġstruct": 5011,
      "olen": 5012,
      "Ġyes": 5013,
      "Ġvr": 5014,
      "Ġven": 5015,
      "emis": 5016,
      "Ġdept": 5017,
      "Ġclin": 5018,
      "Ġcannot": 5019,
      "udio": 5020,
      "ober": 5021,
      "Ġlazy": 5022,
      "Ġpret": 5023,
      "Ġdecisions": 5024,
      "cloud": 5025,
      "Ġsaid": 5026,
      "Ġinstit": 5027,
      "Ġretail": 5028,
      "Ġplaying": 5029,
      "Ġvercel": 5030,
      "Ġtyping": 5031,
      "Ġharder": 5032,
      "Ġdiy": 5033,
      "Ġprofile": 5034,
      "ception": 5035,
      "Ġrestaur": 5036,
      "Ġstandards": 5037,
      "afka": 5038,
      "pected": 5039,
      "Ġdeployment": 5040,
      "Ġpaul": 5041,
      "Ġincrease": 5042,
      "party": 5043,
      "Ġpdfs": 5044,
      "Ġtreas": 5045,
      "Ġcombat": 5046,
      "Ġscripts": 5047,
      "Ġmistral": 5048,
      "Ġcomponent": 5049,
      "Ġmeaning": 5050,
      "Ġdouble": 5051,
      "Ġwireless": 5052,
      "ĠâĤ¬": 5053,
      "Ġseeking": 5054,
      "Ġstopped": 5055,
      "Ġarrested": 5056,
      "Ġextreme": 5057,
      "orida": 5058,
      "ae": 5059,
      "gram": 5060,
      "iated": 5061,
      "ny": 5062,
      "orph": 5063,
      "ender": 5064,
      "Ġfle": 5065,
      "ito": 5066,
      "Ġband": 5067,
      "Ġdial": 5068,
      "Ġol": 5069,
      "Ġovers": 5070,
      "rot": 5071,
      "Ġlon": 5072,
      "Ġgave": 5073,
      "Ġnut": 5074,
      "Ġreasons": 5075,
      "ett": 5076,
      "ece": 5077,
      "Ġstup": 5078,
      "Ġstocks": 5079,
      "iger": 5080,
      "Ġvc": 5081,
      "Ġpros": 5082,
      "Ġneigh": 5083,
      "Ġcoal": 5084,
      "Ġdepress": 5085,
      "ption": 5086,
      "Ġclosed": 5087,
      "Ġalerts": 5088,
      "ourcing": 5089,
      "Ġspir": 5090,
      "Ġ300": 5091,
      "Ġflorida": 5092,
      "athy": 5093,
      "Ġchats": 5094,
      "Ġparsing": 5095,
      "Ġprotest": 5096,
      "Ġaircraft": 5097,
      "Ġerrors": 5098,
      "Ġcalling": 5099,
      "Ġrequired": 5100,
      "Ġgovernance": 5101,
      "Ġprocessor": 5102,
      "Ġsamsung": 5103,
      "Ġeasily": 5104,
      "Ġforest": 5105,
      "ycle": 5106,
      "Ġorigins": 5107,
      "Ġfactor": 5108,
      "Ġbenchmarking": 5109,
      "Ġtrees": 5110,
      "door": 5111,
      "Ġevaluating": 5112,
      "Ġutility": 5113,
      "Ġshadow": 5114,
      "Ġinfluence": 5115,
      "Ġmaterials": 5116,
      "Ġexpected": 5117,
      "Ġpatients": 5118,
      "Ġlaser": 5119,
      "Ġprotein": 5120,
      "Ġchaos": 5121,
      "Ġsvg": 5122,
      "Ġpowers": 5123,
      "Ġgalaxy": 5124,
      "Ġbankruptcy": 5125,
      "Ġneighb": 5126,
      "37": 5127,
      "but": 5128,
      "bling": 5129,
      "ever": 5130,
      "fast": 5131,
      "kill": 5132,
      "oe": 5133,
      "pg": 5134,
      "page": 5135,
      "oning": 5136,
      "Ġfresh": 5137,
      "Ġhu": 5138,
      "Ġdot": 5139,
      "Ġdate": 5140,
      "Ġoc": 5141,
      "icit": 5142,
      "icism": 5143,
      "Ġanx": 5144,
      "Ġgaz": 5145,
      "Ġforward": 5146,
      "Ġuplo": 5147,
      "Ġstolen": 5148,
      "image": 5149,
      "idential": 5150,
      "Ġclub": 5151,
      "iff": 5152,
      "Ġappe": 5153,
      "que": 5154,
      "apter": 5155,
      "antir": 5156,
      "ostic": 5157,
      "Ġresist": 5158,
      "Ġ32": 5159,
      "Ġflat": 5160,
      "Ġpeer": 5161,
      "Ġmembers": 5162,
      "Ġcompanion": 5163,
      "Ġbanana": 5164,
      "Ġframeworks": 5165,
      "Ġdebian": 5166,
      "Ġfired": 5167,
      "Ġoptimized": 5168,
      "Ġdelay": 5169,
      "Ġreliable": 5170,
      "Ġhealthcare": 5171,
      "Ġgrand": 5172,
      "Ġfixes": 5173,
      "Ġlisten": 5174,
      "heimer": 5175,
      "Ġkiller": 5176,
      "Ġmessaging": 5177,
      "Ġcharts": 5178,
      "Ġurban": 5179,
      "Ġsemicon": 5180,
      "Ġpublishing": 5181,
      "Ġcharges": 5182,
      "Ġfighting": 5183,
      "Ġpolitics": 5184,
      "Ġschema": 5185,
      "Ġpurpose": 5186,
      "Ġposition": 5187,
      "Ġnobel": 5188,
      "Ġbaby": 5189,
      "Ġexplorer": 5190,
      "Ġrecovery": 5191,
      "Ġproperty": 5192,
      "ĠÂ£": 5193,
      "Ġaccidentally": 5194,
      "Ġlambda": 5195,
      "Ġasteroid": 5196,
      "cks": 5197,
      "grow": 5198,
      "iability": 5199,
      "tra": 5200,
      "inter": 5201,
      "Ġpac": 5202,
      "Ġhide": 5203,
      "Ġhij": 5204,
      "Ġbio": 5205,
      "Ġthr": 5206,
      "aling": 5207,
      "Ġlie": 5208,
      "Ġgun": 5209,
      "Ġforces": 5210,
      "Ġvoy": 5211,
      "Ġprov": 5212,
      "emon": 5213,
      "Ġtrig": 5214,
      "Ġcomparing": 5215,
      "Ġscore": 5216,
      "Ġsuff": 5217,
      "Ġroast": 5218,
      "Ġresume": 5219,
      "uggle": 5220,
      "Ġtrap": 5221,
      "odon": 5222,
      "odes": 5223,
      "Ġrevers": 5224,
      "Ġcomputation": 5225,
      "Ġrealtime": 5226,
      "Ġminecraft": 5227,
      "Ġvisa": 5228,
      "Ġexpans": 5229,
      "Ġextend": 5230,
      "Ġassess": 5231,
      "Ġcaught": 5232,
      "Ġrobotic": 5233,
      "Ġredis": 5234,
      "Ġfract": 5235,
      "enger": 5236,
      "Ġlawy": 5237,
      "Ġtransformers": 5238,
      "Ġthreats": 5239,
      "Ġstatistics": 5240,
      "Ġimproved": 5241,
      "Ġincreasing": 5242,
      "Ġdifficult": 5243,
      "Ġpalantir": 5244,
      "Ġopent": 5245,
      "Ġnavigation": 5246,
      "Ġaccuracy": 5247,
      "Ġpollution": 5248,
      "Ġgolang": 5249,
      "Ġcorrect": 5250,
      "Ġacquisition": 5251,
      "Ġportfolio": 5252,
      "strike": 5253,
      "\":": 5254,
      "bound": 5255,
      "body": 5256,
      "how": 5257,
      "hib": 5258,
      "just": 5259,
      "king": 5260,
      "len": 5261,
      "makers": 5262,
      "pal": 5263,
      "spe": 5264,
      "Ġ<": 5265,
      "Ġ=": 5266,
      "Ġtunn": 5267,
      "Ġsets": 5268,
      "Ġsony": 5269,
      "Ġcuda": 5270,
      "orm": 5271,
      "Ġwid": 5272,
      "Ġhon": 5273,
      "Ġbomb": 5274,
      "Ġded": 5275,
      "Ġlos": 5276,
      "Ġgig": 5277,
      "Ġgard": 5278,
      "Ġnest": 5279,
      "Ġeb": 5280,
      "dem": 5281,
      "Ġforum": 5282,
      "asy": 5283,
      "Ġstage": 5284,
      "ividual": 5285,
      "Ġiron": 5286,
      "ppy": 5287,
      "Ġjun": 5288,
      "Ġconference": 5289,
      "Ġkafka": 5290,
      "andal": 5291,
      "ighter": 5292,
      "Ġuncover": 5293,
      "Ġscores": 5294,
      "ria": 5295,
      "Ġplas": 5296,
      "Ġcancel": 5297,
      "Ġadhd": 5298,
      "dule": 5299,
      "Ġleast": 5300,
      "Ġmysql": 5301,
      "Ġresh": 5302,
      "Ġembr": 5303,
      "Ġsever": 5304,
      "Ġselect": 5305,
      "Ġseven": 5306,
      "Ġengines": 5307,
      "Ġrail": 5308,
      "Ġflutter": 5309,
      "Ġmapping": 5310,
      "Ġrevis": 5311,
      "Ġgravity": 5312,
      "Ġpromises": 5313,
      "Ġmedic": 5314,
      "Ġvscode": 5315,
      "Ġtechnologies": 5316,
      "Ġpartner": 5317,
      "Ġcaused": 5318,
      "197": 5319,
      "scape": 5320,
      "Ġlogin": 5321,
      "Ġupdated": 5322,
      "Ġnetworking": 5323,
      "Ġolder": 5324,
      "Ġgraphs": 5325,
      "Ġcryptography": 5326,
      "Ġsilent": 5327,
      "Ġpredic": 5328,
      "iques": 5329,
      "Ġreflect": 5330,
      "Ġproposed": 5331,
      "Ġcyberatt": 5332,
      "Ġterra": 5333,
      "Ġcatalog": 5334,
      "Ġreaches": 5335,
      "dden": 5336,
      "Ġelectronics": 5337,
      "Ġtranslation": 5338,
      "Ġfigma": 5339,
      "Ġcollaboration": 5340,
      "Ġescape": 5341,
      "Ġadmits": 5342,
      "Ġsepar": 5343,
      ")?": 5344,
      "card": 5345,
      "file": 5346,
      "mem": 5347,
      "sers": 5348,
      "Ġtired": 5349,
      "Ġsora": 5350,
      "era": 5351,
      "Ġcms": 5352,
      "ording": 5353,
      "Ġfro": 5354,
      "Ġpul": 5355,
      "Ġwifi": 5356,
      "Ġthose": 5357,
      "outs": 5358,
      "Ġgut": 5359,
      "Ġgps": 5360,
      "Ġforget": 5361,
      "elves": 5362,
      "Ġstren": 5363,
      "ola": 5364,
      "ims": 5365,
      "iga": 5366,
      "Ġvac": 5367,
      "Ġrul": 5368,
      "ague": 5369,
      "iday": 5370,
      "abling": 5371,
      "ocaly": 5372,
      "lywood": 5373,
      "Ġunic": 5374,
      "mented": 5375,
      "Ġsuck": 5376,
      "udes": 5377,
      "obe": 5378,
      "Ġphishing": 5379,
      "Ġgenerates": 5380,
      "Ġcreativity": 5381,
      "Ġoutperform": 5382,
      "Ġclaw": 5383,
      "ruck": 5384,
      "Ġrepresent": 5385,
      "Ġapril": 5386,
      "Ġguess": 5387,
      "Ġinfo": 5388,
      "Ġdeclar": 5389,
      "Ġindividual": 5390,
      "rolling": 5391,
      "Ġinstrum": 5392,
      "Ġobjects": 5393,
      "Ġowner": 5394,
      "Ġspeak": 5395,
      "Ġaddiction": 5396,
      "Ġmovement": 5397,
      "Ġ198": 5398,
      "Ġpasswords": 5399,
      "Ġintelligent": 5400,
      "Ġbias": 5401,
      "Ġipv": 5402,
      "Ġintegrated": 5403,
      "Ġpanel": 5404,
      "Ġstructures": 5405,
      "Ġswitching": 5406,
      "Ġfreed": 5407,
      "Ġexamples": 5408,
      "Ġsurvive": 5409,
      "Ġwait": 5410,
      "super": 5411,
      "Ġhello": 5412,
      "Ġcontinuous": 5413,
      "Ġminimum": 5414,
      "Ġcomprehensive": 5415,
      "Ġstupid": 5416,
      "Ġanxiety": 5417,
      "bage": 5418,
      "cop": 5419,
      "gi": 5420,
      "gth": 5421,
      "hub": 5422,
      "lib": 5423,
      "pes": 5424,
      "uding": 5425,
      "Ġaward": 5426,
      "Ġsessions": 5427,
      "Ġfem": 5428,
      "Ġpione": 5429,
      "Ġwast": 5430,
      "Ġthinks": 5431,
      "ara": 5432,
      "isation": 5433,
      "Ġgir": 5434,
      "Ġnv": 5435,
      "rage": 5436,
      "Ġrl": 5437,
      "Ġrat": 5438,
      "Ġran": 5439,
      "emp": 5440,
      "abot": 5441,
      "oop": 5442,
      "Ġkde": 5443,
      "quant": 5444,
      "rier": 5445,
      "rible": 5446,
      "ogen": 5447,
      "Ġsue": 5448,
      "Ġsudden": 5449,
      "ortun": 5450,
      "Ġbyd": 5451,
      "Ġamb": 5452,
      "Ġresc": 5453,
      "Ġresource": 5454,
      "Ġmanip": 5455,
      "covers": 5456,
      "athon": 5457,
      "Ġbacklash": 5458,
      "Ġminds": 5459,
      "Ġboy": 5460,
      "umps": 5461,
      "Ġartemis": 5462,
      "Ġgrad": 5463,
      "Ġextin": 5464,
      "Ġinstruct": 5465,
      "Ġearning": 5466,
      "Ġdeepmind": 5467,
      "inspired": 5468,
      "Ġtechniques": 5469,
      "Ġcycle": 5470,
      "Ġbilling": 5471,
      "Ġreplacing": 5472,
      "Ġleaders": 5473,
      "Ġcapacity": 5474,
      "Ġpasses": 5475,
      "Ġgitlab": 5476,
      "Ġseeing": 5477,
      "Ġbiom": 5478,
      "Ġmilest": 5479,
      "Ġchecker": 5480,
      "Ġreducing": 5481,
      "Ġstrikes": 5482,
      "Ġshutting": 5483,
      "build": 5484,
      "Ġmeasuring": 5485,
      "Ġaddresses": 5486,
      "Ġkorean": 5487,
      "Ġmatching": 5488,
      "Ġtreatment": 5489,
      "Ġsquare": 5490,
      "Ġmigrating": 5491,
      "Ġgateway": 5492,
      "Ġcredential": 5493,
      "Ġjeff": 5494,
      "Ġtelesc": 5495,
      "Ġjanuary": 5496,
      "Ġcluster": 5497,
      "Ġchannel": 5498,
      "Ġflexible": 5499,
      "Ġmanufacturing": 5500,
      "Ġhospital": 5501,
      "Ġcommodore": 5502,
      "Ġcitizens": 5503,
      "Ġmanifesto": 5504,
      "Ġexpansion": 5505,
      "Ġstrength": 5506,
      "'d": 5507,
      ".\"": 5508,
      "cre": 5509,
      "fly": 5510,
      "iat": 5511,
      "iers": 5512,
      "lock": 5513,
      "mb": 5514,
      "mare": 5515,
      "python": 5516,
      "tree": 5517,
      "Ġiv": 5518,
      "Ġsaving": 5519,
      "Ġcame": 5520,
      "Ġfell": 5521,
      "Ġmice": 5522,
      "Ġmerc": 5523,
      "Ġmesh": 5524,
      "Ġhire": 5525,
      "Ġdraft": 5526,
      "rock": 5527,
      "ette": 5528,
      "etooth": 5529,
      "asc": 5530,
      "ecks": 5531,
      "iminal": 5532,
      "Ġveg": 5533,
      "cha": 5534,
      "Ġrange": 5535,
      "idents": 5536,
      "ctic": 5537,
      "Ġalz": 5538,
      "Ġalive": 5539,
      "Ġalert": 5540,
      "Ġspaces": 5541,
      "Ġsuit": 5542,
      "Ġsuite": 5543,
      "Ġgene": 5544,
      "Ġquarter": 5545,
      "ikes": 5546,
      "Ġseem": 5547,
      "Ġaccording": 5548,
      "Ġdecoding": 5549,
      "Ġworlds": 5550,
      "Ġinvis": 5551,
      "Ġhighly": 5552,
      "Ġgradu": 5553,
      "ropy": 5554,
      "Ġresearcher": 5555,
      "Ġoptions": 5556,
      "Ġpersistent": 5557,
      "Ġpool": 5558,
      "2007": 5559,
      "Ġbrains": 5560,
      "Ġsynd": 5561,
      "Ġtermin": 5562,
      "Ġfailing": 5563,
      "Ġmultiplayer": 5564,
      "Ġsumm": 5565,
      "Ġorganization": 5566,
      "Ġshutdown": 5567,
      "Ġmotion": 5568,
      "Ġanimation": 5569,
      "Ġfocused": 5570,
      "Ġpurch": 5571,
      "Ġillust": 5572,
      "Ġcircuit": 5573,
      "Ġbillionaire": 5574,
      "Ġprovider": 5575,
      "Ġflying": 5576,
      "control": 5577,
      "Ġenhanced": 5578,
      "reprene": 5579,
      "Ġmastodon": 5580,
      "Ġinteresting": 5581,
      "Ġgodot": 5582,
      "Ġdemocracy": 5583,
      "Ġbluetooth": 5584,
      "Ġopportun": 5585,
      "Ġfalse": 5586,
      "Ġshopify": 5587,
      "Ġcloser": 5588,
      "Ġanonymous": 5589,
      "Ġwildf": 5590,
      "fm": 5591,
      "fil": 5592,
      "hum": 5593,
      "Ġtuning": 5594,
      "rees": 5595,
      "ato": 5596,
      "Ġbike": 5597,
      "Ġbatch": 5598,
      "Ġly": 5599,
      "Ġlad": 5600,
      "Ġlob": 5601,
      "Ġinput": 5602,
      "Ġgains": 5603,
      "step": 5604,
      "igm": 5605,
      "Ġprox": 5606,
      "Ġchrom": 5607,
      "Ġmodule": 5608,
      "usive": 5609,
      "ading": 5610,
      "Ġagile": 5611,
      "pling": 5612,
      "ublic": 5613,
      "Ġatl": 5614,
      "Ġcanvas": 5615,
      "Ġsuch": 5616,
      "udi": 5617,
      "Ġbloom": 5618,
      "aires": 5619,
      "Ġraw": 5620,
      "Ġcrew": 5621,
      "Ġallows": 5622,
      "Ġrecurs": 5623,
      "Ġcomputational": 5624,
      "Ġdriven": 5625,
      "Ġmonopol": 5626,
      "ificant": 5627,
      "Ġparis": 5628,
      "Ġbutton": 5629,
      "ovim": 5630,
      "Ġoptical": 5631,
      "Ġstruggle": 5632,
      "Ġshouldn": 5633,
      "Ġinvesting": 5634,
      "Ġannual": 5635,
      "Ġlogging": 5636,
      "Ġfirewall": 5637,
      "Ġconflic": 5638,
      "Ġpersonalized": 5639,
      "Ġ1000": 5640,
      "Ġoperator": 5641,
      "Ġdeadly": 5642,
      "process": 5643,
      "Ġfalling": 5644,
      "Ġpopulation": 5645,
      "Ġblogs": 5646,
      "Ġstatement": 5647,
      "Ġimprovements": 5648,
      "grade": 5649,
      "Ġterms": 5650,
      "Ġsending": 5651,
      "Ġfamil": 5652,
      "Ġpolicies": 5653,
      "Ġconstruction": 5654,
      "Ġtargeted": 5655,
      "month": 5656,
      "Ġremoved": 5657,
      "Ġrouting": 5658,
      "person": 5659,
      "Ġcertific": 5660,
      "Ġsplit": 5661,
      "Ġalpha": 5662,
      "Ġbelieve": 5663,
      "Ġticket": 5664,
      "ditional": 5665,
      "Ġgeometry": 5666,
      "Ġshopping": 5667,
      "Ġsustainable": 5668,
      "Ġlaravel": 5669,
      "Ġtheorem": 5670,
      "Ġastronomers": 5671,
      "Ġthousands": 5672,
      "Ġhypoth": 5673,
      "Ġdutch": 5674,
      "Ġopinion": 5675,
      "Ġinvisible": 5676,
      "28": 5677,
      "45": 5678,
      "cra": 5679,
      "ku": 5680,
      "kan": 5681,
      "lay": 5682,
      "och": 5683,
      "rate": 5684,
      "ued": 5685,
      "Ġtwe": 5686,
      "Ġcup": 5687,
      "Ġcateg": 5688,
      "ened": 5689,
      "Ġfill": 5690,
      "Ġbare": 5691,
      "Ġlith": 5692,
      "Ġlens": 5693,
      "Ġlays": 5694,
      "Ġtotal": 5695,
      "Ġanimal": 5696,
      "Ġgall": 5697,
      "star": 5698,
      "Ġnim": 5699,
      "Ġeating": 5700,
      "Ġreim": 5701,
      "Ġrefer": 5702,
      "ollo": 5703,
      "Ġriver": 5704,
      "ago": 5705,
      "Ġneg": 5706,
      "Ġcos": 5707,
      "Ġdelete": 5708,
      "Ġusa": 5709,
      "abil": 5710,
      "Ġjack": 5711,
      "Ġkick": 5712,
      "plan": 5713,
      "Ġbeats": 5714,
      "Ġalask": 5715,
      "Ġnotifications": 5716,
      "Ġcontact": 5717,
      "Ġlean": 5718,
      "Ġmyself": 5719,
      "Ġresur": 5720,
      "Ġturing": 5721,
      "Ġsurprise": 5722,
      "Ġextra": 5723,
      "Ġknew": 5724,
      "Ġswiss": 5725,
      "Ġretire": 5726,
      "Ġwrites": 5727,
      "Ġeverywhere": 5728,
      "Ġmaybe": 5729,
      "Ġ101": 5730,
      "Ġsignature": 5731,
      "Ġentreprene": 5732,
      "Ġreporting": 5733,
      "Ġoptimize": 5734,
      "made": 5735,
      "Ġwinning": 5736,
      "Ġdirector": 5737,
      "Ġmodules": 5738,
      "Ġnormal": 5739,
      "Ġfarm": 5740,
      "Ġhosted": 5741,
      "Ġhollywood": 5742,
      "Ġsanctions": 5743,
      "Ġacquires": 5744,
      "Ġpipelines": 5745,
      "Ġpublishers": 5746,
      "Ġcombinator": 5747,
      "Ġestate": 5748,
      "Ġrevealed": 5749,
      "Ġpredictions": 5750,
      "Ġrobust": 5751,
      "Ġmerge": 5752,
      "Ġnightmare": 5753,
      "Ġacademic": 5754,
      "Ġhabit": 5755,
      "Ġtaught": 5756,
      "Ġprototype": 5757,
      "Ġcensorship": 5758,
      "Ġexperiences": 5759,
      "Ġpremium": 5760,
      "Ġcrowdstrike": 5761,
      "piracy": 5762,
      "assisted": 5763,
      "Ġdepression": 5764,
      "Ġterraform": 5765,
      "Ġalzheimer": 5766,
      ".'": 5767,
      "bank": 5768,
      "ele": 5769,
      "gers": 5770,
      "hold": 5771,
      "note": 5772,
      "pse": 5773,
      "paper": 5774,
      "uits": 5775,
      "va": 5776,
      "water": 5777,
      "inst": 5778,
      "Ġporn": 5779,
      "Ġpocket": 5780,
      "Ġwes": 5781,
      "Ġhat": 5782,
      "Ġhob": 5783,
      "Ġbound": 5784,
      "Ġbull": 5785,
      "Ġdual": 5786,
      "Ġox": 5787,
      "Ġanatom": 5788,
      "Ġforms": 5789,
      "Ġforced": 5790,
      "Ġforgot": 5791,
      "etary": 5792,
      "Ġones": 5793,
      "amm": 5794,
      "Ġiphones": 5795,
      "idance": 5796,
      "idian": 5797,
      "Ġcompress": 5798,
      "active": 5799,
      "Ġoutside": 5800,
      "Ġimpress": 5801,
      "Ġreprodu": 5802,
      "Ġapollo": 5803,
      "Ġfees": 5804,
      "Ġtransport": 5805,
      "Ġturbo": 5806,
      "commer": 5807,
      "Ġtested": 5808,
      "Ġelite": 5809,
      "Ġpromot": 5810,
      "Ġanalog": 5811,
      "Ġproton": 5812,
      "Ġsociety": 5813,
      "Ġprompting": 5814,
      "Ġ95": 5815,
      "Ġgrant": 5816,
      "Ġfails": 5817,
      "Ġspecies": 5818,
      "Ġfedora": 5819,
      "Ġrestrict": 5820,
      "prec": 5821,
      "Ġfalls": 5822,
      "Ġsummer": 5823,
      "Ġimproves": 5824,
      "space": 5825,
      "Ġcharged": 5826,
      "Ġwiki": 5827,
      "Ġmenu": 5828,
      "Ġscams": 5829,
      "Ġpodcasts": 5830,
      "Ġmistake": 5831,
      "Ġmistakes": 5832,
      "Ġloops": 5833,
      "Ġelectronic": 5834,
      "Ġdependencies": 5835,
      "Ġfirmware": 5836,
      "Ġfloating": 5837,
      "Ġcsv": 5838,
      "Ġweapons": 5839,
      "built": 5840,
      "Ġchristmas": 5841,
      "Ġtensor": 5842,
      "Ġbacteria": 5843,
      "Ġanatomy": 5844,
      "22": 5845,
      "away": 5846,
      "hop": 5847,
      "ira": 5848,
      "lier": 5849,
      "pan": 5850,
      "vit": 5851,
      "Ġtale": 5852,
      "Ġtaste": 5853,
      "Ġss": 5854,
      "Ġsure": 5855,
      "Ġcad": 5856,
      "Ġcraft": 5857,
      "ona": 5858,
      "Ġfuzz": 5859,
      "Ġfears": 5860,
      "Ġwol": 5861,
      "Ġwine": 5862,
      "Ġwood": 5863,
      "Ġhop": 5864,
      "Ġhund": 5865,
      "Ġbought": 5866,
      "Ġdumb": 5867,
      "Ġdimens": 5868,
      "ales": 5869,
      "Ġlum": 5870,
      "Ġine": 5871,
      "Ġnost": 5872,
      "Ġreb": 5873,
      "Ġreference": 5874,
      "oles": 5875,
      "otic": 5876,
      "che": 5877,
      "Ġwhis": 5878,
      "Ġprove": 5879,
      "Ġnegot": 5880,
      "Ġneovim": 5881,
      "Ġcoded": 5882,
      "Ġcosm": 5883,
      "Ġmock": 5884,
      "aby": 5885,
      "Ġtricks": 5886,
      "Ġiter": 5887,
      "Ġunus": 5888,
      "Ġspatial": 5889,
      "Ġplus": 5890,
      "Ġplate": 5891,
      "Ġintent": 5892,
      "phere": 5893,
      "Ġinterfaces": 5894,
      "Ġresolution": 5895,
      "Ġheav": 5896,
      "Ġzone": 5897,
      "Ġdrives": 5898,
      "Ġhighest": 5899,
      "Ġartists": 5900,
      "Ġexposure": 5901,
      "shell": 5902,
      "Ġparser": 5903,
      "Ġbrands": 5904,
      "Ġplayground": 5905,
      "Ġcycl": 5906,
      "Ġaccessibility": 5907,
      "Ġvisualizing": 5908,
      "Ġmissile": 5909,
      "Ġtheme": 5910,
      "Ġstrategic": 5911,
      "Ġprinting": 5912,
      "Ġputting": 5913,
      "Ġfreel": 5914,
      "Ġconversational": 5915,
      "Ġmeetings": 5916,
      "Ġgreenland": 5917,
      "Ġsensor": 5918,
      "Ġremoval": 5919,
      "Ġpuzzles": 5920,
      "Ġexample": 5921,
      "Ġenvironmental": 5922,
      "Ġrouter": 5923,
      "contin": 5924,
      "Ġdoub": 5925,
      "Ġrecommendations": 5926,
      "Ġapproves": 5927,
      "Ġgarbage": 5928,
      "Ġomn": 5929,
      "Ġatomic": 5930,
      "Ġcaching": 5931,
      "tools": 5932,
      "Ġstanford": 5933,
      "Ġgaza": 5934,
      "Ġplasma": 5935,
      "ocalypse": 5936,
      "Ġfreedom": 5937,
      "Ġsyndrome": 5938,
      "Ġsummary": 5939,
      "brow": 5940,
      "dp": 5941,
      "dict": 5942,
      "high": 5943,
      "oen": 5944,
      "rt": 5945,
      "rant": 5946,
      "uj": 5947,
      "Ġtan": 5948,
      "Ġtank": 5949,
      "rete": 5950,
      "oriented": 5951,
      "Ġpiv": 5952,
      "Ġhier": 5953,
      "Ġhoney": 5954,
      "Ġddos": 5955,
      "Ġoz": 5956,
      "isms": 5957,
      "Ġshipping": 5958,
      "âĢĿ": 5959,
      "Ġchance": 5960,
      "Ġneo": 5961,
      "Ġcoverage": 5962,
      "Ġjam": 5963,
      "Ġjoy": 5964,
      "Ġens": 5965,
      "Ġtrace": 5966,
      "Ġcompile": 5967,
      "Ġunity": 5968,
      "Ġscandal": 5969,
      "Ġspain": 5970,
      "Ġasking": 5971,
      "angers": 5972,
      "Ġintu": 5973,
      "Ġcanon": 5974,
      "Ġgenius": 5975,
      "Ġorb": 5976,
      "Ġdevops": 5977,
      "Ġresol": 5978,
      "Ġworked": 5979,
      "ensity": 5980,
      "Ġsees": 5981,
      "Ġgov": 5982,
      "Ġautism": 5983,
      "Ġoverflow": 5984,
      "Ġhasn": 5985,
      "Ġmeg": 5986,
      "Ġguil": 5987,
      "Ġinfect": 5988,
      "Ġ400": 5989,
      "Ġstudies": 5990,
      "conf": 5991,
      "Ġcriminal": 5992,
      "Ġhighlights": 5993,
      "plete": 5994,
      "raining": 5995,
      "Ġsubst": 5996,
      "Ġstarter": 5997,
      "Ġguidelines": 5998,
      "Ġdemands": 5999,
      "rought": 6000,
      "Ġceos": 6001,
      "Ġannot": 6002,
      "Ġcommunities": 6003,
      "Ġlego": 6004,
      "Ġfilesystem": 6005,
      "Ġdetecting": 6006,
      "Ġmicropl": 6007,
      "Ġsummit": 6008,
      "Ġviews": 6009,
      "Ġhorizon": 6010,
      "Ġanimated": 6011,
      "Ġwallet": 6012,
      "Ġfacial": 6013,
      "Ġadventure": 6014,
      "Ġextraction": 6015,
      "Ġcollaborative": 6016,
      "Ġalleged": 6017,
      "Ġinstantly": 6018,
      "Ġorchestration": 6019,
      "Ġmirror": 6020,
      "Ġhallucinations": 6021,
      "Ġdatacenter": 6022,
      "Ġbootstra": 6023,
      "Ġdecentralized": 6024,
      "Ġsiri": 6025,
      "Ġsemiconductor": 6026,
      "Ġalaska": 6027,
      "elemetry": 6028,
      "400": 6029,
      "cope": 6030,
      "fun": 6031,
      "fire": 6032,
      "hour": 6033,
      "lor": 6034,
      "loc": 6035,
      "mac": 6036,
      "maker": 6037,
      "py": 6038,
      "sub": 6039,
      "yst": 6040,
      "Ġ~": 6041,
      "Ġaer": 6042,
      "inder": 6043,
      "Ġtum": 6044,
      "ered": 6045,
      "real": 6046,
      "Ġfer": 6047,
      "Ġfant": 6048,
      "Ġfold": 6049,
      "Ġfiction": 6050,
      "Ġfrag": 6051,
      "Ġpit": 6052,
      "Ġpra": 6053,
      "esity": 6054,
      "Ġwaves": 6055,
      "Ġhope": 6056,
      "Ġbund": 6057,
      "Ġdile": 6058,
      "Ġdement": 6059,
      "Ġdying": 6060,
      "aced": 6061,
      "omp": 6062,
      "Ġvo": 6063,
      "amental": 6064,
      "Ġchron": 6065,
      "Ġrid": 6066,
      "Ġrack": 6067,
      "ulf": 6068,
      "Ġdeals": 6069,
      "Ġjune": 6070,
      "Ġexcl": 6071,
      "Ġken": 6072,
      "Ġenable": 6073,
      "Ġtruck": 6074,
      "quake": 6075,
      "Ġcann": 6076,
      "Ġdoj": 6077,
      "Ġrow": 6078,
      "ibly": 6079,
      "sey": 6080,
      "Ġcontracts": 6081,
      "Ġquiz": 6082,
      "Ġdispl": 6083,
      "Ġemoj": 6084,
      "Ġgeneric": 6085,
      "Ġze": 6086,
      "Ġreconst": 6087,
      "Ġguidance": 6088,
      "Ġprogramm": 6089,
      "encing": 6090,
      "cla": 6091,
      "Ġxai": 6092,
      "apping": 6093,
      "Ġconspiracy": 6094,
      "Ġbrowsers": 6095,
      "Ġoption": 6096,
      "Ġperspective": 6097,
      "Ġwriter": 6098,
      "Ġowners": 6099,
      "Ġverify": 6100,
      "Ġlabel": 6101,
      "Ġstops": 6102,
      "Ġprofits": 6103,
      "Ġsilver": 6104,
      "Ġanalyze": 6105,
      "Ġfeder": 6106,
      "proof": 6107,
      "generation": 6108,
      "Ġdifference": 6109,
      "grad": 6110,
      "liner": 6111,
      "Ġpcs": 6112,
      "Ġfamous": 6113,
      "office": 6114,
      "breaking": 6115,
      "device": 6116,
      "Ġminimalist": 6117,
      "Ġethical": 6118,
      "Ġargent": 6119,
      "Ġnavigating": 6120,
      "Ġdamage": 6121,
      "Ġconfiguration": 6122,
      "Ġpatches": 6123,
      "Ġhistorical": 6124,
      "Ġcivilization": 6125,
      "Ġpartnership": 6126,
      "Ġdoctor": 6127,
      "Ġconcurrent": 6128,
      "Ġprecision": 6129,
      "Ġimmigration": 6130,
      "Ġryzen": 6131,
      "Ġexercise": 6132,
      "Ġqualcomm": 6133,
      "Ġocaml": 6134,
      "Ġopentelemetry": 6135,
      "Ġmilestone": 6136,
      "Ġtelescope": 6137,
      "Ġhypothesis": 6138,
      "commerce": 6139,
      "Ġdementia": 6140,
      "bet": 6141,
      "dc": 6142,
      "gment": 6143,
      "han": 6144,
      "wave": 6145,
      "Ġ`": 6146,
      "Ġarab": 6147,
      "inem": 6148,
      "Ġtack": 6149,
      "Ġsector": 6150,
      "oned": 6151,
      "orge": 6152,
      "Ġfp": 6153,
      "Ġfinger": 6154,
      "Ġped": 6155,
      "Ġhaw": 6156,
      "iter": 6157,
      "Ġbon": 6158,
      "isa": 6159,
      "Ġlu": 6160,
      "Ġlack": 6161,
      "eters": 6162,
      "igen": 6163,
      "Ġvar": 6164,
      "Ġrac": 6165,
      "Ġcoord": 6166,
      "Ġdeg": 6167,
      "Ġweigh": 6168,
      "pends": 6169,
      "anda": 6170,
      "istency": 6171,
      "Ġalone": 6172,
      "Ġunle": 6173,
      "Ġopening": 6174,
      "ried": 6175,
      "Ġrol": 6176,
      "Ġadobe": 6177,
      "Ġresil": 6178,
      "Ġtooling": 6179,
      "Ġworkload": 6180,
      "Ġ28": 6181,
      "Ġovert": 6182,
      "Ġflood": 6183,
      "Ġrecipe": 6184,
      "Ġfee": 6185,
      "Ġfeels": 6186,
      "Ġbackup": 6187,
      "Ġdecide": 6188,
      "click": 6189,
      "Ġpeak": 6190,
      "rich": 6191,
      "intellig": 6192,
      "Ġartist": 6193,
      "Ġexposes": 6194,
      "Ġremains": 6195,
      "Ġconsult": 6196,
      "Ġinspect": 6197,
      "Ġfunds": 6198,
      "Ġcurious": 6199,
      "Ġobesity": 6200,
      "Ġadvant": 6201,
      "Ġcausing": 6202,
      "Ġsignificant": 6203,
      "Ġsafari": 6204,
      "Ġsynchron": 6205,
      "Ġ99": 6206,
      "Ġadded": 6207,
      "Ġfrust": 6208,
      "Ġreactor": 6209,
      "Ġgemma": 6210,
      "Ġlayout": 6211,
      "Ġstorm": 6212,
      "Ġsmartphones": 6213,
      "Ġspecs": 6214,
      "Ġtempl": 6215,
      "Ġversions": 6216,
      "Ġshortage": 6217,
      "Ġsells": 6218,
      "Ġidentify": 6219,
      "Ġterrible": 6220,
      "Ġconnections": 6221,
      "Ġpanels": 6222,
      "Ġshuts": 6223,
      "Ġfundamental": 6224,
      "Ġauthorization": 6225,
      "Ġsensitive": 6226,
      "Ġmechanics": 6227,
      "Ġbalance": 6228,
      "Ġsequence": 6229,
      "ĠâĢľ": 6230,
      "Ġbulk": 6231,
      "Ġadaptive": 6232,
      "Ġreinforcement": 6233,
      "Ġevolving": 6234,
      "Ġempire": 6235,
      "Ġresponses": 6236,
      "Ġoctober": 6237,
      "Ġaffordable": 6238,
      "Ġhydrogen": 6239,
      "Ġrobotaxi": 6240,
      "Ġhierarch": 6241,
      "Ġdilem": 6242,
      "04": 6243,
      "audio": 6244,
      "cat": 6245,
      "cpp": 6246,
      "case": 6247,
      "cale": 6248,
      "ii": 6249,
      "iam": 6250,
      "iod": 6251,
      "long": 6252,
      "nd": 6253,
      "night": 6254,
      "pad": 6255,
      "pack": 6256,
      "post": 6257,
      "rint": 6258,
      "ya": 6259,
      "Ġ+": 6260,
      "Ġsounds": 6261,
      "Ġcia": 6262,
      "rey": 6263,
      "Ġfacts": 6264,
      "Ġpf": 6265,
      "Ġwis": 6266,
      "Ġmim": 6267,
      "Ġhua": 6268,
      "Ġthrow": 6269,
      "Ġdub": 6270,
      "Ġoauth": 6271,
      "Ġlect": 6272,
      "Ġlies": 6273,
      "store": 6274,
      "lets": 6275,
      "asm": 6276,
      "Ġshif": 6277,
      "Ġships": 6278,
      "eland": 6279,
      "Ġstake": 6280,
      "ada": 6281,
      "irty": 6282,
      "Ġexit": 6283,
      "Ġexternal": 6284,
      "Ġkim": 6285,
      "Ġappears": 6286,
      "ills": 6287,
      "Ġunex": 6288,
      "aping": 6289,
      "aint": 6290,
      "ellar": 6291,
      "acters": 6292,
      "Ġamiga": 6293,
      "Ġblow": 6294,
      "Ġworkplace": 6295,
      "Ġdescrib": 6296,
      "Ġmega": 6297,
      "Ġpercent": 6298,
      "iants": 6299,
      "Ġtransact": 6300,
      "Ġrealistic": 6301,
      "Ġmonet": 6302,
      "Ġboiler": 6303,
      "Ġsafer": 6304,
      "wei": 6305,
      "week": 6306,
      "Ġwarn": 6307,
      "Ġdesigns": 6308,
      "rained": 6309,
      "Ġslash": 6310,
      "Ġarchives": 6311,
      "2006": 6312,
      "iously": 6313,
      "Ġerlang": 6314,
      "Ġvisualize": 6315,
      "Ġregular": 6316,
      "Ġregulation": 6317,
      "Ġgraphene": 6318,
      "Ġreactive": 6319,
      "certain": 6320,
      "Ġkills": 6321,
      "Ġsample": 6322,
      "Ġanalyst": 6323,
      "Ġwinds": 6324,
      "Ġepis": 6325,
      "Ġcharacters": 6326,
      "Ġclients": 6327,
      "Ġreduces": 6328,
      "spec": 6329,
      "Ġllvm": 6330,
      "Ġcolorado": 6331,
      "fficient": 6332,
      "Ġconsumers": 6333,
      "Ġsheet": 6334,
      "Ġiceberg": 6335,
      "Ġicons": 6336,
      "Ġmechanical": 6337,
      "Ġbroadband": 6338,
      "Ġtailwind": 6339,
      "Ġisraeli": 6340,
      "guard": 6341,
      "Ġgauss": 6342,
      "Ġangel": 6343,
      "Ġhistoric": 6344,
      "Ġobsidian": 6345,
      "Ġhabits": 6346,
      "know": 6347,
      "Ġdiagrams": 6348,
      "Ġwearable": 6349,
      "Ġrethinking": 6350,
      "Ġtransparency": 6351,
      "Ġrivals": 6352,
      "Ġcontroversial": 6353,
      "quantum": 6354,
      "human": 6355,
      "doc": 6356,
      "dollar": 6357,
      "hr": 6358,
      "ipped": 6359,
      "mx": 6360,
      "ped": 6361,
      "pay": 6362,
      "rator": 6363,
      "uing": 6364,
      "vin": 6365,
      "xiv": 6366,
      "Ġau": 6367,
      "inary": 6368,
      "Ġsick": 6369,
      "Ġcer": 6370,
      "Ġcast": 6371,
      "organ": 6372,
      "Ġfif": 6373,
      "ately": 6374,
      "Ġpig": 6375,
      "itation": 6376,
      "Ġbbc": 6377,
      "Ġocc": 6378,
      "Ġlists": 6379,
      "Ġgiants": 6380,
      "Ġnu": 6381,
      "Ġner": 6382,
      "Ġoften": 6383,
      "demic": 6384,
      "Ġug": 6385,
      "Ġstats": 6386,
      "olar": 6387,
      "chem": 6388,
      "Ġwhist": 6389,
      "amin": 6390,
      "Ġchick": 6391,
      "Ġrum": 6392,
      "agement": 6393,
      "Ġio": 6394,
      "unds": 6395,
      "unge": 6396,
      "umn": 6397,
      "earth": 6398,
      "Ġenabling": 6399,
      "Ġtrials": 6400,
      "Ġspan": 6401,
      "Ġasks": 6402,
      "Ġleap": 6403,
      "Ġresult": 6404,
      "Ġability": 6405,
      "Ġabuse": 6406,
      "Ġ27": 6407,
      "Ġseason": 6408,
      "Ġtrains": 6409,
      "Ġrecycl": 6410,
      "Ġbackdoor": 6411,
      "Ġdeck": 6412,
      "boot": 6413,
      "clip": 6414,
      "Ġinvol": 6415,
      "Ġartif": 6416,
      "comes": 6417,
      "Ġelimin": 6418,
      "Ġserving": 6419,
      "icted": 6420,
      "velte": 6421,
      "Ġframe": 6422,
      "Ġvalve": 6423,
      "Ġsubstack": 6424,
      "fully": 6425,
      "scrib": 6426,
      "Ġreplication": 6427,
      "Ġdistance": 6428,
      "Ġcapable": 6429,
      "Ġdelta": 6430,
      "Ġhealthy": 6431,
      "Ġprofiles": 6432,
      "Ġlandscape": 6433,
      "profit": 6434,
      "Ġmiles": 6435,
      "Ġpreser": 6436,
      "Ġmonthly": 6437,
      "Ġexperiments": 6438,
      "Ġpushing": 6439,
      "Ġplugins": 6440,
      "Ġleaks": 6441,
      "Ġpaths": 6442,
      "Ġfriendly": 6443,
      "Ġacquired": 6444,
      "Ġinvestigating": 6445,
      "Ġcounting": 6446,
      "liest": 6447,
      "Ġfootball": 6448,
      "Ġdatasets": 6449,
      "Ġqueue": 6450,
      "engineering": 6451,
      "Ġinitial": 6452,
      "Ġrelationship": 6453,
      "Ġalien": 6454,
      "Ġassociated": 6455,
      "Ġastronauts": 6456,
      "Ġdefinition": 6457,
      "Ġphysicists": 6458,
      "Ġgarden": 6459,
      "Ġearnings": 6460,
      "oenix": 6461,
      "Ġdilemma": 6462,
      "cam": 6463,
      "city": 6464,
      "den": 6465,
      "dig": 6466,
      "dog": 6467,
      "fts": 6468,
      "foc": 6469,
      "mi": 6470,
      "nb": 6471,
      "sen": 6472,
      "sized": 6473,
      "ties": 6474,
      "uum": 6475,
      "zos": 6476,
      "Ġtact": 6477,
      "rec": 6478,
      "Ġpair": 6479,
      "Ġpaste": 6480,
      "Ġww": 6481,
      "Ġmother": 6482,
      "Ġble": 6483,
      "Ġbag": 6484,
      "Ġbros": 6485,
      "Ġbount": 6486,
      "Ġdc": 6487,
      "Ġdos": 6488,
      "Ġdys": 6489,
      "Ġoh": 6490,
      "Ġluc": 6491,
      "icity": 6492,
      "Ġgri": 6493,
      "Ġnom": 6494,
      "Ġford": 6495,
      "Ġaid": 6496,
      "Ġvit": 6497,
      "urch": 6498,
      "Ġrh": 6499,
      "Ġrce": 6500,
      "Ġiq": 6501,
      "Ġasci": 6502,
      "Ġcores": 6503,
      "pty": 6504,
      "abase": 6505,
      "Ġjs": 6506,
      "Ġjump": 6507,
      "acker": 6508,
      "Ġexcept": 6509,
      "Ġclosing": 6510,
      "essage": 6511,
      "Ġappl": 6512,
      "Ġtrib": 6513,
      "Ġtracing": 6514,
      "Ġcompact": 6515,
      "apore": 6516,
      "2026": 6517,
      "Ġatmos": 6518,
      "Ġcancell": 6519,
      "Ġsup": 6520,
      "Ġarbit": 6521,
      "Ġarray": 6522,
      "sequ": 6523,
      "irection": 6524,
      "Ġworker": 6525,
      "Ġworkforce": 6526,
      "Ġ35": 6527,
      "Ġcommits": 6528,
      "sert": 6529,
      "server": 6530,
      "Ġsolves": 6531,
      "Ġproduce": 6532,
      "Ġdesigner": 6533,
      "Ġjustice": 6534,
      "Ġinstruction": 6535,
      "aze": 6536,
      "Ġswarm": 6537,
      "Ġbrowse": 6538,
      "Ġskept": 6539,
      "Ġpok": 6540,
      "Ġplayers": 6541,
      "Ġadvis": 6542,
      "Ġadvance": 6543,
      "Ġownership": 6544,
      "2004": 6545,
      "law": 6546,
      "Ġdemonst": 6547,
      "Ġsteel": 6548,
      "Ġreliability": 6549,
      "ength": 6550,
      "Ġ2020": 6551,
      "Ġrent": 6552,
      "Ġastro": 6553,
      "Ġmagaz": 6554,
      "Ġchecking": 6555,
      "trans": 6556,
      "minute": 6557,
      "Ġpope": 6558,
      "Ġbanking": 6559,
      "Ġconnection": 6560,
      "Ġprotecting": 6561,
      "Ġcompete": 6562,
      "Ġdocumentary": 6563,
      "Ġcultural": 6564,
      "Ġmathematic": 6565,
      "Ġbegins": 6566,
      "Ġsubscriptions": 6567,
      "Ġbillionaires": 6568,
      "Ġfaa": 6569,
      "Ġspreadsheet": 6570,
      "Ġtitan": 6571,
      "Ġneuro": 6572,
      "Ġjuly": 6573,
      "Ġjulia": 6574,
      "Ġaccurate": 6575,
      "Ġrequirements": 6576,
      "Ġconcurrency": 6577,
      "Ġwrapper": 6578,
      "Ġharmful": 6579,
      "Ġadvertising": 6580,
      "Ġpicture": 6581,
      "Ġargument": 6582,
      "Ġcryst": 6583,
      "Ġcosmic": 6584,
      "browser": 6585,
      "Ġargentina": 6586,
      "Ġhuawei": 6587,
      "250": 6588,
      "33": 6589,
      "aws": 6590,
      "cost": 6591,
      "data": 6592,
      "fy": 6593,
      "missions": 6594,
      "pf": 6595,
      "tb": 6596,
      "wid": 6597,
      "wise": 6598,
      "zuel": 6599,
      "Ġaverage": 6600,
      "Ġtil": 6601,
      "Ġties": 6602,
      "Ġsor": 6603,
      "Ġsag": 6604,
      "Ġsad": 6605,
      "Ġsvelte": 6606,
      "Ġft": 6607,
      "Ġfan": 6608,
      "Ġfool": 6609,
      "Ġpiz": 6610,
      "Ġwiz": 6611,
      "Ġmc": 6612,
      "Ġbed": 6613,
      "Ġborrow": 6614,
      "Ġthiel": 6615,
      "Ġdoll": 6616,
      "Ġocr": 6617,
      "Ġlux": 6618,
      "edel": 6619,
      "icip": 6620,
      "asion": 6621,
      "Ġstone": 6622,
      "Ġyaml": 6623,
      "Ġvect": 6624,
      "Ġvene": 6625,
      "Ġchamp": 6626,
      "Ġchecks": 6627,
      "Ġasia": 6628,
      "Ġcoder": 6629,
      "Ġdeprec": 6630,
      "adata": 6631,
      "Ġjit": 6632,
      "Ġjup": 6633,
      "earing": 6634,
      "ocation": 6635,
      "Ġexc": 6636,
      "Ġkong": 6637,
      "Ġkarp": 6638,
      "Ġenables": 6639,
      "Ġuncertain": 6640,
      "Ġarena": 6641,
      "ounding": 6642,
      "Ġsuicide": 6643,
      "Ġarctic": 6644,
      "Ġroles": 6645,
      "Ġblame": 6646,
      "Ġdiscontin": 6647,
      "obs": 6648,
      "Ġempty": 6649,
      "Ġautop": 6650,
      "Ġlinus": 6651,
      "odb": 6652,
      "Ġperiod": 6653,
      "Ġmetadata": 6654,
      "Ġsms": 6655,
      "Ġlearns": 6656,
      "Ġ48": 6657,
      "Ġmining": 6658,
      "Ġsaw": 6659,
      "Ġsaudi": 6660,
      "Ġpowering": 6661,
      "Ġknows": 6662,
      "Ġmember": 6663,
      "Ġmicroserv": 6664,
      "Ġplanned": 6665,
      "Ġbright": 6666,
      "Ġconsistent": 6667,
      "Ġconsistency": 6668,
      "Ġlifetime": 6669,
      "Ġskin": 6670,
      "Ġpartial": 6671,
      "Ġvalues": 6672,
      "Ġcurl": 6673,
      "Ġplaybook": 6674,
      "Ġelections": 6675,
      "Ġsupercomputer": 6676,
      "Ġbills": 6677,
      "Ġregistry": 6678,
      "Ġcaps": 6679,
      "Ġantib": 6680,
      "Ġrelated": 6681,
      "Ġsmallest": 6682,
      "Ġlegend": 6683,
      "Ġcorrupt": 6684,
      "Ġsingapore": 6685,
      "Ġbiological": 6686,
      "Ġtransforming": 6687,
      "Ġgreatest": 6688,
      "Ġversus": 6689,
      "Ġradar": 6690,
      "Ġnorway": 6691,
      "Ġdifferences": 6692,
      "Ġsucks": 6693,
      "linux": 6694,
      "bye": 6695,
      "Ġwatching": 6696,
      "Ġfrequ": 6697,
      "what": 6698,
      "Ġsalesforce": 6699,
      "Ġnavy": 6700,
      "Ġindexing": 6701,
      "Ġvolcan": 6702,
      "Ġscripting": 6703,
      "Ġcrashes": 6704,
      "Ġconsumption": 6705,
      "Ġcontinues": 6706,
      "Ġtower": 6707,
      "Ġtariff": 6708,
      "Ġcrowds": 6709,
      "Ġenhance": 6710,
      "Ġschedule": 6711,
      "Ġincluding": 6712,
      "Ġvaccines": 6713,
      "Ġwalking": 6714,
      "Ġparking": 6715,
      "Ġexploration": 6716,
      "Ġmixt": 6717,
      "Ġanalyzing": 6718,
      "Ġranking": 6719,
      "Ġpiracy": 6720,
      "Ġdrawing": 6721,
      "Ġhurric": 6722,
      "Ġrfc": 6723,
      "Ġspectrum": 6724,
      "Ġscenes": 6725,
      "Ġsweden": 6726,
      "Ġextinction": 6727,
      "Ġmonopoly": 6728,
      "Ġnegative": 6729,
      "Ġwestern": 6730,
      "Ġfantasy": 6731,
      "Ġvenezuel": 6732,
      "21": 6733,
      "700": 6734,
      "aid": 6735,
      "di": 6736,
      "field": 6737,
      "truck": 6738,
      "Ġaur": 6739,
      "Ġtap": 6740,
      "Ġfash": 6741,
      "Ġpm": 6742,
      "Ġposs": 6743,
      "Ġmine": 6744,
      "Ġho": 6745,
      "Ġdm": 6746,
      "road": 6747,
      "Ġluck": 6748,
      "Ġlua": 6749,
      "Ġinner": 6750,
      "oust": 6751,
      "Ġgb": 6752,
      "Ġgh": 6753,
      "Ġgm": 6754,
      "Ġnamed": 6755,
      "Ġeight": 6756,
      "Ġelement": 6757,
      "Ġrepe": 6758,
      "ethe": 6759,
      "Ġstole": 6760,
      "imm": 6761,
      "Ġvill": 6762,
      "charg": 6763,
      "Ġyouth": 6764,
      "Ġkan": 6765,
      "Ġclocks": 6766,
      "Ġending": 6767,
      "Ġbezos": 6768,
      "Ġalter": 6769,
      "Ġopenapi": 6770,
      "Ġplaces": 6771,
      "asts": 6772,
      "mental": 6773,
      "izable": 6774,
      "anta": 6775,
      "Ġgender": 6776,
      "Ġnotice": 6777,
      "Ġprs": 6778,
      "Ġwebr": 6779,
      "Ġseems": 6780,
      "Ġserial": 6781,
      "Ġflux": 6782,
      "Ġflights": 6783,
      "Ġtraditional": 6784,
      "Ġevil": 6785,
      "Ġevals": 6786,
      "Ġzip": 6787,
      "oded": 6788,
      "Ġcolors": 6789,
      "Ġsimd": 6790,
      "Ġtranscription": 6791,
      "cli": 6792,
      "Ġpolar": 6793,
      "Ġmemor": 6794,
      "Ġconsent": 6795,
      "Ġactor": 6796,
      "iverse": 6797,
      "Ġeveryday": 6798,
      "Ġtracks": 6799,
      "2005": 6800,
      "Ġcontroller": 6801,
      "manent": 6802,
      "Ġaccessible": 6803,
      "Ġdistill": 6804,
      "Ġregulator": 6805,
      "Ġgeo": 6806,
      "Ġlands": 6807,
      "Ġaudi": 6808,
      "Ġtakeover": 6809,
      "Ġportal": 6810,
      "Ġearthquake": 6811,
      "Ġbiology": 6812,
      "Ġarchitectures": 6813,
      "Ġforens": 6814,
      "Ġfeeds": 6815,
      "Ġstreams": 6816,
      "Ġshortc": 6817,
      "Ġblogging": 6818,
      "Ġprinter": 6819,
      "works": 6820,
      "Ġreduction": 6821,
      "kyo": 6822,
      "Ġtaxes": 6823,
      "Ġdeaths": 6824,
      "Ġdeploying": 6825,
      "Ġorganic": 6826,
      "Ġpandemic": 6827,
      "Ġcompetitive": 6828,
      "Ġsends": 6829,
      "Ġconversion": 6830,
      "Ġexploited": 6831,
      "Ġacquire": 6832,
      "Ġaccelerate": 6833,
      "Ġaccelerating": 6834,
      "Ġdeno": 6835,
      "Ġlaptops": 6836,
      "Ġdreams": 6837,
      "Ġjournalism": 6838,
      "Ġpsychedel": 6839,
      "Ġinfluenc": 6840,
      "Ġmaxim": 6841,
      "ilingual": 6842,
      "Ġtrend": 6843,
      "Ġbeauty": 6844,
      "Ġsonnet": 6845,
      "Ġfossil": 6846,
      "Ġallowed": 6847,
      "Ġconsidered": 6848,
      "Ġlatex": 6849,
      "Ġprinted": 6850,
      "known": 6851,
      "Ġdoctors": 6852,
      "Ġstraight": 6853,
      "Ġnarr": 6854,
      "Ġdeepfake": 6855,
      "Ġbottlen": 6856,
      "Ġmagnetic": 6857,
      "Ġcompromised": 6858,
      "Ġlicensing": 6859,
      "Ġcandidate": 6860,
      "Ġfabric": 6861,
      "Ġairbnb": 6862,
      "orphic": 6863,
      "Ġmedicine": 6864,
      "Ġconflict": 6865,
      "Ġlithium": 6866,
      "Ġguilty": 6867,
      "intelligence": 6868,
      "Ġadvantage": 6869,
      "88": 6870,
      "bal": 6871,
      "col": 6872,
      "cache": 6873,
      "files": 6874,
      "goo": 6875,
      "gov": 6876,
      "lation": 6877,
      "loud": 6878,
      "oor": 6879,
      "ses": 6880,
      "tw": 6881,
      "txt": 6882,
      "vision": 6883,
      "wright": 6884,
      "Ġtaken": 6885,
      "Ġsabot": 6886,
      "Ġcn": 6887,
      "Ġcto": 6888,
      "rele": 6889,
      "reds": 6890,
      "ingu": 6891,
      "Ġmile": 6892,
      "Ġhaven": 6893,
      "Ġbing": 6894,
      "Ġbang": 6895,
      "Ġbits": 6896,
      "Ġthunder": 6897,
      "rooms": 6898,
      "Ġliv": 6899,
      "Ġtokyo": 6900,
      "Ġgain": 6901,
      "Ġgram": 6902,
      "Ġech": 6903,
      "ented": 6904,
      "Ġforge": 6905,
      "Ġuv": 6906,
      "oming": 6907,
      "Ġshed": 6908,
      "Ġsharp": 6909,
      "elt": 6910,
      "Ġsty": 6911,
      "Ġstem": 6912,
      "erson": 6913,
      "Ġvms": 6914,
      "Ġvault": 6915,
      "Ġchapter": 6916,
      "thy": 6917,
      "thread": 6918,
      "osa": 6919,
      "abis": 6920,
      "abol": 6921,
      "Ġjunk": 6922,
      "Ġconvent": 6923,
      "Ġkitch": 6924,
      "ifier": 6925,
      "Ġbust": 6926,
      "Ġalco": 6927,
      "Ġscott": 6928,
      "astroph": 6929,
      "Ġsued": 6930,
      "Ġrog": 6931,
      "Ġwebgpu": 6932,
      "Ġ2022": 6933,
      "Ġemb": 6934,
      "Ġempower": 6935,
      "Ġable": 6936,
      "coder": 6937,
      "Ġsept": 6938,
      "Ġselection": 6939,
      "Ġphoenix": 6940,
      "ereum": 6941,
      "Ġrab": 6942,
      "Ġraised": 6943,
      "Ġflock": 6944,
      "Ġsystemd": 6945,
      "Ġimpacts": 6946,
      "Ġbetting": 6947,
      "ucks": 6948,
      "Ġbacked": 6949,
      "Ġfinder": 6950,
      "Ġvisit": 6951,
      "connect": 6952,
      "Ġglitch": 6953,
      "Ġcarry": 6954,
      "Ġcouldn": 6955,
      "Ġremain": 6956,
      "Ġattract": 6957,
      "Ġwasn": 6958,
      "Ġpromote": 6959,
      "Ġactually": 6960,
      "Ġtwice": 6961,
      "Ġdefend": 6962,
      "Ġsupporting": 6963,
      "Ġentropy": 6964,
      "Ġverified": 6965,
      "Ġmario": 6966,
      "Ġantar": 6967,
      "Ġ197": 6968,
      "tenance": 6969,
      "Ġassistance": 6970,
      "Ġvibec": 6971,
      "Ġ2030": 6972,
      "Ġrequires": 6973,
      "Ġvirus": 6974,
      "Ġwinter": 6975,
      "Ġescal": 6976,
      "ditions": 6977,
      "Ġvulkan": 6978,
      "mode": 6979,
      "valds": 6980,
      "value": 6981,
      "Ġhappening": 6982,
      "Ġhorm": 6983,
      "Ġsheets": 6984,
      "Ġburning": 6985,
      "Ġanimals": 6986,
      "Ġscanning": 6987,
      "Ġimportance": 6988,
      "Ġcomplicated": 6989,
      "Ġethereum": 6990,
      "Ġtorvalds": 6991,
      "Ġrewrite": 6992,
      "Ġlimitations": 6993,
      "Ġgnome": 6994,
      "Ġchoosing": 6995,
      "Ġfigure": 6996,
      "Ġbirthday": 6997,
      "Ġpulls": 6998,
      "Ġmastering": 6999,
      "Ġelements": 7000,
      "Ġallegedly": 7001,
      "Ġsavings": 7002,
      "Ġspyware": 7003,
      "Ġacadem": 7004,
      "Ġdawn": 7005,
      "Ġharvest": 7006,
      "Ġforecasting": 7007,
      "Ġiniti": 7008,
      "Ġtomorrow": 7009,
      "Ġdragon": 7010,
      "Ġsuccessfully": 7011,
      "Ġhunting": 7012,
      "Ġsettlement": 7013,
      "Ġsnowfl": 7014,
      "ginx": 7015,
      "Ġdeleted": 7016,
      "Ġaggregator": 7017,
      "Ġmurder": 7018,
      "Ġfurther": 7019,
      "Ġstructural": 7020,
      "Ġupload": 7021,
      "speed": 7022,
      "Ġheavy": 7023,
      "Ġwhistle": 7024,
      "focused": 7025,
      "Ġmicroservices": 7026,
      "Ġalcohol": 7027,
      "29": 7028,
      "800": 7029,
      "bur": 7030,
      "bug": 7031,
      "cil": 7032,
      "date": 7033,
      "fc": 7034,
      "gery": 7035,
      "nm": 7036,
      "oint": 7037,
      "pot": 7038,
      "rical": 7039,
      "sk": 7040,
      "sourced": 7041,
      "tf": 7042,
      "taking": 7043,
      "uro": 7044,
      "ura": 7045,
      "uation": 7046,
      "uid": 7047,
      "uge": 7048,
      "zz": 7049,
      "Ġath": 7050,
      "Ġaware": 7051,
      "Ġsota": 7052,
      "onald": 7053,
      "rect": 7054,
      "orp": 7055,
      "orter": 7056,
      "env": 7057,
      "Ġfault": 7058,
      "Ġfiber": 7059,
      "Ġpun": 7060,
      "Ġpest": 7061,
      "Ġpill": 7062,
      "Ġpse": 7063,
      "Ġpurs": 7064,
      "Ġmd": 7065,
      "Ġmang": 7066,
      "Ġmull": 7067,
      "Ġmcd": 7068,
      "Ġbun": 7069,
      "Ġbell": 7070,
      "Ġdump": 7071,
      "Ġdensity": 7072,
      "Ġot": 7073,
      "Ġthems": 7074,
      "Ġanom": 7075,
      "Ġanime": 7076,
      "Ġgle": 7077,
      "Ġgift": 7078,
      "Ġnginx": 7079,
      "Ġreform": 7080,
      "dex": 7081,
      "etics": 7082,
      "Ġshot": 7083,
      "Ġstuck": 7084,
      "imited": 7085,
      "Ġvend": 7086,
      "urf": 7087,
      "Ġchurch": 7088,
      "tery": 7089,
      "Ġcock": 7090,
      "Ġdee": 7091,
      "Ġconsequ": 7092,
      "ocur": 7093,
      "Ġkv": 7094,
      "Ġclar": 7095,
      "Ġalarm": 7096,
      "Ġunc": 7097,
      "Ġscroll": 7098,
      "Ġspell": 7099,
      "rian": 7100,
      "riers": 7101,
      "Ġroy": 7102,
      "Ġrobert": 7103,
      "Ġlever": 7104,
      "Ġambit": 7105,
      "Ġabs": 7106,
      "ensen": 7107,
      "Ġsecuring": 7108,
      "Ġtrail": 7109,
      "Ġpermanent": 7110,
      "Ġsoftbank": 7111,
      "Ġmuscle": 7112,
      "Ġdeclare": 7113,
      "Ġfines": 7114,
      "Ġposting": 7115,
      "Ġxbox": 7116,
      "ricks": 7117,
      "Ġunderground": 7118,
      "Ġexposing": 7119,
      "Ġmultip": 7120,
      "Ġasset": 7121,
      "Ġdonald": 7122,
      "Ġfoundations": 7123,
      "2003": 7124,
      "Ġgoodbye": 7125,
      "Ġformula": 7126,
      "Ġrelig": 7127,
      "Ġgenerators": 7128,
      "Ġsne": 7129,
      "Ġcommunications": 7130,
      "Ġgrows": 7131,
      "Ġgeorge": 7132,
      "Ġbookmark": 7133,
      "Ġlawmakers": 7134,
      "Ġblocked": 7135,
      "Ġdealing": 7136,
      "Ġlimited": 7137,
      "Ġsaying": 7138,
      "Ġinteraction": 7139,
      "Ġcybertruck": 7140,
      "Ġreduced": 7141,
      "Ġultr": 7142,
      "Ġorganize": 7143,
      "Ġteacher": 7144,
      "Ġheard": 7145,
      "Ġhearing": 7146,
      "Ġacceleration": 7147,
      "Ġnato": 7148,
      "Ġhorse": 7149,
      "brew": 7150,
      "Ġemerging": 7151,
      "Ġillusion": 7152,
      "Ġfewer": 7153,
      "Ġvalidate": 7154,
      "Ġtelecom": 7155,
      "Ġnixos": 7156,
      "Ġelev": 7157,
      "Ġvaluable": 7158,
      "Ġparadigm": 7159,
      "Ġmythos": 7160,
      "Ġtitle": 7161,
      "Ġbullet": 7162,
      "building": 7163,
      "Ġstealing": 7164,
      "Ġflags": 7165,
      "Ġegg": 7166,
      "Ġimplications": 7167,
      "Ġchannels": 7168,
      "Ġleaderboard": 7169,
      "Ġlovable": 7170,
      "Ġtoyota": 7171,
      "frame": 7172,
      "Ġstruggling": 7173,
      "Ġtrouble": 7174,
      "Ġscreenshots": 7175,
      "Ġcowork": 7176,
      "Ġcompatibility": 7177,
      "Ġmvp": 7178,
      "Ġdepth": 7179,
      "Ġappeal": 7180,
      "Ġvacuum": 7181,
      "Ġdeclarative": 7182,
      "Ġrecursive": 7183,
      "Ġreproduc": 7184,
      "Ġwhisper": 7185,
      "Ġmicroplastics": 7186,
      "claude": 7187,
      "Ġunleash": 7188,
      "Ġtemplates": 7189,
      "Ġboilerplate": 7190,
      "width": 7191,
      "Ġwebrtc": 7192,
      "Ġthemselves": 7193,
      "48": 7194,
      "cap": 7195,
      "css": 7196,
      "eor": 7197,
      "elect": 7198,
      "found": 7199,
      "gro": 7200,
      "gets": 7201,
      "ias": 7202,
      "loss": 7203,
      "mob": 7204,
      "miss": 7205,
      "master": 7206,
      "prom": 7207,
      "rd": 7208,
      "rid": 7209,
      "rations": 7210,
      "sim": 7211,
      "sign": 7212,
      "tps": 7213,
      "uage": 7214,
      "vant": 7215,
      "Ġ>": 7216,
      "Ġcub": 7217,
      "Ġfans": 7218,
      "Ġfields": 7219,
      "Ġports": 7220,
      "esth": 7221,
      "esign": 7222,
      "Ġmt": 7223,
      "Ġhired": 7224,
      "Ġhiding": 7225,
      "any": 7226,
      "Ġbow": 7227,
      "Ġthom": 7228,
      "alg": 7229,
      "Ġlag": 7230,
      "icial": 7231,
      "Ġrejects": 7232,
      "det": 7233,
      "Ġshock": 7234,
      "Ġstall": 7235,
      "olith": 7236,
      "otlin": 7237,
      "Ġchair": 7238,
      "Ġride": 7239,
      "idering": 7240,
      "uls": 7241,
      "Ġjira": 7242,
      "Ġconserv": 7243,
      "Ġclip": 7244,
      "Ġagree": 7245,
      "plane": 7246,
      "Ġscene": 7247,
      "Ġplays": 7248,
      "ortex": 7249,
      "Ġwebh": 7250,
      "Ġdisinformation": 7251,
      "ension": 7252,
      "ulture": 7253,
      "Ġfeb": 7254,
      "Ġdrift": 7255,
      "Ġdrinking": 7256,
      "Ġdecept": 7257,
      "Ġxp": 7258,
      "Ġexplan": 7259,
      "Ġpeace": 7260,
      "cons": 7261,
      "context": 7262,
      "Ġcrm": 7263,
      "Ġcrush": 7264,
      "Ġhighlight": 7265,
      "Ġbuilders": 7266,
      "Ġgravit": 7267,
      "Ġassets": 7268,
      "Ġclouds": 7269,
      "Ġmacro": 7270,
      "Ġbrowsing": 7271,
      "orders": 7272,
      "Ġreads": 7273,
      "Ġreaders": 7274,
      "Ġtechnique": 7275,
      "Ġmostly": 7276,
      "Ġwriters": 7277,
      "Ġentry": 7278,
      "Ġinvestor": 7279,
      "Ġbusy": 7280,
      "Ġformats": 7281,
      "Ġvertical": 7282,
      "Ġfrank": 7283,
      "Ġhandbook": 7284,
      "Ġdiet": 7285,
      "Ġhtmx": 7286,
      "Ġauthors": 7287,
      "Ġlayers": 7288,
      "Ġlandmark": 7289,
      "Ġcollaps": 7290,
      "Ġpropag": 7291,
      "Ġeffectiveness": 7292,
      "Ġcybercr": 7293,
      "Ġmillenn": 7294,
      "Ġfarms": 7295,
      "Ġcellular": 7296,
      "Ġconverting": 7297,
      "Ġhomeless": 7298,
      "Ġroads": 7299,
      "Ġinflation": 7300,
      "1999": 7301,
      "Ġpainting": 7302,
      "Ġscammers": 7303,
      "Ġsensors": 7304,
      "Ġdenmark": 7305,
      "Ġsurvival": 7306,
      "Ġfeeling": 7307,
      "Ġrecommendation": 7308,
      "Ġapproved": 7309,
      "Ġdetailed": 7310,
      "Ġpicking": 7311,
      "compat": 7312,
      "Ġbeginner": 7313,
      "riction": 7314,
      "Ġbluep": 7315,
      "Ġsummaries": 7316,
      "Ġcdc": 7317,
      "printed": 7318,
      "Ġvmware": 7319,
      "Ġdaniel": 7320,
      "Ġscheduler": 7321,
      "Ġdeepfakes": 7322,
      "Ġmartin": 7323,
      "Ġdiversity": 7324,
      "Ġpoisoning": 7325,
      "Ġliterature": 7326,
      "Ġsovereignty": 7327,
      "Ġdrama": 7328,
      "Ġemotional": 7329,
      "brains": 7330,
      "Ġabstraction": 7331,
      "Ġclinical": 7332,
      "Ġneighbor": 7333,
      "Ġpacific": 7334,
      "Ġtrigger": 7335,
      "Ġincreasingly": 7336,
      "Ġruling": 7337,
      "Ġsuddenly": 7338,
      "Ġcredentials": 7339,
      "Ġforgotten": 7340,
      "Ġinequality": 7341,
      "Ġpivot": 7342,
      "Ġvarious": 7343,
      "Ġunexpected": 7344,
      "Ġdollars": 7345,
      "Ġfashion": 7346,
      "Ġsnowflake": 7347,
      "big": 7348,
      "efficient": 7349,
      "fare": 7350,
      "gate": 7351,
      "hal": 7352,
      "ipl": 7353,
      "kb": 7354,
      "lists": 7355,
      "mux": 7356,
      "sf": 7357,
      "tit": 7358,
      "vector": 7359,
      "wa": 7360,
      "zero": 7361,
      "Ġtid": 7362,
      "Ġtier": 7363,
      "Ġtls": 7364,
      "Ġsig": 7365,
      "Ġhung": 7366,
      "Ġbip": 7367,
      "Ġbond": 7368,
      "Ġbrought": 7369,
      "Ġoxy": 7370,
      "arks": 7371,
      "Ġlite": 7372,
      "icago": 7373,
      "Ġtops": 7374,
      "Ġgt": 7375,
      "str": 7376,
      "stone": 7377,
      "etimes": 7378,
      "ecess": 7379,
      "iment": 7380,
      "Ġvon": 7381,
      "ivation": 7382,
      "ither": 7383,
      "otes": 7384,
      "Ġwhale": 7385,
      "Ġwhales": 7386,
      "Ġprosec": 7387,
      "Ġchose": 7388,
      "Ġrig": 7389,
      "Ġrip": 7390,
      "agen": 7391,
      "Ġire": 7392,
      "Ġiot": 7393,
      "ppers": 7394,
      "employ": 7395,
      "Ġnex": 7396,
      "ulate": 7397,
      "user": 7398,
      "Ġjensen": 7399,
      "Ġconditions": 7400,
      "ocom": 7401,
      "Ġbuck": 7402,
      "Ġencoding": 7403,
      "Ġworried": 7404,
      "Ġitaly": 7405,
      "Ġitems": 7406,
      "uster": 7407,
      "Ġunp": 7408,
      "Ġscar": 7409,
      "Ġscans": 7410,
      "mentation": 7411,
      "Ġoral": 7412,
      "Ġreserve": 7413,
      "ava": 7414,
      "Ġdisput": 7415,
      "Ġdiscovers": 7416,
      "Ġseam": 7417,
      "Ġrain": 7418,
      "Ġmicrop": 7419,
      "Ġrecruit": 7420,
      "Ġrepet": 7421,
      "Ġmeteor": 7422,
      "Ġbets": 7423,
      "Ġworldwide": 7424,
      "Ġ45": 7425,
      "Ġnetbsd": 7426,
      "Ġexpands": 7427,
      "ologists": 7428,
      "Ġmeme": 7429,
      "Ġmemo": 7430,
      "Ġconsiders": 7431,
      "Ġinsider": 7432,
      "inson": 7433,
      "itories": 7434,
      "Ġ600": 7435,
      "Ġsubmit": 7436,
      "iversary": 7437,
      "Ġautomating": 7438,
      "Ġdefence": 7439,
      "Ġcauses": 7440,
      "Ġstarliner": 7441,
      "Ġproductive": 7442,
      "Ġavat": 7443,
      "Ġredesign": 7444,
      "Ġannoy": 7445,
      "Ġsteph": 7446,
      "Ġstealth": 7447,
      "Ġregister": 7448,
      "Ġgraphql": 7449,
      "Ġgrants": 7450,
      "Ġcryptocur": 7451,
      "Ġfailures": 7452,
      "Ġsnake": 7453,
      "keys": 7454,
      "Ġphotograph": 7455,
      "Ġlightning": 7456,
      "Ġ2000": 7457,
      "Ġspecific": 7458,
      "Ġrestore": 7459,
      "Ġheadless": 7460,
      "Ġrefact": 7461,
      "Ġradiation": 7462,
      "Ġblackout": 7463,
      "Ġalgorithmic": 7464,
      "Ġurls": 7465,
      "Ġsucceed": 7466,
      "Ġtrusted": 7467,
      "Ġputin": 7468,
      "Ġcompetitor": 7469,
      "Ġincremental": 7470,
      "Ġmisinformation": 7471,
      "Ġpublished": 7472,
      "Ġcatastroph": 7473,
      "Ġcontinue": 7474,
      "Ġcognition": 7475,
      "Ġsuspend": 7476,
      "Ġbirds": 7477,
      "Ġmechanism": 7478,
      "Ġtranslate": 7479,
      "Ġdurable": 7480,
      "Ġcrackdown": 7481,
      "Ġfaq": 7482,
      "Ġrepositories": 7483,
      "Ġwaiting": 7484,
      "Ġapproval": 7485,
      "Ġtailscale": 7486,
      "Ġbeginning": 7487,
      "Ġanalyzer": 7488,
      "Ġpirate": 7489,
      "Ġexpressions": 7490,
      "defined": 7491,
      "Ġcontributions": 7492,
      "Ġvoting": 7493,
      "Ġnationwide": 7494,
      "Ġunreal": 7495,
      "Ġexpanding": 7496,
      "Ġscheduling": 7497,
      "Ġchemicals": 7498,
      "Ġagreement": 7499,
      "Ġaugust": 7500,
      "Ġannouncement": 7501,
      "Ġcandidates": 7502,
      "Ġscreenshot": 7503,
      "Ġprinciple": 7504,
      "Ġpreviously": 7505,
      "Ġisolation": 7506,
      "Ġprovide": 7507,
      "Ġassessment": 7508,
      "Ġtunnel": 7509,
      "Ġrevisiting": 7510,
      "Ġpredicts": 7511,
      "Ġcyberattack": 7512,
      "Ġgirl": 7513,
      "empic": 7514,
      "Ġretirement": 7515,
      "Ġentrepreneur": 7516,
      "Ġunusual": 7517,
      "Ġdisplays": 7518,
      "Ġgaussian": 7519,
      "Ġangeles": 7520,
      "Ġbounty": 7521,
      "Ġmagazine": 7522,
      "Ġpizza": 7523,
      "Ġautopilot": 7524,
      "Ġvenezuela": 7525,
      "Ġkitchen": 7526,
      "Ġrabbit": 7527,
      "Ġwhistlebl": 7528,
      "Ġpseud": 7529,
      "Ġmcdonald": 7530,
      "\",": 7531,
      "39": 7532,
      "44": 7533,
      "87": 7534,
      "aver": 7535,
      "cur": 7536,
      "drop": 7537,
      "last": 7538,
      "max": 7539,
      "oia": 7540,
      "vo": 7541,
      "wik": 7542,
      "ÃĹ": 7543,
      "inet": 7544,
      "Ġton": 7545,
      "Ġtts": 7546,
      "Ġtcp": 7547,
      "Ġsb": 7548,
      "Ġsar": 7549,
      "Ġcf": 7550,
      "Ġcere": 7551,
      "Ġcats": 7552,
      "Ġcisco": 7553,
      "Ġfetch": 7554,
      "Ġfriction": 7555,
      "Ġprag": 7556,
      "Ġwage": 7557,
      "Ġmun": 7558,
      "Ġmale": 7559,
      "Ġhook": 7560,
      "Ġhong": 7561,
      "Ġbear": 7562,
      "Ġborder": 7563,
      "Ġdag": 7564,
      "Ġdust": 7565,
      "Ġdiction": 7566,
      "Ġlen": 7567,
      "Ġlyn": 7568,
      "Ġlights": 7569,
      "Ġinbox": 7570,
      "outh": 7571,
      "Ġnine": 7572,
      "Ġnsa": 7573,
      "iled": 7574,
      "Ġrebuild": 7575,
      "Ġstd": 7576,
      "Ġstability": 7577,
      "Ġvet": 7578,
      "Ġvcs": 7579,
      "otech": 7580,
      "charge": 7581,
      "uries": 7582,
      "Ġchicago": 7583,
      "Ġracing": 7584,
      "agents": 7585,
      "unding": 7586,
      "Ġmos": 7587,
      "Ġjw": 7588,
      "Ġcondition": 7589,
      "aks": 7590,
      "Ġital": 7591,
      "Ġalp": 7592,
      "Ġunpre": 7593,
      "Ġopenbsd": 7594,
      "Ġatari": 7595,
      "forts": 7596,
      "Ġintr": 7597,
      "Ġintro": 7598,
      "ounting": 7599,
      "Ġimaging": 7600,
      "Ġimessage": 7601,
      "Ġroute": 7602,
      "Ġleague": 7603,
      "Ġ2027": 7604,
      "Ġgoals": 7605,
      "Ġraising": 7606,
      "Ġflaws": 7607,
      "Ġdesert": 7608,
      "Ġoutlook": 7609,
      "Ġzed": 7610,
      "Ġoffering": 7611,
      "Ġapocalypse": 7612,
      "Ġsmooth": 7613,
      "Ġmush": 7614,
      "Ġmonkey": 7615,
      "Ġexplicit": 7616,
      "Ġwarming": 7617,
      "issue": 7618,
      "Ġindic": 7619,
      "Ġcargo": 7620,
      "Ġremind": 7621,
      "Ġlauncher": 7622,
      "Ġassass": 7623,
      "rainian": 7624,
      "Ġattorn": 7625,
      "Ġplanes": 7626,
      "Ġbrick": 7627,
      "flight": 7628,
      "onda": 7629,
      "Ġsubscrib": 7630,
      "2001": 7631,
      "Ġhypers": 7632,
      "Ġincent": 7633,
      "Ġ800": 7634,
      "iche": 7635,
      "Ġanniversary": 7636,
      "Ġletting": 7637,
      "Ġfriday": 7638,
      "Ġtopics": 7639,
      "Ġconfidence": 7640,
      "Ġdelays": 7641,
      "Ġcampus": 7642,
      "health": 7643,
      "Ġsilence": 7644,
      "Ġaudience": 7645,
      "Ġpackaging": 7646,
      "Ġprocessors": 7647,
      "Ġsalt": 7648,
      "Ġsalary": 7649,
      "Ġporting": 7650,
      "Ġbiotech": 7651,
      "Ġarchitectural": 7652,
      "Ġproposes": 7653,
      "trust": 7654,
      "bler": 7655,
      "Ġannounced": 7656,
      "loading": 7657,
      "Ġstatist": 7658,
      "Ġimprovement": 7659,
      "lining": 7660,
      "Ġhalt": 7661,
      "Ġpanic": 7662,
      "Ġpushes": 7663,
      "Ġmaintenance": 7664,
      "Ġpaint": 7665,
      "Ġsynthes": 7666,
      "Ġconcern": 7667,
      "Ġcouncil": 7668,
      "Ġsuspends": 7669,
      "Ġcookie": 7670,
      "Ġtexts": 7671,
      "Ġordered": 7672,
      "Ġlosses": 7673,
      "Ġsimpler": 7674,
      "Ġtelemetry": 7675,
      "Ġcooling": 7676,
      "Ġbehavi": 7677,
      "Ġcrazy": 7678,
      "Ġbabies": 7679,
      "Ġbroadcast": 7680,
      "language": 7681,
      "Ġfitness": 7682,
      "Ġalphabet": 7683,
      "Ġaustralian": 7684,
      "Ġplanetary": 7685,
      "Ġafrican": 7686,
      "Ġprofitable": 7687,
      "Ġsweet": 7688,
      "Ġjetbrains": 7689,
      "Ġpictures": 7690,
      "Ġshapes": 7691,
      "Ġgdpr": 7692,
      "Ġprepares": 7693,
      "Ġolympics": 7694,
      "Ġdisclosure": 7695,
      "Ġrejected": 7696,
      "Ġwheel": 7697,
      "abetes": 7698,
      "Ġdraws": 7699,
      "Ġneurons": 7700,
      "Ġpretty": 7701,
      "Ġnutrit": 7702,
      "Ġebpf": 7703,
      "Ġreflections": 7704,
      "Ġgradient": 7705,
      "Ġlady": 7706,
      "Ġhundreds": 7707,
      "Ġpfas": 7708,
      "Ġsupabase": 7709,
      "Ġkarpathy": 7710,
      "Ġhurricane": 7711,
      "Ġgrammar": 7712,
      "',": 7713,
      "'?": 7714,
      "),": 7715,
      ".)": 7716,
      "47": 7717,
      "68": 7718,
      "aug": 7719,
      "bases": 7720,
      "dl": 7721,
      "hire": 7722,
      "ipt": 7723,
      "ja": 7724,
      "low": 7725,
      "nam": 7726,
      "oes": 7727,
      "paces": 7728,
      "tic": 7729,
      "yr": 7730,
      "Ġari": 7731,
      "instein": 7732,
      "Ġtet": 7733,
      "Ġtear": 7734,
      "Ġtight": 7735,
      "Ġsap": 7736,
      "Ġsourced": 7737,
      "Ġcro": 7738,
      "Ġfon": 7739,
      "Ġfoods": 7740,
      "Ġhp": 7741,
      "Ġhair": 7742,
      "itable": 7743,
      "anes": 7744,
      "Ġdry": 7745,
      "Ġdangers": 7746,
      "alph": 7747,
      "Ġlying": 7748,
      "Ġlength": 7749,
      "Ġgiven": 7750,
      "Ġnice": 7751,
      "Ġnaming": 7752,
      "Ġrege": 7753,
      "dept": 7754,
      "Ġforcing": 7755,
      "Ġuis": 7756,
      "elab": 7757,
      "rays": 7758,
      "Ġstro": 7759,
      "Ġvint": 7760,
      "Ġchris": 7761,
      "2000": 7762,
      "usal": 7763,
      "Ġjets": 7764,
      "acked": 7765,
      "Ġky": 7766,
      "Ġkil": 7767,
      "Ġclash": 7768,
      "Ġagric": 7769,
      "Ġworry": 7770,
      "Ġtries": 7771,
      "plant": 7772,
      "Ġbeij": 7773,
      "Ġunf": 7774,
      "izz": 7775,
      "allow": 7776,
      "Ġarrow": 7777,
      "Ġadult": 7778,
      "duck": 7779,
      "Ġlex": 7780,
      "Ġleet": 7781,
      "uded": 7782,
      "Ġquic": 7783,
      "ails": 7784,
      "Ġ33": 7785,
      "Ġgoal": 7786,
      "Ġups": 7787,
      "Ġengland": 7788,
      "rospective": 7789,
      "Ġzones": 7790,
      "ruary": 7791,
      "Ġpermission": 7792,
      "Ġrecre": 7793,
      "Ġrepublic": 7794,
      "Ġsmith": 7795,
      "Ġtranscript": 7796,
      "Ġtransmission": 7797,
      "Ġmong": 7798,
      "Ġminister": 7799,
      "Ġwarfare": 7800,
      "Ġanywhere": 7801,
      "Ġsurpass": 7802,
      "Ġsurgery": 7803,
      "utional": 7804,
      "complete": 7805,
      "Ġmultilingual": 7806,
      "Ġattribut": 7807,
      "azi": 7808,
      "Ġparli": 7809,
      "Ġearn": 7810,
      "Ġbreath": 7811,
      "Ġconsidering": 7812,
      "Ġactual": 7813,
      "Ġskip": 7814,
      "Ġsupported": 7815,
      "Ġplaystation": 7816,
      "Ġadvers": 7817,
      "Ġ737": 7818,
      "Ġlongest": 7819,
      "Ġsigned": 7820,
      "Ġelectro": 7821,
      "Ġdemos": 7822,
      "Ġformation": 7823,
      "lox": 7824,
      "Ġcapability": 7825,
      "Ġrelational": 7826,
      "Ġpassed": 7827,
      "keley": 7828,
      "Ġlistening": 7829,
      "Ġhttps": 7830,
      "Ġlegis": 7831,
      "Ġsamples": 7832,
      "Ġcheating": 7833,
      "Ġdetected": 7834,
      "Ġmagn": 7835,
      "Ġpiece": 7836,
      "Ġcriticism": 7837,
      "Ġchildhood": 7838,
      "model": 7839,
      "Ġvulnerable": 7840,
      "Ġdeployments": 7841,
      "Ġorganizations": 7842,
      "Ġkernels": 7843,
      "Ġsenate": 7844,
      "Ġiranian": 7845,
      "Ġbasics": 7846,
      "Ġaccelerated": 7847,
      "Ġaccelerator": 7848,
      "Ġrevolutionizing": 7849,
      "1996": 7850,
      "Ġancest": 7851,
      "linked": 7852,
      "Ġinstalling": 7853,
      "Ġburst": 7854,
      "node": 7855,
      "Ġsusp": 7856,
      "Ġmorph": 7857,
      "Ġevolutionary": 7858,
      "Ġdebugger": 7859,
      "Ġlocked": 7860,
      "Ġremoving": 7861,
      "Ġsugar": 7862,
      "Ġsimplified": 7863,
      "Ġexisting": 7864,
      "Ġupgrading": 7865,
      "Ġdivide": 7866,
      "Ġdownloads": 7867,
      "Ġprimer": 7868,
      "Ġcollective": 7869,
      "Ġefforts": 7870,
      "Ġtabs": 7871,
      "Ġvariable": 7872,
      "Ġparameter": 7873,
      "Ġparameters": 7874,
      "Ġreceive": 7875,
      "Ġdiscussion": 7876,
      "Ġspacecraft": 7877,
      "held": 7878,
      "imensional": 7879,
      "writing": 7880,
      "Ġstruggles": 7881,
      "Ġcruise": 7882,
      "Ġarguments": 7883,
      "Ġneutral": 7884,
      "Ġmortality": 7885,
      "Ġrestaurants": 7886,
      "Ġtreasury": 7887,
      "Ġfleet": 7888,
      "Ġhuang": 7889,
      "Ġextended": 7890,
      "Ġunicode": 7891,
      "Ġinstrument": 7892,
      "Ġrescue": 7893,
      "Ġinstructions": 7894,
      "Ġozempic": 7895,
      "Ġcanonical": 7896,
      "function": 7897,
      "Ġcannabis": 7898,
      "Ġprogrammable": 7899,
      "Ġrolling": 7900,
      "Ġspanish": 7901,
      "Ġascii": 7902,
      "Ġinitiative": 7903,
      "compatible": 7904,
      "Ġregex": 7905,
      "Ġbeijing": 7906,
      "Ġparliament": 7907,
      ".,": 7908,
      "67": 7909,
      "?\"": 7910,
      "aa": 7911,
      "cn": 7912,
      "call": 7913,
      "gem": 7914,
      "hand": 7915,
      "hist": 7916,
      "home": 7917,
      "mpp": 7918,
      "mort": 7919,
      "non": 7920,
      "oh": 7921,
      "pet": 7922,
      "pread": 7923,
      "tv": 7924,
      "table": 7925,
      "vy": 7926,
      "wing": 7927,
      "yard": 7928,
      "Ġsight": 7929,
      "Ġssd": 7930,
      "Ġcc": 7931,
      "Ġcv": 7932,
      "Ġcorn": 7933,
      "Ġcinem": 7934,
      "reach": 7935,
      "ener": 7936,
      "Ġfuck": 7937,
      "Ġfert": 7938,
      "Ġfather": 7939,
      "Ġfruit": 7940,
      "Ġpays": 7941,
      "esome": 7942,
      "Ġwed": 7943,
      "anal": 7944,
      "Ġdol": 7945,
      "Ġdict": 7946,
      "Ġosc": 7947,
      "arant": 7948,
      "rout": 7949,
      "Ġli": 7950,
      "Ġlou": 7951,
      "Ġlots": 7952,
      "Ġindu": 7953,
      "stage": 7954,
      "Ġnik": 7955,
      "Ġnord": 7956,
      "Ġether": 7957,
      "ille": 7958,
      "Ġupt": 7959,
      "ometer": 7960,
      "Ġstim": 7961,
      "olds": 7962,
      "ersey": 7963,
      "Ġshowing": 7964,
      "Ġwhether": 7965,
      "Ġwithd": 7966,
      "Ġrather": 7967,
      "aylor": 7968,
      "uned": 7969,
      "Ġneander": 7970,
      "Ġcooper": 7971,
      "Ġjr": 7972,
      "Ġjpeg": 7973,
      "irt": 7974,
      "estyle": 7975,
      "Ġkotlin": 7976,
      "Ġtraces": 7977,
      "istan": 7978,
      "query": 7979,
      "Ġalong": 7980,
      "Ġund": 7981,
      "Ġunm": 7982,
      "angled": 7983,
      "research": 7984,
      "Ġdod": 7985,
      "Ġarxiv": 7986,
      "Ġadam": 7987,
      "Ġgenome": 7988,
      "Ġcodebases": 7989,
      "sea": 7990,
      "dup": 7991,
      "Ġcontra": 7992,
      "Ġteens": 7993,
      "epad": 7994,
      "Ġupcoming": 7995,
      "Ġhex": 7996,
      "Ġoutbreak": 7997,
      "Ġoutcomes": 7998,
      "Ġzomb": 7999,
      "Ġoffsh": 8000,
      "Ġprefix": 8001,
      "Ġdeveloped": 8002,
      "Ġperception": 8003,
      "Ġinfring": 8004,
      "Ġmonday": 8005,
      "issance": 8006,
      "Ġvisible": 8007,
      "Ġbuildings": 8008,
      "Ġcrunch": 8009,
      "ancer": 8010,
      "intosh": 8011,
      "Ġmanaged": 8012,
      "Ġhackathon": 8013,
      "Ġbanning": 8014,
      "Ġfiling": 8015,
      "Ġfilters": 8016,
      "Ġtechnological": 8017,
      "Ġ65": 8018,
      "Ġcurve": 8019,
      "Ġprivile": 8020,
      "Ġplaywright": 8021,
      "Ġstrings": 8022,
      "Ġcontrolled": 8023,
      "Ġ75": 8024,
      "Ġukrainian": 8025,
      "Ġsafely": 8026,
      "screen": 8027,
      "Ġsettle": 8028,
      "Ġspeaking": 8029,
      "Ġlogo": 8030,
      "Ġregression": 8031,
      "Ġtiming": 8032,
      "Ġdiabetes": 8033,
      "awa": 8034,
      "Ġextensible": 8035,
      "Ġjoint": 8036,
      "Ġgovernments": 8037,
      "Ġspecification": 8038,
      "Ġbios": 8039,
      "Ġtransformation": 8040,
      "Ġrestric": 8041,
      "Ġeffectively": 8042,
      "Ġpii": 8043,
      "Ġcompiling": 8044,
      "Ġcompilation": 8045,
      "Ġweekend": 8046,
      "Ġfarming": 8047,
      "Ġidentified": 8048,
      "Ġcaptured": 8049,
      "Ġavailability": 8050,
      "Ġincreased": 8051,
      "Ġexploiting": 8052,
      "Ġequip": 8053,
      "1994": 8054,
      "Ġsuspect": 8055,
      "Ġmorning": 8056,
      "Ġpositive": 8057,
      "Ġprobability": 8058,
      "Ġpredicted": 8059,
      "Ġsimplify": 8060,
      "Ġethics": 8061,
      "Ġroblox": 8062,
      "Ġupgrades": 8063,
      "Ġunlikely": 8064,
      "Ġsympt": 8065,
      "Ġfacility": 8066,
      "Ġenhancing": 8067,
      "techn": 8068,
      "Ġfootage": 8069,
      "herent": 8070,
      "Ġpolymarket": 8071,
      "Ġawards": 8072,
      "Ġlottery": 8073,
      "Ġkindle": 8074,
      "Ġtickets": 8075,
      "Ġinvented": 8076,
      "Ġrolls": 8077,
      "Ġbenefit": 8078,
      "Ġoutputs": 8079,
      "Ġgeometric": 8080,
      "Ġconcepts": 8081,
      "Ġdiagnosis": 8082,
      "Ġexploitation": 8083,
      "Ġeffortless": 8084,
      "Ġcompletes": 8085,
      "Ġnovember": 8086,
      "written": 8087,
      "Ġtemporal": 8088,
      "Ġswedish": 8089,
      "related": 8090,
      "Ġberkeley": 8091,
      "akedown": 8092,
      "Ġsparks": 8093,
      "Ġnotebooklm": 8094,
      "Ġabandoned": 8095,
      "Ġexplosion": 8096,
      "html": 8097,
      "Ġrestaurant": 8098,
      "Ġspiral": 8099,
      "Ġfractal": 8100,
      "Ġlawyers": 8101,
      "Ġhonest": 8102,
      "memory": 8103,
      "Ġfemale": 8104,
      "Ġcertificate": 8105,
      "Ġreimag": 8106,
      "Ġhobby": 8107,
      "Ġimpressions": 8108,
      "knowledge": 8109,
      "Ġartifacts": 8110,
      "Ġluxury": 8111,
      "Ġvectors": 8112,
      "google": 8113,
      "Ġreproducible": 8114,
      "mobile": 8115,
      "Ġireland": 8116,
      "Ġdispute": 8117,
      "Ġseamless": 8118,
      "Ġstatistical": 8119,
      "Ġneanderth": 8120,
      ".-": 8121,
      "34": 8122,
      "36": 8123,
      "42": 8124,
      "dan": 8125,
      "fting": 8126,
      "git": 8127,
      "hn": 8128,
      "iro": 8129,
      "ipper": 8130,
      "journ": 8131,
      "lie": 8132,
      "men": 8133,
      "mag": 8134,
      "now": 8135,
      "pub": 8136,
      "produ": 8137,
      "rating": 8138,
      "sch": 8139,
      "sourcing": 8140,
      "tune": 8141,
      "training": 8142,
      "west": 8143,
      "xl": 8144,
      "zer": 8145,
      "zes": 8146,
      "Ã¡": 8147,
      "inc": 8148,
      "Ġsection": 8149,
      "erce": 8150,
      "erland": 8151,
      "Ġcm": 8152,
      "Ġct": 8153,
      "Ġcure": 8154,
      "Ġcave": 8155,
      "Ġcables": 8156,
      "Ġfest": 8157,
      "Ġfable": 8158,
      "Ġfacing": 8159,
      "Ġfighter": 8160,
      "Ġffm": 8161,
      "Ġpas": 8162,
      "Ġpag": 8163,
      "Ġwing": 8164,
      "Ġwip": 8165,
      "Ġmn": 8166,
      "Ġmp": 8167,
      "Ġmas": 8168,
      "Ġmary": 8169,
      "Ġmakers": 8170,
      "Ġhd": 8171,
      "Ġhint": 8172,
      "itative": 8173,
      "itals": 8174,
      "Ġbern": 8175,
      "Ġthin": 8176,
      "Ġdv": 8177,
      "Ġdell": 8178,
      "alty": 8179,
      "Ġops": 8180,
      "Ġoreg": 8181,
      "Ġlam": 8182,
      "Ġgad": 8183,
      "stor": 8184,
      "leading": 8185,
      "Ġnic": 8186,
      "Ġeinstein": 8187,
      "Ġufo": 8188,
      "etz": 8189,
      "utils": 8190,
      "Ġproced": 8191
    },
    "merges": [
      [
        "Ġ",
        "a"
      ],
      [
        "i",
        "n"
      ],
      [
        "Ġ",
        "t"
      ],
      [
        "Ġ",
        "s"
      ],
      [
        "e",
        "r"
      ],
      [
        "Ġ",
        "c"
      ],
      [
        "o",
        "n"
      ],
      [
        "r",
        "e"
      ],
      [
        "o",
        "r"
      ],
      [
        "e",
        "n"
      ],
      [
        "Ġ",
        "f"
      ],
      [
        "a",
        "t"
      ],
      [
        "in",
        "g"
      ],
      [
        "Ġ",
        "p"
      ],
      [
        "e",
        "s"
      ],
      [
        "Ġ",
        "w"
      ],
      [
        "Ġ",
        "m"
      ],
      [
        "Ġ",
        "h"
      ],
      [
        "i",
        "t"
      ],
      [
        "a",
        "n"
      ],
      [
        "Ġ",
        "b"
      ],
      [
        "Ġt",
        "h"
      ],
      [
        "Ġ",
        "d"
      ],
      [
        "a",
        "l"
      ],
      [
        "Ġ",
        "o"
      ],
      [
        "a",
        "r"
      ],
      [
        "r",
        "o"
      ],
      [
        "i",
        "s"
      ],
      [
        "Ġ",
        "l"
      ],
      [
        "Ġth",
        "e"
      ],
      [
        "Ġ",
        "in"
      ],
      [
        "e",
        "d"
      ],
      [
        "i",
        "c"
      ],
      [
        "o",
        "u"
      ],
      [
        "Ġt",
        "o"
      ],
      [
        "o",
        "w"
      ],
      [
        "Ġa",
        "n"
      ],
      [
        "Ġ",
        "g"
      ],
      [
        "s",
        "t"
      ],
      [
        "i",
        "on"
      ],
      [
        "l",
        "e"
      ],
      [
        "Ġ",
        "n"
      ],
      [
        "Ġ",
        "e"
      ],
      [
        "i",
        "l"
      ],
      [
        "Ġ",
        "re"
      ],
      [
        "a",
        "c"
      ],
      [
        "en",
        "t"
      ],
      [
        "Ġo",
        "f"
      ],
      [
        "d",
        "e"
      ],
      [
        "Ġf",
        "or"
      ],
      [
        "Ġ",
        "u"
      ],
      [
        "o",
        "m"
      ],
      [
        "e",
        "t"
      ],
      [
        "a",
        "s"
      ],
      [
        "Ġan",
        "d"
      ],
      [
        "Ġs",
        "h"
      ],
      [
        "Ġh",
        "n"
      ],
      [
        "e",
        "l"
      ],
      [
        "e",
        "c"
      ],
      [
        "r",
        "a"
      ],
      [
        "Ġa",
        "i"
      ],
      [
        "Ġs",
        "t"
      ],
      [
        "o",
        "l"
      ],
      [
        "i",
        "m"
      ],
      [
        "u",
        "t"
      ],
      [
        "â",
        "Ģ"
      ],
      [
        "âĢ",
        "ĵ"
      ],
      [
        "i",
        "g"
      ],
      [
        "er",
        "s"
      ],
      [
        "Ġ",
        "y"
      ],
      [
        "Ġ",
        "v"
      ],
      [
        "Ġ",
        "âĢĵ"
      ],
      [
        "Ġsh",
        "ow"
      ],
      [
        "i",
        "v"
      ],
      [
        "'",
        "s"
      ],
      [
        "it",
        "h"
      ],
      [
        "o",
        "t"
      ],
      [
        "Ġ",
        "on"
      ],
      [
        "at",
        "ion"
      ],
      [
        "c",
        "h"
      ],
      [
        "Ġw",
        "h"
      ],
      [
        "Ġ",
        "is"
      ],
      [
        "Ġw",
        "ith"
      ],
      [
        "Ġp",
        "ro"
      ],
      [
        "a",
        "m"
      ],
      [
        "c",
        "e"
      ],
      [
        "u",
        "r"
      ],
      [
        "Ġc",
        "h"
      ],
      [
        "Ġ",
        "r"
      ],
      [
        "a",
        "g"
      ],
      [
        "Ġy",
        "ou"
      ],
      [
        "Ġ",
        "i"
      ],
      [
        "t",
        "er"
      ],
      [
        "a",
        "y"
      ],
      [
        "p",
        "p"
      ],
      [
        "e",
        "m"
      ],
      [
        "Ġ",
        "("
      ],
      [
        "2",
        "0"
      ],
      [
        "Ġa",
        "s"
      ],
      [
        "u",
        "n"
      ],
      [
        "Ġn",
        "e"
      ],
      [
        "i",
        "d"
      ],
      [
        "u",
        "l"
      ],
      [
        "Ġc",
        "o"
      ],
      [
        "Ġm",
        "o"
      ],
      [
        "Ġd",
        "e"
      ],
      [
        "Ġc",
        "om"
      ],
      [
        "p",
        "t"
      ],
      [
        "Ġu",
        "s"
      ],
      [
        "t",
        "h"
      ],
      [
        "v",
        "er"
      ],
      [
        "o",
        "s"
      ],
      [
        "u",
        "s"
      ],
      [
        "a",
        "b"
      ],
      [
        "a",
        "d"
      ],
      [
        "t",
        "s"
      ],
      [
        "i",
        "de"
      ],
      [
        "Ġ",
        "j"
      ],
      [
        "u",
        "m"
      ],
      [
        "i",
        "r"
      ],
      [
        "c",
        "t"
      ],
      [
        "Ġc",
        "on"
      ],
      [
        "o",
        "o"
      ],
      [
        "es",
        "t"
      ],
      [
        "a",
        "k"
      ],
      [
        "e",
        "ar"
      ],
      [
        "ac",
        "k"
      ],
      [
        "o",
        "c"
      ],
      [
        "l",
        "y"
      ],
      [
        "Ġe",
        "x"
      ],
      [
        "Ġ",
        "k"
      ],
      [
        "o",
        "p"
      ],
      [
        "it",
        "y"
      ],
      [
        "Ġc",
        "l"
      ],
      [
        "at",
        "e"
      ],
      [
        "i",
        "f"
      ],
      [
        "iv",
        "e"
      ],
      [
        "Ġw",
        "e"
      ],
      [
        "es",
        "s"
      ],
      [
        "Ġb",
        "u"
      ],
      [
        "ro",
        "m"
      ],
      [
        "p",
        "en"
      ],
      [
        "Ġa",
        "g"
      ],
      [
        "Ġ",
        "en"
      ],
      [
        "in",
        "e"
      ],
      [
        "an",
        "d"
      ],
      [
        "Ġw",
        "or"
      ],
      [
        "Ġa",
        "pp"
      ],
      [
        "Ġt",
        "r"
      ],
      [
        "is",
        "t"
      ],
      [
        "p",
        "l"
      ],
      [
        "u",
        "re"
      ],
      [
        "Ġ",
        "it"
      ],
      [
        "il",
        "l"
      ],
      [
        "v",
        "e"
      ],
      [
        "q",
        "u"
      ],
      [
        "Ġh",
        "ow"
      ],
      [
        "Ġb",
        "e"
      ],
      [
        "Ġ",
        "["
      ],
      [
        "Ġ",
        "1"
      ],
      [
        "Ġa",
        "l"
      ],
      [
        "u",
        "st"
      ],
      [
        "ig",
        "h"
      ],
      [
        "Ġcom",
        "p"
      ],
      [
        "ec",
        "t"
      ],
      [
        "Ġu",
        "n"
      ],
      [
        "Ġne",
        "w"
      ],
      [
        "Ġo",
        "pen"
      ],
      [
        "Ġf",
        "rom"
      ],
      [
        "ou",
        "r"
      ],
      [
        "a",
        "p"
      ],
      [
        "a",
        "re"
      ],
      [
        "Ġyou",
        "r"
      ],
      [
        "Ġs",
        "c"
      ],
      [
        "Ġs",
        "p"
      ],
      [
        "r",
        "i"
      ],
      [
        "ide",
        "o"
      ],
      [
        "l",
        "d"
      ],
      [
        "Ġp",
        "l"
      ],
      [
        "Ġbu",
        "il"
      ],
      [
        "u",
        "b"
      ],
      [
        "20",
        "2"
      ],
      [
        "d",
        "ing"
      ],
      [
        "ag",
        "e"
      ],
      [
        "a",
        "st"
      ],
      [
        "Ġas",
        "k"
      ],
      [
        "Ġa",
        "t"
      ],
      [
        "Ġa",
        "re"
      ],
      [
        "an",
        "g"
      ],
      [
        "i",
        "es"
      ],
      [
        "a",
        "in"
      ],
      [
        "i",
        "a"
      ],
      [
        "k",
        "s"
      ],
      [
        "Ġwh",
        "at"
      ],
      [
        "m",
        "ent"
      ],
      [
        "d",
        "s"
      ],
      [
        "f",
        "or"
      ],
      [
        "ar",
        "t"
      ],
      [
        "Ġin",
        "t"
      ],
      [
        "i",
        "z"
      ],
      [
        "an",
        "t"
      ],
      [
        "i",
        "p"
      ],
      [
        "o",
        "g"
      ],
      [
        "Ġd",
        "at"
      ],
      [
        "re",
        "s"
      ],
      [
        "v",
        "ideo"
      ],
      [
        "d",
        "er"
      ],
      [
        "el",
        "l"
      ],
      [
        "ou",
        "n"
      ],
      [
        "i",
        "al"
      ],
      [
        "al",
        "l"
      ],
      [
        "Ġc",
        "an"
      ],
      [
        "o",
        "f"
      ],
      [
        "Ġs",
        "u"
      ],
      [
        "Ġth",
        "at"
      ],
      [
        "Ġd",
        "o"
      ],
      [
        "Ġ",
        "im"
      ],
      [
        "Ġa",
        "r"
      ],
      [
        "or",
        "t"
      ],
      [
        "an",
        "s"
      ],
      [
        "e",
        "w"
      ],
      [
        "ac",
        "t"
      ],
      [
        "Ġ",
        "'"
      ],
      [
        "p",
        "er"
      ],
      [
        "Ġ",
        "ro"
      ],
      [
        "Ġb",
        "y"
      ],
      [
        "Ġag",
        "ent"
      ],
      [
        "ra",
        "m"
      ],
      [
        "i",
        "b"
      ],
      [
        "Ġwh",
        "y"
      ],
      [
        "igh",
        "t"
      ],
      [
        "Ġa",
        "d"
      ],
      [
        "Ġg",
        "en"
      ],
      [
        "ou",
        "t"
      ],
      [
        "ar",
        "d"
      ],
      [
        "o",
        "st"
      ],
      [
        "ab",
        "le"
      ],
      [
        "on",
        "e"
      ],
      [
        "Ġco",
        "de"
      ],
      [
        "s",
        "e"
      ],
      [
        "for",
        "m"
      ],
      [
        "ac",
        "e"
      ],
      [
        "ec",
        "h"
      ],
      [
        "Ġn",
        "ot"
      ],
      [
        "en",
        "ce"
      ],
      [
        "in",
        "d"
      ],
      [
        "Ġa",
        "c"
      ],
      [
        "Ġp",
        "r"
      ],
      [
        "ion",
        "s"
      ],
      [
        "Ġ",
        "or"
      ],
      [
        "Ġs",
        "y"
      ],
      [
        "ic",
        "e"
      ],
      [
        "d",
        "u"
      ],
      [
        "l",
        "m"
      ],
      [
        "Ġcon",
        "t"
      ],
      [
        "Ġl",
        "e"
      ],
      [
        "ic",
        "al"
      ],
      [
        "u",
        "d"
      ],
      [
        "Ġde",
        "v"
      ],
      [
        "Ġmo",
        "de"
      ],
      [
        "Ġa",
        "m"
      ],
      [
        "it",
        "e"
      ],
      [
        "p",
        "h"
      ],
      [
        "g",
        "e"
      ],
      [
        "Ġin",
        "ter"
      ],
      [
        "ig",
        "n"
      ],
      [
        "or",
        "y"
      ],
      [
        "Ġm",
        "y"
      ],
      [
        "Ġ",
        "qu"
      ],
      [
        "Ġre",
        "s"
      ],
      [
        "i",
        "re"
      ],
      [
        "Ġg",
        "oo"
      ],
      [
        "a",
        "v"
      ],
      [
        "Ġb",
        "l"
      ],
      [
        "a",
        "il"
      ],
      [
        "Ġdat",
        "a"
      ],
      [
        "r",
        "y"
      ],
      [
        "Ġwe",
        "b"
      ],
      [
        "Ġto",
        "ol"
      ],
      [
        "ac",
        "h"
      ],
      [
        "ar",
        "k"
      ],
      [
        "of",
        "t"
      ],
      [
        "i",
        "k"
      ],
      [
        "'",
        "t"
      ],
      [
        "re",
        "e"
      ],
      [
        "Ġd",
        "is"
      ],
      [
        "ak",
        "e"
      ],
      [
        "o",
        "b"
      ],
      [
        "o",
        "re"
      ],
      [
        "Ġwor",
        "k"
      ],
      [
        "Ġ",
        "202"
      ],
      [
        "Ġ",
        "\""
      ],
      [
        "Ġmode",
        "l"
      ],
      [
        "Ġl",
        "lm"
      ],
      [
        "im",
        "e"
      ],
      [
        "Ġe",
        "m"
      ],
      [
        "Ġa",
        "b"
      ],
      [
        "our",
        "ce"
      ],
      [
        "en",
        "s"
      ],
      [
        "an",
        "ce"
      ],
      [
        "Ġt",
        "e"
      ],
      [
        "0",
        "0"
      ],
      [
        "e",
        "p"
      ],
      [
        "x",
        "t"
      ],
      [
        "Ġ",
        "2"
      ],
      [
        "a",
        "i"
      ],
      [
        "Ġm",
        "an"
      ],
      [
        "u",
        "g"
      ],
      [
        "Ġl",
        "a"
      ],
      [
        "as",
        "e"
      ],
      [
        "w",
        "are"
      ],
      [
        "ou",
        "ld"
      ],
      [
        "c",
        "o"
      ],
      [
        "at",
        "ed"
      ],
      [
        "as",
        "s"
      ],
      [
        "Ġs",
        "e"
      ],
      [
        "Ġp",
        "h"
      ],
      [
        "Ġ",
        "3"
      ],
      [
        "Ġt",
        "ech"
      ],
      [
        "Ġgen",
        "er"
      ],
      [
        "er",
        "e"
      ],
      [
        "Ġg",
        "o"
      ],
      [
        "Ġ",
        "$"
      ],
      [
        "Ġu",
        "p"
      ],
      [
        "Ġen",
        "g"
      ],
      [
        "ear",
        "ch"
      ],
      [
        "Ġs",
        "ec"
      ],
      [
        "u",
        "p"
      ],
      [
        "Ġa",
        "ut"
      ],
      [
        "f",
        "f"
      ],
      [
        "ic",
        "s"
      ],
      [
        "ro",
        "w"
      ],
      [
        "st",
        "em"
      ],
      [
        "at",
        "or"
      ],
      [
        "g",
        "le"
      ],
      [
        "ro",
        "s"
      ],
      [
        "a",
        "ve"
      ],
      [
        "n",
        "ing"
      ],
      [
        "Ġs",
        "er"
      ],
      [
        "Ġo",
        "ver"
      ],
      [
        "Ġ",
        "ra"
      ],
      [
        "Ġus",
        "ing"
      ],
      [
        "i",
        "ent"
      ],
      [
        "Ġl",
        "in"
      ],
      [
        "am",
        "e"
      ],
      [
        "ation",
        "s"
      ],
      [
        "ow",
        "er"
      ],
      [
        "ar",
        "y"
      ],
      [
        "ir",
        "st"
      ],
      [
        "Ġf",
        "l"
      ],
      [
        "ul",
        "t"
      ],
      [
        "Ġt",
        "ra"
      ],
      [
        "Ġn",
        "o"
      ],
      [
        "ay",
        "s"
      ],
      [
        "d",
        "f"
      ],
      [
        "ow",
        "n"
      ],
      [
        "Ġd",
        "es"
      ],
      [
        "at",
        "h"
      ],
      [
        "Ġbuil",
        "t"
      ],
      [
        "ct",
        "ion"
      ],
      [
        "Ġgoo",
        "gle"
      ],
      [
        "ou",
        "s"
      ],
      [
        "Ġc",
        "re"
      ],
      [
        "i",
        "ew"
      ],
      [
        "r",
        "on"
      ],
      [
        "Ġeng",
        "ine"
      ],
      [
        "i",
        "x"
      ],
      [
        "Ġm",
        "a"
      ],
      [
        "at",
        "ive"
      ],
      [
        "oc",
        "k"
      ],
      [
        "Ġe",
        "v"
      ],
      [
        "Ġa",
        "f"
      ],
      [
        "oo",
        "k"
      ],
      [
        "Ġsy",
        "stem"
      ],
      [
        "Ġh",
        "e"
      ],
      [
        "20",
        "1"
      ],
      [
        "om",
        "e"
      ],
      [
        "Ġo",
        "ut"
      ],
      [
        "Ġim",
        "p"
      ],
      [
        "Ġ",
        "z"
      ],
      [
        "i",
        "le"
      ],
      [
        "Ġcl",
        "a"
      ],
      [
        "Ġac",
        "c"
      ],
      [
        "o",
        "d"
      ],
      [
        "Ġh",
        "as"
      ],
      [
        "Ġof",
        "f"
      ],
      [
        "Ġab",
        "out"
      ],
      [
        "r",
        "it"
      ],
      [
        "t",
        "ing"
      ],
      [
        "Ġre",
        "v"
      ],
      [
        "r",
        "u"
      ],
      [
        "Ġm",
        "e"
      ],
      [
        "el",
        "op"
      ],
      [
        "Ġp",
        "re"
      ],
      [
        "at",
        "ing"
      ],
      [
        "Ġy",
        "ear"
      ],
      [
        "Ġm",
        "ic"
      ],
      [
        "or",
        "k"
      ],
      [
        "p",
        "e"
      ],
      [
        "Ġdev",
        "elop"
      ],
      [
        "Ġal",
        "l"
      ],
      [
        "y",
        "s"
      ],
      [
        "Ġp",
        "er"
      ],
      [
        "Ġch",
        "at"
      ],
      [
        "b",
        "er"
      ],
      [
        "Ġf",
        "irst"
      ],
      [
        "Ġint",
        "o"
      ],
      [
        "as",
        "ed"
      ],
      [
        "Ġc",
        "ol"
      ],
      [
        "i",
        "an"
      ],
      [
        "Ġg",
        "et"
      ],
      [
        "Ġus",
        "e"
      ],
      [
        "Ġre",
        "c"
      ],
      [
        "u",
        "al"
      ],
      [
        "Ġcom",
        "m"
      ],
      [
        "y",
        "th"
      ],
      [
        "Ġmo",
        "re"
      ],
      [
        "Ġl",
        "ang"
      ],
      [
        "res",
        "s"
      ],
      [
        "Ġw",
        "ill"
      ],
      [
        "Ġn",
        "ow"
      ],
      [
        "Ġapp",
        "le"
      ],
      [
        "Ġaf",
        "ter"
      ],
      [
        "Ġpro",
        "g"
      ],
      [
        "Ġs",
        "im"
      ],
      [
        "Ġch",
        "in"
      ],
      [
        "Ġf",
        "ree"
      ],
      [
        "Ġs",
        "oft"
      ],
      [
        "u",
        "de"
      ],
      [
        "as",
        "h"
      ],
      [
        "Ġit",
        "s"
      ],
      [
        "en",
        "d"
      ],
      [
        "Ġre",
        "p"
      ],
      [
        "Ġm",
        "et"
      ],
      [
        "Ġlang",
        "u"
      ],
      [
        "Ġa",
        "p"
      ],
      [
        "Ġe",
        "ver"
      ],
      [
        "Ġagent",
        "s"
      ],
      [
        "u",
        "e"
      ],
      [
        "Ġs",
        "m"
      ],
      [
        "Ġf",
        "e"
      ],
      [
        "Ġb",
        "et"
      ],
      [
        "ic",
        "k"
      ],
      [
        "Ġr",
        "un"
      ],
      [
        "s",
        "er"
      ],
      [
        "i",
        "o"
      ],
      [
        "Ġcomp",
        "ut"
      ],
      [
        "Ġs",
        "ol"
      ],
      [
        "Ġd",
        "r"
      ],
      [
        "ik",
        "e"
      ],
      [
        "Ġtr",
        "ans"
      ],
      [
        "Ġst",
        "art"
      ],
      [
        "b",
        "le"
      ],
      [
        "Ġsoft",
        "ware"
      ],
      [
        "Ġg",
        "u"
      ],
      [
        "Ġre",
        "al"
      ],
      [
        "i",
        "e"
      ],
      [
        "n",
        "et"
      ],
      [
        "in",
        "k"
      ],
      [
        "or",
        "s"
      ],
      [
        "Ġm",
        "us"
      ],
      [
        "Ġpro",
        "du"
      ],
      [
        "u",
        "c"
      ],
      [
        "at",
        "es"
      ],
      [
        "Ġl",
        "ear"
      ],
      [
        "m",
        "s"
      ],
      [
        "oun",
        "d"
      ],
      [
        "Ġf",
        "ast"
      ],
      [
        "Ġprog",
        "ram"
      ],
      [
        "is",
        "h"
      ],
      [
        "Ġh",
        "um"
      ],
      [
        "Ġb",
        "ack"
      ],
      [
        "e",
        "y"
      ],
      [
        "ak",
        "ing"
      ],
      [
        "Ġin",
        "f"
      ],
      [
        "Ġh",
        "ave"
      ],
      [
        "Ġd",
        "ec"
      ],
      [
        "en",
        "c"
      ],
      [
        "b",
        "o"
      ],
      [
        "u",
        "x"
      ],
      [
        "Ġf",
        "in"
      ],
      [
        "Ġcla",
        "ude"
      ],
      [
        "Ġp",
        "ost"
      ],
      [
        "Ġon",
        "e"
      ],
      [
        "Ġwor",
        "ld"
      ],
      [
        "Ġm",
        "on"
      ],
      [
        "Ġ",
        "4"
      ],
      [
        "Ġm",
        "in"
      ],
      [
        "c",
        "l"
      ],
      [
        "Ġb",
        "o"
      ],
      [
        "ri",
        "pt"
      ],
      [
        "er",
        "m"
      ],
      [
        "Ġt",
        "ime"
      ],
      [
        "Ġ",
[...]
