{
  "version": "1.0",
  "truncation": null,
  "padding": null,
  "added_tokens": [
    {
      "id": 0,
      "content": "<pad>",
      "single_word": false,
      "lstrip": false,
      "rstrip": false,
      "normalized": false,
      "special": true
    },
    {
      "id": 1,
      "content": "<eos>",
      "single_word": false,
      "lstrip": false,
      "rstrip": false,
      "normalized": false,
      "special": true
    },
    {
      "id": 2,
      "content": "<unk>",
      "single_word": false,
      "lstrip": false,
      "rstrip": false,
      "normalized": false,
      "special": true
    },
    {
      "id": 3,
      "content": "show hn:",
      "single_word": false,
      "lstrip": false,
      "rstrip": false,
      "normalized": false,
      "special": true
    },
    {
      "id": 4,
      "content": "ask hn:",
      "single_word": false,
      "lstrip": false,
      "rstrip": false,
      "normalized": false,
      "special": true
    },
    {
      "id": 5,
      "content": "launch hn:",
      "single_word": false,
      "lstrip": false,
      "rstrip": false,
      "normalized": false,
      "special": true
    }
  ],
  "normalizer": {
    "type": "Sequence",
    "normalizers": [
      {
        "type": "NFKC"
      },
      {
        "type": "Lowercase"
      },
      {
        "type": "Replace",
        "pattern": {
          "Regex": "\\s+"
        },
        "content": " "
      },
      {
        "type": "Strip",
        "strip_left": true,
        "strip_right": true
      }
    ]
  },
  "pre_tokenizer": {
    "type": "ByteLevel",
    "add_prefix_space": true,
    "trim_offsets": true,
    "use_regex": true
  },
  "post_processor": null,
  "decoder": {
    "type": "ByteLevel",
    "add_prefix_space": true,
    "trim_offsets": true,
    "use_regex": true
  },
  "model": {
    "type": "BPE",
    "dropout": null,
    "unk_token": "<unk>",
    "continuing_subword_prefix": null,
    "end_of_word_suffix": null,
    "fuse_unk": false,
    "byte_fallback": false,
    "ignore_merges": false,
    "vocab": {
      "<pad>": 0,
      "<eos>": 1,
      "<unk>": 2,
      "show hn:": 3,
      "ask hn:": 4,
      "launch hn:": 5,
      "!": 6,
      "\"": 7,
      "#": 8,
      "$": 9,
      "%": 10,
      "&": 11,
      "'": 12,
      "(": 13,
      ")": 14,
      "*": 15,
      "+": 16,
      ",": 17,
      "-": 18,
      ".": 19,
      "/": 20,
      "0": 21,
      "1": 22,
      "2": 23,
      "3": 24,
      "4": 25,
      "5": 26,
      "6": 27,
      "7": 28,
      "8": 29,
      "9": 30,
      ":": 31,
      ";": 32,
      "<": 33,
      "=": 34,
      ">": 35,
      "?": 36,
      "@": 37,
      "[": 38,
      "\\": 39,
      "]": 40,
      "^": 41,
      "_": 42,
      "`": 43,
      "a": 44,
      "b": 45,
      "c": 46,
      "d": 47,
      "e": 48,
      "f": 49,
      "g": 50,
      "h": 51,
      "i": 52,
      "j": 53,
      "k": 54,
      "l": 55,
      "m": 56,
      "n": 57,
      "o": 58,
      "p": 59,
      "q": 60,
      "r": 61,
      "s": 62,
      "t": 63,
      "u": 64,
      "v": 65,
      "w": 66,
      "x": 67,
      "y": 68,
      "z": 69,
      "{": 70,
      "|": 71,
      "}": 72,
      "~": 73,
      "¡": 74,
      "¢": 75,
      "£": 76,
      "¤": 77,
      "¥": 78,
      "¦": 79,
      "§": 80,
      "¨": 81,
      "©": 82,
      "ª": 83,
      "«": 84,
      "¬": 85,
      "®": 86,
      "¯": 87,
      "°": 88,
      "±": 89,
      "²": 90,
      "³": 91,
      "´": 92,
      "µ": 93,
      "¶": 94,
      "·": 95,
      "¸": 96,
      "¹": 97,
      "º": 98,
      "»": 99,
      "¼": 100,
      "½": 101,
      "¾": 102,
      "¿": 103,
      "Â": 104,
      "Ã": 105,
      "Ä": 106,
      "Å": 107,
      "Ç": 108,
      "È": 109,
      "Ê": 110,
      "Ì": 111,
      "Î": 112,
      "Ï": 113,
      "Ð": 114,
      "á": 115,
      "â": 116,
      "ã": 117,
      "ä": 118,
      "å": 119,
      "æ": 120,
      "è": 121,
      "ï": 122,
      "Ĉ": 123,
      "Ġ": 124,
      "Ģ": 125,
      "ģ": 126,
      "Ĥ": 127,
      "ĥ": 128,
      "Ħ": 129,
      "ħ": 130,
      "Ĩ": 131,
      "ĩ": 132,
      "Ī": 133,
      "ī": 134,
      "Ĭ": 135,
      "ĭ": 136,
      "Į": 137,
      "į": 138,
      "İ": 139,
      "Ĳ": 140,
      "ĳ": 141,
      "Ĵ": 142,
      "ĵ": 143,
      "Ķ": 144,
      "ķ": 145,
      "Ĺ": 146,
      "ĺ": 147,
      "Ļ": 148,
      "ļ": 149,
      "Ľ": 150,
      "ľ": 151,
      "Ŀ": 152,
      "ŀ": 153,
      "Ł": 154,
      "ł": 155,
      "Ń": 156,
      "Ġa": 157,
      "in": 158,
      "Ġt": 159,
      "Ġs": 160,
      "er": 161,
      "Ġc": 162,
      "on": 163,
      "re": 164,
      "or": 165,
      "at": 166,
      "Ġf": 167,
      "en": 168,
      "ing": 169,
      "Ġp": 170,
      "es": 171,
      "Ġw": 172,
      "Ġm": 173,
      "it": 174,
      "Ġh": 175,
      "an": 176,
      "Ġb": 177,
      "Ġd": 178,
      "Ġth": 179,
      "Ġo": 180,
      "al": 181,
      "ar": 182,
      "is": 183,
      "ro": 184,
      "Ġl": 185,
      "Ġin": 186,
      "Ġthe": 187,
      "ed": 188,
      "ic": 189,
      "Ġto": 190,
      "ou": 191,
      "Ġan": 192,
      "Ġg": 193,
      "ion": 194,
      "ow": 195,
      "le": 196,
      "st": 197,
      "Ġn": 198,
      "Ġe": 199,
      "Ġre": 200,
      "Ġof": 201,
      "ac": 202,
      "il": 203,
      "Ġu": 204,
      "Ġfor": 205,
      "el": 206,
      "ent": 207,
      "om": 208,
      "et": 209,
      "as": 210,
      "id": 211,
      "Ġand": 212,
      "ec": 213,
      "Ġsh": 214,
      "ra": 215,
      "Ġst": 216,
      "ol": 217,
      "Ġhn": 218,
      "ut": 219,
      "im": 220,
      "ers": 221,
      "ig": 222,
      "Ġai": 223,
      "Ġy": 224,
      "iv": 225,
      "ith": 226,
      "'s": 227,
      "Ġv": 228,
      "ot": 229,
      "od": 230,
      "Ġon": 231,
      "ation": 232,
      "âĢ": 233,
      "ch": 234,
      "âĢĵ": 235,
      "Ġis": 236,
      "Ġwith": 237,
      "Ġwh": 238,
      "Ġshow": 239,
      "Ġpro": 240,
      "ĠâĢĵ": 241,
      "am": 242,
      "Ġch": 243,
      "ur": 244,
      "ce": 245,
      "Ġr": 246,
      "pp": 247,
      "ag": 248,
      "ter": 249,
      "ay": 250,
      "Ġ(": 251,
      "Ġyou": 252,
      "ad": 253,
      "em": 254,
      "Ġas": 255,
      "20": 256,
      "Ġne": 257,
      "un": 258,
      "Ġcom": 259,
      "Ġde": 260,
      "ts": 261,
      "Ġus": 262,
      "ul": 263,
      "us": 264,
      "th": 265,
      "ide": 266,
      "os": 267,
      "op": 268,
      "Ġi": 269,
      "ver": 270,
      "ab": 271,
      "Ġj": 272,
      "ear": 273,
      "ir": 274,
      "ct": 275,
      "um": 276,
      "pt": 277,
      "ak": 278,
      "Ġcon": 279,
      "est": 280,
      "ack": 281,
      "oc": 282,
      "Ġex": 283,
      "ate": 284,
      "ly": 285,
      "if": 286,
      "Ġwe": 287,
      "Ġk": 288,
      "ity": 289,
      "og": 290,
      "ive": 291,
      "ess": 292,
      "rom": 293,
      "and": 294,
      "Ġapp": 295,
      "ure": 296,
      "pen": 297,
      "Ġen": 298,
      "ine": 299,
      "Ġ[": 300,
      "pl": 301,
      "Ġbu": 302,
      "ve": 303,
      "Ġhow": 304,
      "qu": 305,
      "Ġwor": 306,
      "Ġbe": 307,
      "Ġal": 308,
      "Ġcl": 309,
      "Ġit": 310,
      "ist": 311,
      "Ġtr": 312,
      "Ġnew": 313,
      "ill": 314,
      "Ġcomp": 315,
      "Ġun": 316,
      "ect": 317,
      "ust": 318,
      "igh": 319,
      "Ġgo": 320,
      "Ġ1": 321,
      "Ġfrom": 322,
      "Ġsp": 323,
      "are": 324,
      "ore": 325,
      "our": 326,
      "ost": 327,
      "ap": 328,
      "Ġopen": 329,
      "ld": 330,
      "ideo": 331,
      "Ġsc": 332,
      "Ġpl": 333,
      "ub": 334,
      "Ġask": 335,
      "ri": 336,
      "202": 337,
      "ast": 338,
      "Ġyour": 339,
      "age": 340,
      "Ġare": 341,
      "Ġat": 342,
      "ang": 343,
      "ies": 344,
      "art": 345,
      "ia": 346,
      "Ġbuil": 347,
      "ain": 348,
      "ment": 349,
      "Ġag": 350,
      "Ġwhat": 351,
      "ard": 352,
      "ok": 353,
      "ip": 354,
      "ant": 355,
      "Ġint": 356,
      "Ġdat": 357,
      "video": 358,
      "oun": 359,
      "for": 360,
      "iz": 361,
      "Ġmod": 362,
      "of": 363,
      "ial": 364,
      "ell": 365,
      "ind": 366,
      "Ġ'": 367,
      "ud": 368,
      "Ġcan": 369,
      "all": 370,
      "Ġdo": 371,
      "up": 372,
      "act": 373,
      "ans": 374,
      "ie": 375,
      "Ġby": 376,
      "res": 377,
      "Ġim": 378,
      "ort": 379,
      "Ġro": 380,
      "Ġar": 381,
      "Ġad": 382,
      "Ġthat": 383,
      "ib": 384,
      "Ġcod": 385,
      "ram": 386,
      "ks": 387,
      "Ġgen": 388,
      "out": 389,
      "Ġwhy": 390,
      "ech": 391,
      "ight": 392,
      "able": 393,
      "Ġdev": 394,
      "se": 395,
      "ace": 396,
      "form": 397,
      "ions": 398,
      "ob": 399,
      "Ġres": 400,
      "ice": 401,
      "one": 402,
      "der": 403,
      "Ġpr": 404,
      "Ġnot": 405,
      "Ġweb": 406,
      "Ġac": 407,
      "ug": 408,
      "Ġinter": 409,
      "Ġam": 410,
      "ire": 411,
      "ite": 412,
      "ence": 413,
      "ail": 414,
      "uc": 415,
      "av": 416,
      "ding": 417,
      "ical": 418,
      "ook": 419,
      "ign": 420,
      "Ġle": 421,
      "ph": 422,
      "Ġdata": 423,
      "Ġcont": 424,
      "Ġsy": 425,
      "ge": 426,
      "uct": 427,
      "Ġor": 428,
      "ake": 429,
      "Ġqu": 430,
      "ik": 431,
      "ry": 432,
      "Ġmy": 433,
      "Ġdis": 434,
      "Ġll": 435,
      "ory": 436,
      "Ġbl": 437,
      "oft": 438,
      "Ġ202": 439,
      "Ġem": 440,
      "'t": 441,
      "per": 442,
      "Ġab": 443,
      "ex": 444,
      "ens": 445,
      "Ġtool": 446,
      "ach": 447,
      "ark": 448,
      "ms": 449,
      "ource": 450,
      "Ġwork": 451,
      "Ġmodel": 452,
      "ai": 453,
      "Ġ\"": 454,
      "ase": 455,
      "Ġup": 456,
      "ance": 457,
      "Ġla": 458,
      "ep": 459,
      "ould": 460,
      "Ġman": 461,
      "ime": 462,
      "Ġtech": 463,
      "00": 464,
      "ware": 465,
      "earch": 466,
      "ree": 467,
      "ass": 468,
      "Ġ3": 469,
      "reat": 470,
      "Ġ2": 471,
      "Ġph": 472,
      "Ġgener": 473,
      "Ġ$": 474,
      "Ġsec": 475,
      "wor": 476,
      "Ġse": 477,
      "ws": 478,
      "ov": 479,
      "ere": 480,
      "ays": 481,
      "ds": 482,
      "Ġha": 483,
      "ning": 484,
      "Ġra": 485,
      "Ġfir": 486,
      "ations": 487,
      "Ġser": 488,
      "Ġcode": 489,
      "ff": 490,
      "Ġusing": 491,
      "ower": 492,
      "ros": 493,
      "ics": 494,
      "Ġeng": 495,
      "ogle": 496,
      "201": 497,
      "Ġlin": 498,
      "Ġover": 499,
      "ient": 500,
      "ary": 501,
      "Ġgoogle": 502,
      "Ġout": 503,
      "df": 504,
      "stem": 505,
      "ath": 506,
      "Ġfl": 507,
      "ome": 508,
      "Ġaut": 509,
      "Ġtra": 510,
      "ock": 511,
      "ame": 512,
      "ting": 513,
      "ous": 514,
      "ors": 515,
      "Ġdes": 516,
      "elop": 517,
      "ron": 518,
      "Ġev": 519,
      "ix": 520,
      "ated": 521,
      "Ġhe": 522,
      "own": 523,
      "Ġdevelop": 524,
      "ents": 525,
      "Ġrec": 526,
      "ult": 527,
      "Ġoff": 528,
      "Ġpre": 529,
      "Ġyear": 530,
      "Ġmic": 531,
      "Ġfirst": 532,
      "ber": 533,
      "Ġchat": 534,
      "Ġsystem": 535,
      "Ġaf": 536,
      "Ġrev": 537,
      "ased": 538,
      "Ġall": 539,
      "Ġacc": 540,
      "Ġabout": 541,
      "ative": 542,
      "Ġuse": 543,
      "Ġimp": 544,
      "Ġsu": 545,
      "Ġengine": 546,
      "Ġcol": 547,
      "Ġapple": 548,
      "Ġhas": 549,
      "ian": 550,
      "Ġfe": 551,
      "Ġper": 552,
      "Ġme": 553,
      "Ġget": 554,
      "ile": 555,
      "Ġrep": 556,
      "Ġwill": 557,
      "lect": 558,
      "Ġcomm": 559,
      "Ġchin": 560,
      "rit": 561,
      "ys": 562,
      "ade": 563,
      "Ġz": 564,
      "ress": 565,
      "Ġlang": 566,
      "Ġstart": 567,
      "Ġprog": 568,
      "ual": 569,
      "ating": 570,
      "Ġind": 571,
      "Ġmore": 572,
      "iew": 573,
      "Ġdr": 574,
      "pe": 575,
      "Ġbo": 576,
      "ern": 577,
      "Ġinto": 578,
      "ue": 579,
      "Ġsa": 580,
      "Ġnow": 581,
      "yth": 582,
      "Ġlear": 583,
      "Ġmet": 584,
      "duct": 585,
      "Ġlangu": 586,
      "Ġsim": 587,
      "Ġx": 588,
      "Ġbet": 589,
      "end": 590,
      "Ġafter": 591,
      "Ġmus": 592,
      "ator": 593,
      "Ġbro": 594,
      "Ġtrans": 595,
      "Ġits": 596,
      "Ġsol": 597,
      "co": 598,
      "Ġbuilt": 599,
      "Ġsm": 600,
      "Ġsoft": 601,
      "ish": 602,
      "enc": 603,
      "Ġap": 604,
      "ick": 605,
      "Ġcomput": 606,
      "Ġprogram": 607,
      "Ġfree": 608,
      "Ġhave": 609,
      "pdf": 610,
      "ink": 611,
      "Ġgu": 612,
      "io": 613,
      "Ġdec": 614,
      "ike": 615,
      "Ġworld": 616,
      "ble": 617,
      "Ġte": 618,
      "Ġsoftware": 619,
      "Ġback": 620,
      "Ġever": 621,
      "Ġpost": 622,
      "ash": 623,
      "und": 624,
      "Ġhum": 625,
      "fl": 626,
      "aking": 627,
      "work": 628,
      "ong": 629,
      "Ġvis": 630,
      "Ġfast": 631,
      "Ġno": 632,
      "ound": 633,
      "ey": 634,
      "ux": 635,
      "Ġwar": 636,
      "Ġpower": 637,
      "Ġlanguage": 638,
      "ates": 639,
      "Ġgro": 640,
      "Ġpe": 641,
      "Ġtime": 642,
      "Ġreal": 643,
      "bo": 644,
      "Ġcr": 645,
      "ject": 646,
      "Ġmade": 647,
      "Ġstud": 648,
      "Ġllm": 649,
      "ric": 650,
      "atch": 651,
      "we": 652,
      "ren": 653,
      "Ġexpl": 654,
      "ows": 655,
      "Ġmon": 656,
      "ript": 657,
      "unch": 658,
      "ution": 659,
      "Ġco": 660,
      "Ġstr": 661,
      "int": 662,
      "als": 663,
      "ump": 664,
      "ext": 665,
      "Ġel": 666,
      "erm": 667,
      "ility": 668,
      "Ġsource": 669,
      "Ġthan": 670,
      "urn": 671,
      "Ġhel": 672,
      "anc": 673,
      "ise": 674,
      "net": 675,
      "Ġinv": 676,
      "Ġrun": 677,
      "Ġbuilding": 678,
      "ific": 679,
      "con": 680,
      "iss": 681,
      "Ġrem": 682,
      "Ġgl": 683,
      "Ġone": 684,
      "Ġtest": 685,
      "Ġeu": 686,
      "lic": 687,
      "Ġso": 688,
      "Ġunder": 689,
      "les": 690,
      "Ġcar": 691,
      "Ġchina": 692,
      "Ġpol": 693,
      "Ġsur": 694,
      "Ġnet": 695,
      "Ġmake": 696,
      "ple": 697,
      "Ġmin": 698,
      "Ġsays": 699,
      "com": 700,
      "fer": 701,
      "Ġmark": 702,
      "Ġmicros": 703,
      "ering": 704,
      "wn": 705,
      "line": 706,
      "Ġopenai": 707,
      "Ġ4": 708,
      "ists": 709,
      "Ġdesign": 710,
      "source": 711,
      "Ġ5": 712,
      "Ġins": 713,
      "Ġgame": 714,
      "ets": 715,
      "olog": 716,
      "Ġext": 717,
      "Ġhigh": 718,
      "Ġany": 719,
      "bot": 720,
      "its": 721,
      "Ġrust": 722,
      "ons": 723,
      "Ġmodels": 724,
      "Ġsupp": 725,
      "Ġchang": 726,
      "Ġcompan": 727,
      "ages": 728,
      "Ġsearch": 729,
      "Ġbuild": 730,
      "eric": 731,
      "Ġhack": 732,
      "Ġcould": 733,
      "Ġresearch": 734,
      "urity": 735,
      "Ġfind": 736,
      "Ġed": 737,
      "Ġgra": 738,
      "Ġlaunch": 739,
      "Ġproduct": 740,
      "ming": 741,
      "Ġbr": 742,
      "sh": 743,
      "Ġstartup": 744,
      "Ġart": 745,
      "rol": 746,
      "tern": 747,
      "cript": 748,
      "oy": 749,
      "Ġcre": 750,
      "oss": 751,
      "Ġjust": 752,
      "Ġ2024": 753,
      "Ġair": 754,
      "Ġass": 755,
      "Ġdown": 756,
      "elf": 757,
      "Ġkn": 758,
      "ax": 759,
      "Ġexp": 760,
      "ins": 761,
      "Ġwind": 762,
      "Ġact": 763,
      "Ġear": 764,
      "Ġyears": 765,
      "Ġred": 766,
      "Ġrele": 767,
      "Ġbig": 768,
      "Ġlib": 769,
      "Ġvs": 770,
      "Ġplan": 771,
      "Ġlinux": 772,
      "Ġmicrosoft": 773,
      "Ġanal": 774,
      "Ġclou": 775,
      "Ġhelp": 776,
      "Ġdoes": 777,
      "ython": 778,
      "Ġcreat": 779,
      "Ġcons": 780,
      "ings": 781,
      "Ġlif": 782,
      "Ġpar": 783,
      "Ġinst": 784,
      "az": 785,
      "Ġsw": 786,
      "Ġserv": 787,
      "ition": 788,
      "yp": 789,
      "gpt": 790,
      "ature": 791,
      "Ġmed": 792,
      "Ġhuman": 793,
      "Ġprot": 794,
      "Ġameric": 795,
      "Ġmanag": 796,
      "ience": 797,
      "Ġwho": 798,
      "atform": 799,
      "Ġsup": 800,
      "Ġbut": 801,
      "ek": 802,
      "xt": 803,
      "arg": 804,
      "Ġbre": 805,
      "Ġllms": 806,
      "Ġwas": 807,
      "ict": 808,
      "Ġmac": 809,
      "Ġjob": 810,
      "Ġmult": 811,
      "Ġatt": 812,
      "Ġmem": 813,
      "cl": 814,
      "ices": 815,
      "Ġfun": 816,
      "Ġfut": 817,
      "Ġspace": 818,
      "Ġsl": 819,
      "Ġpython": 820,
      "ople": 821,
      "ql": 822,
      "ale": 823,
      "Ġdeep": 824,
      "Ġexper": 825,
      "Ġtw": 826,
      "Ġcla": 827,
      "cess": 828,
      "erg": 829,
      "Ġpeople": 830,
      "ugh": 831,
      "ood": 832,
      "ement": 833,
      "200": 834,
      "Ġway": 835,
      "Ġfuture": 836,
      "Ġsoc": 837,
      "acy": 838,
      "Ġbra": 839,
      "Ġval": 840,
      "Ġprom": 841,
      "Ġob": 842,
      "Ġpart": 843,
      "Ġour": 844,
      "de": 845,
      "Ġchatgpt": 846,
      "Ġeff": 847,
      "Ġend": 848,
      "ount": 849,
      "rypt": 850,
      "Ġautom": 851,
      "ond": 852,
      "Ġlike": 853,
      "Ġneed": 854,
      "ivers": 855,
      "Ġthis": 856,
      "Ġdon": 857,
      "Ġnext": 858,
      "Ġpers": 859,
      "Ġfound": 860,
      "ital": 861,
      "Ġelect": 862,
      "Ġwhen": 863,
      "Ġread": 864,
      "Ġtechn": 865,
      "Ġsecurity": 866,
      "Ġret": 867,
      "Ġcal": 868,
      "Ġagent": 869,
      "let": 870,
      "Ġplatform": 871,
      "Ġ2025": 872,
      "Ġtes": 873,
      "Ġmay": 874,
      "ream": 875,
      "Ġcur": 876,
      "ese": 877,
      "akes": 878,
      "ious": 879,
      "her": 880,
      "Ġ6": 881,
      "ater": 882,
      "Ġagain": 883,
      "Ġtrump": 884,
      "ization": 885,
      "rop": 886,
      "Ġlife": 887,
      "Ġpub": 888,
      "ible": 889,
      "la": 890,
      "Ġpriv": 891,
      "Ġfil": 892,
      "ner": 893,
      "Ġbrows": 894,
      "Ġmo": 895,
      "Ġris": 896,
      "19": 897,
      "Ġmost": 898,
      "Ġdet": 899,
      "Ġvideo": 900,
      "Ġban": 901,
      "ful": 902,
      "Ġca": 903,
      "Ġadv": 904,
      "Ġscient": 905,
      "Ġsub": 906,
      "ects": 907,
      "ose": 908,
      "Ġwebs": 909,
      "Ġlearning": 910,
      "Ġuk": 911,
      "ident": 912,
      "ify": 913,
      "Ġopt": 914,
      "old": 915,
      "Ġsch": 916,
      "alth": 917,
      "Ġav": 918,
      "Ġdef": 919,
      "Ġwrit": 920,
      "Ġshould": 921,
      "Ġplay": 922,
      "Ġlibr": 923,
      "Ġfin": 924,
      "Ġbook": 925,
      "Ġloc": 926,
      "Ġcy": 927,
      "Ġown": 928,
      "man": 929,
      "ism": 930,
      "Ġproject": 931,
      "vid": 932,
      "Ġwindows": 933,
      "Ġproble": 934,
      "Ġarch": 935,
      "gh": 936,
      "Ġinf": 937,
      "rame": 938,
      "Ġbetter": 939,
      "Ġcust": 940,
      "Ġwithout": 941,
      "ft": 942,
      "Ġmusk": 943,
      "Ġgam": 944,
      "Ġhist": 945,
      "ied": 946,
      "ull": 947,
      "vel": 948,
      "ode": 949,
      "Ġcustom": 950,
      "to": 951,
      "Ġbec": 952,
      "pr": 953,
      "Ġtheir": 954,
      "ugg": 955,
      "Ġprogramming": 956,
      "based": 957,
      "Ġknow": 958,
      "yn": 959,
      "orn": 960,
      "Ġpo": 961,
      "Ġbus": 962,
      "Ġself": 963,
      "Ġdem": 964,
      "Ġapi": 965,
      "Ġsupport": 966,
      "Ġent": 967,
      "Ġinc": 968,
      "Ġstar": 969,
      "ability": 970,
      "str": 971,
      "Ġnews": 972,
      "uss": 973,
      "ling": 974,
      "Ġce": 975,
      "Ġpay": 976,
      "Ġlook": 977,
      "Ġ10": 978,
      "ities": 979,
      "ithub": 980,
      "Ġgood": 981,
      "Ġif": 982,
      "Ġstudy": 983,
      "ery": 984,
      "Ġann": 985,
      "Ġbrowser": 986,
      "Ġlo": 987,
      "ploy": 988,
      "Ġevery": 989,
      "Ġlong": 990,
      "book": 991,
      "ines": 992,
      "itor": 993,
      "Ġreg": 994,
      "Ġspe": 995,
      "Ġframe": 996,
      "Ġlearn": 997,
      "iness": 998,
      "att": 999,
      "Ġjav": 1000,
      "Ġgithub": 1001,
      "ips": 1002,
      "Ġcontrol": 1003,
      "ord": 1004,
      "Ġserver": 1005,
      "Ġmach": 1006,
      "ives": 1007,
      "Ġ7": 1008,
      "Ġhard": 1009,
      "Ġsign": 1010,
      "ments": 1011,
      "Ġmarket": 1012,
      "Ġcloud": 1013,
      "led": 1014,
      "Ġupd": 1015,
      "Ġer": 1016,
      "Ġsocial": 1017,
      "less": 1018,
      "Ġtrack": 1019,
      "app": 1020,
      "Ġdeb": 1021,
      "ency": 1022,
      "ough": 1023,
      "Ġinvest": 1024,
      "Ġtext": 1025,
      "itch": 1026,
      "uck": 1027,
      "Ġsk": 1028,
      "eg": 1029,
      "view": 1030,
      "Ġsome": 1031,
      "ert": 1032,
      "ational": 1033,
      "Ġapps": 1034,
      "Ġreport": 1035,
      "Ġsimple": 1036,
      "gen": 1037,
      "Ġcop": 1038,
      "Ġbest": 1039,
      "Ġlibrary": 1040,
      "Ġform": 1041,
      "ases": 1042,
      "ude": 1043,
      "ues": 1044,
      "Ġdig": 1045,
      "Ġrobot": 1046,
      "sc": 1047,
      "Ġagents": 1048,
      "Ġperform": 1049,
      "Ġinternet": 1050,
      "pu": 1051,
      "ular": 1052,
      "Ġcoding": 1053,
      "Ġfire": 1054,
      "arge": 1055,
      "ize": 1056,
      "Ġonline": 1057,
      "Ġguide": 1058,
      "ants": 1059,
      "Ġsuper": 1060,
      "read": 1061,
      "Ġant": 1062,
      "ero": 1063,
      "rough": 1064,
      "Ġkey": 1065,
      "ich": 1066,
      "Ġcomputer": 1067,
      "ology": 1068,
      "rib": 1069,
      "ross": 1070,
      "Ġtools": 1071,
      "ural": 1072,
      "fs": 1073,
      "way": 1074,
      "Ġcall": 1075,
      "Ġdoc": 1076,
      "Ġdatab": 1077,
      "Ġdel": 1078,
      "Ġsaf": 1079,
      "Ġturn": 1080,
      "cover": 1081,
      "Ġperson": 1082,
      "time": 1083,
      "ized": 1084,
      "ces": 1085,
      "Ġbill": 1086,
      "ards": 1087,
      "ier": 1088,
      "Ġreview": 1089,
      "ely": 1090,
      "Ġste": 1091,
      "power": 1092,
      "Ġdif": 1093,
      "Ġdevelopment": 1094,
      "Ġglob": 1095,
      "Ġeuro": 1096,
      "Ġfeature": 1097,
      "Ġset": 1098,
      "Ġmaking": 1099,
      "Ġmeta": 1100,
      "Ġ9": 1101,
      "ss": 1102,
      "Ġhy": 1103,
      "Ġusers": 1104,
      "iving": 1105,
      "cp": 1106,
      "rov": 1107,
      "Ġengineering": 1108,
      "uring": 1109,
      "Ġframework": 1110,
      "Ġquant": 1111,
      "Ġtesla": 1112,
      "olution": 1113,
      "ral": 1114,
      "Ġtop": 1115,
      "oll": 1116,
      "Ġaltern": 1117,
      "Ġthink": 1118,
      "Ġteam": 1119,
      "Ġbusiness": 1120,
      "Ġlog": 1121,
      "Ġhistory": 1122,
      "ining": 1123,
      "ild": 1124,
      "Ġpass": 1125,
      "ands": 1126,
      "Ġglobal": 1127,
      "Ġide": 1128,
      "Ġfr": 1129,
      "Ġcommun": 1130,
      "Ġrel": 1131,
      "Ġless": 1132,
      "Ġke": 1133,
      "Ġvisual": 1134,
      "Ġcent": 1135,
      "ouse": 1136,
      "Ġlocal": 1137,
      "Ġdist": 1138,
      "Ġbeh": 1139,
      "Ġbrain": 1140,
      "duc": 1141,
      "Ġcost": 1142,
      "Ġgpt": 1143,
      "ube": 1144,
      "Ġthey": 1145,
      "Ġtyp": 1146,
      "alk": 1147,
      "2023": 1148,
      "ucture": 1149,
      "Ġperformance": 1150,
      "Ġmath": 1151,
      "Ġrepl": 1152,
      "Ġsyn": 1153,
      "vidia": 1154,
      "Ġeurope": 1155,
      "Ġstate": 1156,
      "Ġhealth": 1157,
      "Ġ8": 1158,
      "Ġmar": 1159,
      "lear": 1160,
      "ox": 1161,
      "Ġcam": 1162,
      "ites": 1163,
      "Ġnvidia": 1164,
      "Ġagainst": 1165,
      "Ġpat": 1166,
      "imate": 1167,
      "anding": 1168,
      "Ġgr": 1169,
      "Ġreact": 1170,
      "Ġcreate": 1171,
      "ke": 1172,
      "ret": 1173,
      "Ġmemory": 1174,
      "Ġproblem": 1175,
      "Ġmedia": 1176,
      "Ġscience": 1177,
      "Ġcompany": 1178,
      "Ġdigital": 1179,
      "day": 1180,
      "reen": 1181,
      "Ġmov": 1182,
      "Ġben": 1183,
      "Ġstat": 1184,
      "Ġlead": 1185,
      "Ġelon": 1186,
      "Ġgraph": 1187,
      "Ġeas": 1188,
      "use": 1189,
      "Ġamaz": 1190,
      "ote": 1191,
      "js": 1192,
      "inal": 1193,
      "Ġfail": 1194,
      "Ġaccess": 1195,
      "ness": 1196,
      "Ġcour": 1197,
      "orts": 1198,
      "ellig": 1199,
      "Ġwebsite": 1200,
      "gres": 1201,
      "ps": 1202,
      "Ġcrypt": 1203,
      "Ġold": 1204,
      "ivity": 1205,
      "Ġwhere": 1206,
      "Ġconf": 1207,
      "Ġdiscover": 1208,
      "Ġscientists": 1209,
      "Ġsam": 1210,
      "Ġdid": 1211,
      "uts": 1212,
      "ten": 1213,
      "atter": 1214,
      "Ġadd": 1215,
      "Ġpostgres": 1216,
      "ll": 1217,
      "Ġprocess": 1218,
      "els": 1219,
      "Ġq": 1220,
      "irect": 1221,
      "Ġamazon": 1222,
      "Ġoptim": 1223,
      "Ġlet": 1224,
      "Ġphot": 1225,
      "Ġsystems": 1226,
      "Ġimage": 1227,
      "ional": 1228,
      "Ġceo": 1229,
      "ration": 1230,
      "leg": 1231,
      "eck": 1232,
      "Ġextens": 1233,
      "Ġclaude": 1234,
      "ergy": 1235,
      "ns": 1236,
      "Ġht": 1237,
      "lex": 1238,
      "Ġemail": 1239,
      "erv": 1240,
      "Ġdi": 1241,
      "Ġthere": 1242,
      "Ġlight": 1243,
      "Ġge": 1244,
      "ift": 1245,
      "rong": 1246,
      "Ġattack": 1247,
      "he": 1248,
      "Ġmodern": 1249,
      "powered": 1250,
      "Ġsn": 1251,
      "Ġhome": 1252,
      "Ġstor": 1253,
      "ection": 1254,
      "Ġsal": 1255,
      "Ġcor": 1256,
      "Ġprof": 1257,
      "ush": 1258,
      "Ġquantum": 1259,
      "Ġlarge": 1260,
      "Ġtwo": 1261,
      "Ġpublic": 1262,
      "br": 1263,
      "Ġsmart": 1264,
      "Ġnetwork": 1265,
      "eng": 1266,
      "Ġbit": 1267,
      "Ġ19": 1268,
      "land": 1269,
      "Ġruss": 1270,
      "Ġhapp": 1271,
      "Ġmachine": 1272,
      "te": 1273,
      "Ġfix": 1274,
      "ense": 1275,
      "Ġmiss": 1276,
      "ascript": 1277,
      "Ġapplic": 1278,
      "ights": 1279,
      "uch": 1280,
      "lement": 1281,
      "Ġstop": 1282,
      "Ġtake": 1283,
      "roid": 1284,
      "Ġintro": 1285,
      "Ġdatabase": 1286,
      "Ġjo": 1287,
      "Ġintellig": 1288,
      "Ġlist": 1289,
      "Ġsmall": 1290,
      "Ġalternative": 1291,
      "ty": 1292,
      "Ġrequ": 1293,
      "Ġstill": 1294,
      "ird": 1295,
      "Ġpersonal": 1296,
      "Ġmap": 1297,
      "Ġoth": 1298,
      "Ġunderst": 1299,
      "Ġearth": 1300,
      "raph": 1301,
      "air": 1302,
      "Ġtim": 1303,
      "Ġenergy": 1304,
      "Ġoper": 1305,
      "ired": 1306,
      "phone": 1307,
      "Ġjavascript": 1308,
      "Ġecon": 1309,
      "Ġyout": 1310,
      "Ġchange": 1311,
      "ying": 1312,
      "Ġgrow": 1313,
      "ck": 1314,
      "ulation": 1315,
      "Ġdeveloper": 1316,
      "Ġtesting": 1317,
      "na": 1318,
      "Ġreve": 1319,
      "Ġshare": 1320,
      "vern": 1321,
      "Ġlink": 1322,
      "ysis": 1323,
      "jects": 1324,
      "ential": 1325,
      "Ġsing": 1326,
      "Ġbot": 1327,
      "arm": 1328,
      "Ġeconom": 1329,
      "ini": 1330,
      "Ġsil": 1331,
      "Ġthem": 1332,
      "Ġage": 1333,
      "Ġbi": 1334,
      "Ġhand": 1335,
      "Ġlab": 1336,
      "Ġrest": 1337,
      "Ġunivers": 1338,
      "Ġ100": 1339,
      "Ġleg": 1340,
      "Ġbreak": 1341,
      "ety": 1342,
      "board": 1343,
      "Ġfore": 1344,
      "Ġdirect": 1345,
      "ures": 1346,
      "Ġchinese": 1347,
      "Ġannoun": 1348,
      "Ġcap": 1349,
      "Ġvir": 1350,
      "vers": 1351,
      "Ġ20": 1352,
      "dit": 1353,
      "Ġkill": 1354,
      "izing": 1355,
      "Ġservice": 1356,
      "gor": 1357,
      "uit": 1358,
      "Ġanaly": 1359,
      "Ġterm": 1360,
      "ils": 1361,
      "ything": 1362,
      "cast": 1363,
      "2022": 1364,
      "mark": 1365,
      "rome": 1366,
      "Ġgovern": 1367,
      "Ġgenerator": 1368,
      "ef": 1369,
      "Ġlive": 1370,
      "Ġpred": 1371,
      "ium": 1372,
      "Ġcontent": 1373,
      "Ġassist": 1374,
      "lo": 1375,
      "Ġthrough": 1376,
      "ference": 1377,
      "Ġtell": 1378,
      "ilot": 1379,
      "back": 1380,
      "Ġandroid": 1381,
      "Ġblock": 1382,
      "Ġlaw": 1383,
      "down": 1384,
      "lish": 1385,
      "Ġwant": 1386,
      "Ġhere": 1387,
      "Ġgreat": 1388,
      "Ġiss": 1389,
      "Ġmicro": 1390,
      "aces": 1391,
      "Ġintel": 1392,
      "Ġcoll": 1393,
      "Ġreleased": 1394,
      "ee": 1395,
      "hip": 1396,
      "Ġquest": 1397,
      "Ġanalysis": 1398,
      "Ġused": 1399,
      "Ġsql": 1400,
      "Ġcompanies": 1401,
      "ave": 1402,
      "Ġcase": 1403,
      "Ġyoutube": 1404,
      "Ġfed": 1405,
      "Ġwould": 1406,
      "ited": 1407,
      "ourn": 1408,
      "Ġsee": 1409,
      "Ġcyber": 1410,
      "50": 1411,
      "Ġgem": 1412,
      "usion": 1413,
      "Ġtem": 1414,
      "Ġbased": 1415,
      "Ġlay": 1416,
      "Ġstream": 1417,
      "ument": 1418,
      "Ġgeneration": 1419,
      "put": 1420,
      "Ġmag": 1421,
      "Ġenc": 1422,
      "ules": 1423,
      "Ġsay": 1424,
      "Ġpack": 1425,
      "Ġstore": 1426,
      "ma": 1427,
      "Ġmcp": 1428,
      "Ġjap": 1429,
      "ool": 1430,
      "Ġaud": 1431,
      "Ġfaster": 1432,
      "Ġfiles": 1433,
      "Ġjapan": 1434,
      "Ġface": 1435,
      "ids": 1436,
      "Ġauth": 1437,
      "Ġintelligence": 1438,
      "iel": 1439,
      "bl": 1440,
      "Ġes": 1441,
      "Ġmess": 1442,
      "Ġver": 1443,
      "ason": 1444,
      "ims": 1445,
      "Ġhead": 1446,
      "icon": 1447,
      "Ġinteract": 1448,
      "Ġwriting": 1449,
      "Ġast": 1450,
      "Ġvers": 1451,
      "itect": 1452,
      "Ġdom": 1453,
      "Ġday": 1454,
      "Ġonly": 1455,
      "Ġalgor": 1456,
      "Ġpract": 1457,
      "Ġvision": 1458,
      "bit": 1459,
      "Ġdead": 1460,
      "Ġspec": 1461,
      "bers": 1462,
      "ones": 1463,
      "Ġbad": 1464,
      "Ġdra": 1465,
      "round": 1466,
      "Ġuser": 1467,
      "Ġkeep": 1468,
      "tr": 1469,
      "2021": 1470,
      "Ġtransform": 1471,
      "Ġgames": 1472,
      "Ġalgorith": 1473,
      "gan": 1474,
      "Ġmakes": 1475,
      "bs": 1476,
      "Ġren": 1477,
      "ains": 1478,
      "iqu": 1479,
      "Ġnon": 1480,
      "Ġref": 1481,
      "umm": 1482,
      "Ġphys": 1483,
      "Ġjobs": 1484,
      "af": 1485,
      "ats": 1486,
      "Ġclimate": 1487,
      "oot": 1488,
      "Ġfile": 1489,
      "off": 1490,
      "oney": 1491,
      "Ġfeed": 1492,
      "Ġmusic": 1493,
      "Ġmulti": 1494,
      "Ġfunct": 1495,
      "Ġnuc": 1496,
      "Ġamerica": 1497,
      "bed": 1498,
      "ml": 1499,
      "Ġwin": 1500,
      "Ġgot": 1501,
      "me": 1502,
      "Ġnor": 1503,
      "pend": 1504,
      "Ġmanagement": 1505,
      "++": 1506,
      "rite": 1507,
      "row": 1508,
      "'re": 1509,
      "Ġnum": 1510,
      "Ġbeen": 1511,
      "Ġ2023": 1512,
      "Ġrisk": 1513,
      "iver": 1514,
      "Ġgetting": 1515,
      "ype": 1516,
      "Ġthreat": 1517,
      "Ġchall": 1518,
      "pro": 1519,
      "Ġport": 1520,
      "ank": 1521,
      "Ġzero": 1522,
      "Ġprivacy": 1523,
      "atic": 1524,
      "Ġlow": 1525,
      "Ġstand": 1526,
      "Ġexec": 1527,
      "ateg": 1528,
      "dr": 1529,
      "fore": 1530,
      "ract": 1531,
      "Ġnas": 1532,
      "Ġmonth": 1533,
      "Ġarchitect": 1534,
      "oring": 1535,
      "Ġmil": 1536,
      "Ġupdate": 1537,
      "oice": 1538,
      "Ġsolar": 1539,
      "box": 1540,
      "Ġshort": 1541,
      "Ġios": 1542,
      "Ġbehind": 1543,
      "Ġlim": 1544,
      "Ġlast": 1545,
      "ama": 1546,
      "Ġchip": 1547,
      "Ġdeal": 1548,
      "Ġip": 1549,
      "aper": 1550,
      "Ġinteg": 1551,
      "Ġdevelopers": 1552,
      "Ġprompt": 1553,
      "Ġfall": 1554,
      "used": 1555,
      "Ġpop": 1556,
      "iven": 1557,
      "Ġprop": 1558,
      "ask": 1559,
      "Ġvia": 1560,
      "ograph": 1561,
      "Ġdisc": 1562,
      "Ġpres": 1563,
      "ality": 1564,
      "Ġgit": 1565,
      "Ġrad": 1566,
      "Ġextension": 1567,
      "pts": 1568,
      "Ġjourn": 1569,
      "Ġindust": 1570,
      "Ġeffic": 1571,
      "Ġother": 1572,
      "aring": 1573,
      "Ġworks": 1574,
      "Ġwon": 1575,
      "Ġnuclear": 1576,
      "Ġblack": 1577,
      "Ġsat": 1578,
      "Ġthough": 1579,
      "tok": 1580,
      "ily": 1581,
      "ulator": 1582,
      "ounder": 1583,
      "Ġmuch": 1584,
      "Ġche": 1585,
      "Ġweek": 1586,
      "Ġresp": 1587,
      "ising": 1588,
      "icial": 1589,
      "Ġur": 1590,
      "Ġobs": 1591,
      "Ġtypes": 1592,
      "ison": 1593,
      "Ġbeing": 1594,
      "ribut": 1595,
      "Ġma": 1596,
      "Ġfull": 1597,
      "other": 1598,
      "Ġchrome": 1599,
      "Ġsurve": 1600,
      "top": 1601,
      "iny": 1602,
      "Ġcell": 1603,
      "Ġmill": 1604,
      "omet": 1605,
      "ected": 1606,
      "Ġelectric": 1607,
      "Ġcut": 1608,
      "Ġconn": 1609,
      "Ġcanc": 1610,
      "Ġlaunches": 1611,
      "Ġcrypto": 1612,
      "aut": 1613,
      "iting": 1614,
      "Ġcollect": 1615,
      "ification": 1616,
      "Ġmacos": 1617,
      "Ġsingle": 1618,
      "Ġwatch": 1619,
      "Ġvul": 1620,
      "the": 1621,
      "Ġprin": 1622,
      "get": 1623,
      "Ġstory": 1624,
      "Ġemploy": 1625,
      "Ġsuc": 1626,
      "Ġscal": 1627,
      "Ġstrateg": 1628,
      "host": 1629,
      "Ġaws": 1630,
      "Ġtik": 1631,
      "Ġtheory": 1632,
      "Ġep": 1633,
      "cept": 1634,
      "Ġgenerative": 1635,
      "Ġspeed": 1636,
      "ole": 1637,
      "ward": 1638,
      "Ġsell": 1639,
      "Ġlat": 1640,
      "Ġbefore": 1641,
      "Ġbug": 1642,
      "ape": 1643,
      "Ġmoney": 1644,
      "iler": 1645,
      "Ġworkers": 1646,
      "Ġsaas": 1647,
      "year": 1648,
      "Ġthings": 1649,
      "Ġos": 1650,
      "Ġdep": 1651,
      "coin": 1652,
      "Ġeffect": 1653,
      "Ġavail": 1654,
      "ced": 1655,
      "Ġter": 1656,
      "Ġcare": 1657,
      "Ġmob": 1658,
      "iews": 1659,
      "Ġtiktok": 1660,
      "ipp": 1661,
      "yc": 1662,
      "Ġfre": 1663,
      "2020": 1664,
      "Ġexperim": 1665,
      "2019": 1666,
      "Ġimplement": 1667,
      "Ġprivate": 1668,
      "Ġtoo": 1669,
      "Ġworking": 1670,
      "ally": 1671,
      "Ġclass": 1672,
      "Ġcompet": 1673,
      "Ġgemini": 1674,
      "Ġpc": 1675,
      "ront": 1676,
      "2024": 1677,
      "ween": 1678,
      "Ġinside": 1679,
      "Ġtechnology": 1680,
      "ger": 1681,
      "Ġcount": 1682,
      "Ġrules": 1683,
      "works": 1684,
      "Ġgroup": 1685,
      "Ġgovernment": 1686,
      "Ġnasa": 1687,
      "face": 1688,
      "Ġword": 1689,
      "Ġclient": 1690,
      "Ġchild": 1691,
      "Ġplans": 1692,
      "Ġbetween": 1693,
      "Ġcourt": 1694,
      "ken": 1695,
      "Ġcheck": 1696,
      "ified": 1697,
      "Ġmanager": 1698,
      "hing": 1699,
      "oid": 1700,
      "Ġ-": 1701,
      "ane": 1702,
      "ari": 1703,
      "ars": 1704,
      "ky": 1705,
      "Ġwrong": 1706,
      "ically": 1707,
      "Ġhar": 1708,
      "Ġhis": 1709,
      "Ġrub": 1710,
      "ector": 1711,
      "Ġcalif": 1712,
      "ynam": 1713,
      "itt": 1714,
      "itive": 1715,
      "Ġproduction": 1716,
      "sp": 1717,
      "Ġenv": 1718,
      "formation": 1719,
      "Ġrunning": 1720,
      "Ġamerican": 1721,
      "Ġimages": 1722,
      "Ġui": 1723,
      "ults": 1724,
      "Ġiphone": 1725,
      "Ġphone": 1726,
      "Ġincre": 1727,
      "Ġcaliforn": 1728,
      "be": 1729,
      "ule": 1730,
      "Ġtur": 1731,
      "Ġsumm": 1732,
      "Ġcrit": 1733,
      "ators": 1734,
      "Ġhal": 1735,
      "Ġstri": 1736,
      "Ġprojects": 1737,
      "Ġofficial": 1738,
      "Ġchatbot": 1739,
      "load": 1740,
      "vent": 1741,
      "Ġconc": 1742,
      "Ġspot": 1743,
      "Ġlaws": 1744,
      "Ġdesk": 1745,
      "Ġrelease": 1746,
      "son": 1747,
      "Ġpa": 1748,
      "10": 1749,
      "Ġwater": 1750,
      "Ġtraining": 1751,
      "Ġengineer": 1752,
      "Ġtax": 1753,
      "vert": 1754,
      "Ġindia": 1755,
      "Ġcomputing": 1756,
      "Ġremote": 1757,
      "Ġunderstanding": 1758,
      "Ġpredict": 1759,
      "Ġland": 1760,
      "ury": 1761,
      "Ġdeath": 1762,
      "ises": 1763,
      "Ġinfl": 1764,
      "Ġcli": 1765,
      "Ġblog": 1766,
      "Ġmany": 1767,
      "Ġrecord": 1768,
      "Ġident": 1769,
      "Ġcle": 1770,
      "Ġwants": 1771,
      "ley": 1772,
      "aren": 1773,
      "Ġeasy": 1774,
      "Ġpi": 1775,
      "ision": 1776,
      "play": 1777,
      "ests": 1778,
      "ication": 1779,
      "Ġacross": 1780,
      "Ġeverything": 1781,
      "Ġcalifornia": 1782,
      "Ġcross": 1783,
      "ody": 1784,
      "lare": 1785,
      "Ġsem": 1786,
      "idd": 1787,
      "Ġinterview": 1788,
      "ror": 1789,
      "upt": 1790,
      "ental": 1791,
      "Ġul": 1792,
      "raft": 1793,
      "Ġcontext": 1794,
      "Ġgenerate": 1795,
      "Ġsecure": 1796,
      "ences": 1797,
      "Ġbench": 1798,
      "Ġterminal": 1799,
      "Ġindustry": 1800,
      "zz": 1801,
      "Ġright": 1802,
      "Ġswitch": 1803,
      "Ġmobile": 1804,
      "'m": 1805,
      "Ġwrite": 1806,
      "Ġbel": 1807,
      "unt": 1808,
      "ops": 1809,
      "Ġstartups": 1810,
      "Ġearly": 1811,
      "Ġdocument": 1812,
      "Ġavailable": 1813,
      "by": 1814,
      "Ġassistant": 1815,
      "like": 1816,
      "wh": 1817,
      "Ġfront": 1818,
      "Ġpush": 1819,
      "Ġvoice": 1820,
      "Ġamd": 1821,
      "Ġorgan": 1822,
      "Ġdrug": 1823,
      "Ġfinds": 1824,
      "Ġembed": 1825,
      "Ġsales": 1826,
      "ann": 1827,
      "Ġbatter": 1828,
      "Ġstack": 1829,
      "oses": 1830,
      "Ġarm": 1831,
      "Ġsite": 1832,
      "Ġhol": 1833,
      "Ġhost": 1834,
      "Ġdynam": 1835,
      "Ġanim": 1836,
      "Ġshows": 1837,
      "Ġscale": 1838,
      "Ġorig": 1839,
      "Ġmeet": 1840,
      "anced": 1841,
      "Ġbank": 1842,
      "Ġsafety": 1843,
      "Ġfeatures": 1844,
      "Ġcommunity": 1845,
      "Ġstorage": 1846,
      "Ġarchitecture": 1847,
      "Ġvulner": 1848,
      "over": 1849,
      "Ġtype": 1850,
      "Ġsou": 1851,
      "Ġgpu": 1852,
      "flow": 1853,
      "ossible": 1854,
      "gest": 1855,
      "pa": 1856,
      "Ġps": 1857,
      "Ġvib": 1858,
      "ocks": 1859,
      "Ġbuy": 1860,
      "Ġinfra": 1861,
      "mer": 1862,
      "por": 1863,
      "Ġappro": 1864,
      "Ġintern": 1865,
      "ache": 1866,
      "Ġimpact": 1867,
      "Ġbitcoin": 1868,
      "cy": 1869,
      "Ġhear": 1870,
      "Ġreason": 1871,
      "ute": 1872,
      "Ġisn": 1873,
      "Ġrise": 1874,
      "Ġstructure": 1875,
      "code": 1876,
      "ior": 1877,
      "pus": 1878,
      "tra": 1879,
      "ze": 1880,
      "istic": 1881,
      "Ġsecret": 1882,
      "go": 1883,
      "Ġnotes": 1884,
      "Ġimprov": 1885,
      "ires": 1886,
      "Ġtalk": 1887,
      "Ġpot": 1888,
      "Ġanother": 1889,
      "Ġvide": 1890,
      "Ġcoming": 1891,
      "seek": 1892,
      "Ġcris": 1893,
      "Ġresearchers": 1894,
      "Ġmind": 1895,
      "Ġnear": 1896,
      "Ġdeploy": 1897,
      "Ġalt": 1898,
      "Ġmyst": 1899,
      "Ġminim": 1900,
      "yle": 1901,
      "Ġtarg": 1902,
      "Ġcore": 1903,
      "Ġfam": 1904,
      "Ġdesktop": 1905,
      "min": 1906,
      "Ġ/": 1907,
      "000": 1908,
      "Ġgets": 1909,
      "ving": 1910,
      "ined": 1911,
      "Ġsen": 1912,
      "Ġcity": 1913,
      "Ġproduc": 1914,
      "Ġchar": 1915,
      "Ġbeg": 1916,
      "aster": 1917,
      "gener": 1918,
      "Ġ0": 1919,
      "Ġtar": 1920,
      "Ġtiny": 1921,
      "âĢĻ": 1922,
      "ames": 1923,
      "Ġcalc": 1924,
      "Ġapplications": 1925,
      "Ġinteractive": 1926,
      "ony": 1927,
      "Ġfar": 1928,
      "Ġmal": 1929,
      "ised": 1930,
      "iron": 1931,
      "Ġannounces": 1932,
      "Ġfu": 1933,
      "Ġfact": 1934,
      "Ġfund": 1935,
      "acing": 1936,
      "Ġwhich": 1937,
      "iring": 1938,
      "Ġgoing": 1939,
      "Ġdiffer": 1940,
      "ves": 1941,
      "Ġdrop": 1942,
      "etic": 1943,
      "aker": 1944,
      "erman": 1945,
      "Ġcamer": 1946,
      "Ġmight": 1947,
      "ogn": 1948,
      "Ġversion": 1949,
      "Ġdeepseek": 1950,
      "Ġschool": 1951,
      "Ġvirt": 1952,
      "Ġenviron": 1953,
      "Ġpath": 1954,
      "Ġhit": 1955,
      "Ġmonitor": 1956,
      "Ġhour": 1957,
      "ables": 1958,
      "Ġcomplex": 1959,
      "Ġ50": 1960,
      "ler": 1961,
      "uce": 1962,
      "erc": 1963,
      "Ġconvers": 1964,
      "Ġ30": 1965,
      "Ġrag": 1966,
      "sw": 1967,
      "ora": 1968,
      "Ġhom": 1969,
      "aging": 1970,
      "Ġlevel": 1971,
      "Ġmoon": 1972,
      "structure": 1973,
      "Ġsilicon": 1974,
      "tp": 1975,
      "ider": 1976,
      "osed": 1977,
      "oph": 1978,
      "Ġir": 1979,
      "ocol": 1980,
      "2018": 1981,
      "199": 1982,
      "Ġcopilot": 1983,
      "'ve": 1984,
      "lin": 1985,
      "ng": 1986,
      "eral": 1987,
      "Ġmis": 1988,
      "Ġmig": 1989,
      "ples": 1990,
      "Ġ11": 1991,
      "aving": 1992,
      "ather": 1993,
      "Ġhumans": 1994,
      "aw": 1995,
      "rupt": 1996,
      "itter": 1997,
      "Ġthree": 1998,
      "Ġeditor": 1999,
      "Ġreturn": 2000,
      "Ġbooks": 2001,
      "':": 2002,
      "db": 2003,
      "gra": 2004,
      "Ġside": 2005,
      "Ġdays": 2006,
      "Ġlost": 2007,
      "Ġnav": 2008,
      "Ġnov": 2009,
      "Ġnative": 2010,
      "Ġequ": 2011,
      "aint": 2012,
      "Ġrock": 2013,
      "ffic": 2014,
      "Ġrevolution": 2015,
      "Ġmeas": 2016,
      "Ġexplain": 2017,
      "Ġpolic": 2018,
      "Ġhacker": 2019,
      "Ġdoesn": 2020,
      "bre": 2021,
      "Ġkern": 2022,
      "Ġbiggest": 2023,
      "ledge": 2024,
      "Ġsuccess": 2025,
      "ints": 2026,
      "Ġlic": 2027,
      "Ġec": 2028,
      "etes": 2029,
      "Ġimm": 2030,
      "Ġcult": 2031,
      "Ġbas": 2032,
      "ange": 2033,
      "Ġeven": 2034,
      "ificial": 2035,
      "Ġcreating": 2036,
      "Ġpublish": 2037,
      "Ġencrypt": 2038,
      "Ġmaj": 2039,
      "Ġhot": 2040,
      "Ġdark": 2041,
      "aries": 2042,
      "Ġruby": 2043,
      "Ġvideos": 2044,
      "opp": 2045,
      "iple": 2046,
      "Ġalgorithm": 2047,
      "ci": 2048,
      "Ġcat": 2049,
      "urs": 2050,
      "Ġcolor": 2051,
      "wards": 2052,
      "osing": 2053,
      "Ġbey": 2054,
      "Ġtrust": 2055,
      "berg": 2056,
      "Ġboost": 2057,
      "Ġmeth": 2058,
      "Ġcloudf": 2059,
      "Ġbecome": 2060,
      "Ġapproach": 2061,
      "kit": 2062,
      "val": 2063,
      "Ġtre": 2064,
      "Ġcss": 2065,
      "Ġpod": 2066,
      "Ġwom": 2067,
      "Ġhouse": 2068,
      "Ġdog": 2069,
      "Ġartificial": 2070,
      "Ġbeyond": 2071,
      "ging": 2072,
      "Ġdream": 2073,
      "aily": 2074,
      "Ġexperience": 2075,
      "Ġlove": 2076,
      "Ġlearned": 2077,
      "Ġfav": 2078,
      "Ġshut": 2079,
      "Ġroad": 2080,
      "Ġnote": 2081,
      "2017": 2082,
      "Ġrussia": 2083,
      "Ġhappen": 2084,
      "aff": 2085,
      "do": 2086,
      "mar": 2087,
      "Ġfight": 2088,
      "Ġanth": 2089,
      "ival": 2090,
      "Ġnever": 2091,
      "Ġneural": 2092,
      "Ġcreated": 2093,
      "Ġknowledge": 2094,
      "Ġhardware": 2095,
      "Ġmajor": 2096,
      "Ġ15": 2097,
      "Ġcapt": 2098,
      "Ġissues": 2099,
      "Ġcrisis": 2100,
      "Ġcloudflare": 2101,
      "Ġchips": 2102,
      "une": 2103,
      "irc": 2104,
      "aste": 2105,
      "ression": 2106,
      "Ġpolit": 2107,
      "Ġanti": 2108,
      "Ġdiff": 2109,
      "Ġreveals": 2110,
      "tc": 2111,
      "Ġbar": 2112,
      "Ġden": 2113,
      "Ġgreen": 2114,
      "eler": 2115,
      "ots": 2116,
      "da": 2117,
      "Ġpy": 2118,
      "Ġnat": 2119,
      "Ġstock": 2120,
      "erse": 2121,
      "Ġscr": 2122,
      "Ġdevices": 2123,
      "Ġacqu": 2124,
      "Ġreddit": 2125,
      "Ġconsum": 2126,
      "ollow": 2127,
      "Ġtarif": 2128,
      "Ġdaily": 2129,
      "Ġgerman": 2130,
      "Ġview": 2131,
      "ope": 2132,
      "irst": 2133,
      "Ġsave": 2134,
      "Ġsatell": 2135,
      "house": 2136,
      "ls": 2137,
      "Ġcra": 2138,
      "Ġfri": 2139,
      "Ġfood": 2140,
      "idence": 2141,
      "force": 2142,
      "ield": 2143,
      "ides": 2144,
      "antic": 2145,
      "uction": 2146,
      "Ġaccount": 2147,
      "Ġengineers": 2148,
      "Ġcrash": 2149,
      "Ġchanges": 2150,
      "Ġcopy": 2151,
      "Ġaudio": 2152,
      "Ġice": 2153,
      "Ġtal": 2154,
      "onom": 2155,
      "Ġfra": 2156,
      "Ġfounder": 2157,
      "Ġlarg": 2158,
      "Ġexam": 2159,
      "Ġkub": 2160,
      "2016": 2161,
      "Ġboard": 2162,
      "duction": 2163,
      "Ġbring": 2164,
      "Ġprotocol": 2165,
      "Ġput": 2166,
      "Ġml": 2167,
      "ilities": 2168,
      "Ġcharg": 2169,
      "Ġinvestig": 2170,
      "Ġclean": 2171,
      "bon": 2172,
      "Ġpaper": 2173,
      "Ġcompon": 2174,
      "Ġpattern": 2175,
      "Ġvirtual": 2176,
      "ault": 2177,
      "Ġcoun": 2178,
      "Ġmot": 2179,
      "ung": 2180,
      "Ġ12": 2181,
      "ources": 2182,
      "Ġcanad": 2183,
      "Ġslow": 2184,
      "Ġlinked": 2185,
      "Ġefficient": 2186,
      "Ġpal": 2187,
      "Ġvi": 2188,
      "uses": 2189,
      "Ġfiref": 2190,
      "ination": 2191,
      "icles": 2192,
      "Ġleak": 2193,
      "word": 2194,
      "ton": 2195,
      "ui": 2196,
      "Ġwik": 2197,
      "edia": 2198,
      "ibility": 2199,
      "Ġfoundation": 2200,
      "Ġgrowth": 2201,
      "cient": 2202,
      "Ġcomplet": 2203,
      "Ġukra": 2204,
      "Ġenter": 2205,
      "uation": 2206,
      "red": 2207,
      "Ġpage": 2208,
      "Ġinformation": 2209,
      "Ġvol": 2210,
      "Ġmode": 2211,
      "Ġquick": 2212,
      "Ġeval": 2213,
      "Ġoffice": 2214,
      "Ġfinanc": 2215,
      "Ġanthrop": 2216,
      "Ġpip": 2217,
      "Ġcomb": 2218,
      "Ġscreen": 2219,
      "Ġservices": 2220,
      "Ġwritten": 2221,
      "Ġidea": 2222,
      "Ġconnect": 2223,
      "first": 2224,
      "right": 2225,
      "Ġsan": 2226,
      "Ġwere": 2227,
      "Ġmist": 2228,
      "Ġacceler": 2229,
      "Ġnetworks": 2230,
      "Ġinfrastructure": 2231,
      "eing": 2232,
      "sor": 2233,
      "Ġfake": 2234,
      "Ġline": 2235,
      "ember": 2236,
      "Ġunl": 2237,
      "cont": 2238,
      "Ġclaims": 2239,
      "Ġtracking": 2240,
      "Ġmathem": 2241,
      "Ġtimes": 2242,
      "iant": 2243,
      "ta": 2244,
      "Ġaust": 2245,
      "Ġcpu": 2246,
      "Ġdock": 2247,
      "Ġtoday": 2248,
      "Ġstep": 2249,
      "Ġwhite": 2250,
      "Ġrace": 2251,
      "emb": 2252,
      "Ġjson": 2253,
      "Ġsecond": 2254,
      "Ġdistribut": 2255,
      "Ġfeedback": 2256,
      "Ġstandard": 2257,
      "Ġcov": 2258,
      "rove": 2259,
      "Ġinn": 2260,
      "asp": 2261,
      "Ġplug": 2262,
      "Ġsea": 2263,
      "Ġremov": 2264,
      "Ġnorth": 2265,
      "ystem": 2266,
      "Ġfly": 2267,
      "Ġprice": 2268,
      "Ġtechnical": 2269,
      "Ġlooking": 2270,
      "Ġreveal": 2271,
      "11": 2272,
      "free": 2273,
      "ene": 2274,
      "eter": 2275,
      "unk": 2276,
      "Ġads": 2277,
      "rent": 2278,
      "Ġinstall": 2279,
      "Ġtarget": 2280,
      "Ġkernel": 2281,
      "ners": 2282,
      "enge": 2283,
      "Ġey": 2284,
      "utes": 2285,
      "agram": 2286,
      "Ġuses": 2287,
      "Ġcontin": 2288,
      "ne": 2289,
      "po": 2290,
      "Ġcirc": 2291,
      "Ġresults": 2292,
      "Ġimport": 2293,
      "Ġcars": 2294,
      "Ġanyone": 2295,
      "Ġamericans": 2296,
      "Ġintroduc": 2297,
      "base": 2298,
      "Ġest": 2299,
      "Ġmor": 2300,
      "Ġmass": 2301,
      "Ġbrit": 2302,
      "ention": 2303,
      "omm": 2304,
      "bu": 2305,
      "ees": 2306,
      "Ġfollow": 2307,
      "Ġllama": 2308,
      "ernetes": 2309,
      "Ġpostgresql": 2310,
      "Ġhtml": 2311,
      "port": 2312,
      "ych": 2313,
      "Ġill": 2314,
      "Ġmax": 2315,
      "Ġdou": 2316,
      "Ġ18": 2317,
      "Ġindex": 2318,
      "Ġexperiment": 2319,
      "Ġpu": 2320,
      "Ġscam": 2321,
      "Ġ25": 2322,
      "Ġgeneral": 2323,
      "Ġevolution": 2324,
      "Ġpowered": 2325,
      "Ġcarbon": 2326,
      "Ġschem": 2327,
      "Ġeveryone": 2328,
      "Ġbillion": 2329,
      "Ġcosts": 2330,
      "Ġchildren": 2331,
      "Ġmethod": 2332,
      "Ġanthropic": 2333,
      "pm": 2334,
      "Ġtail": 2335,
      "Ġperf": 2336,
      "Ġboot": 2337,
      "Ġvibe": 2338,
      "Ġaltman": 2339,
      "ven": 2340,
      "Ġtv": 2341,
      "Ġtex": 2342,
      "acc": 2343,
      "Ġstre": 2344,
      "Ġcontain": 2345,
      "Ġboeing": 2346,
      "100": 2347,
      "cc": 2348,
      "most": 2349,
      "Ġfine": 2350,
      "Ġancient": 2351,
      "Ġeth": 2352,
      "Ġinsp": 2353,
      "Ġrussian": 2354,
      "Ġbattery": 2355,
      "Ġsouth": 2356,
      "Ġkubernetes": 2357,
      "30": 2358,
      "Ġcard": 2359,
      "ends": 2360,
      "iling": 2361,
      "amp": 2362,
      "Ġjud": 2363,
      "berry": 2364,
      "Ġcommand": 2365,
      "Ġlanguages": 2366,
      "Ġexplo": 2367,
      "Ġjava": 2368,
      "link": 2369,
      "ries": 2370,
      "Ġera": 2371,
      "Ġbenchmark": 2372,
      "Ġsin": 2373,
      "Ġfour": 2374,
      "Ġpdf": 2375,
      "Ġloss": 2376,
      "Ġshe": 2377,
      "Ġkore": 2378,
      "Ġkids": 2379,
      "Ġclick": 2380,
      "2014": 2381,
      "Ġavoid": 2382,
      "attle": 2383,
      "Ġeuropean": 2384,
      "Ġstreaming": 2385,
      "ography": 2386,
      "Ġpotential": 2387,
      "Ġpodcast": 2388,
      "ground": 2389,
      "Ġpossible": 2390,
      "Ġansw": 2391,
      "Ġyet": 2392,
      "andom": 2393,
      "Ġcommon": 2394,
      "Ġteams": 2395,
      "Ġideas": 2396,
      "Ġlessons": 2397,
      "Ġsynth": 2398,
      "Ġphotos": 2399,
      "Ġthoughts": 2400,
      "Ġdifferent": 2401,
      "Ġfavor": 2402,
      "Ġwell": 2403,
      "Ġbin": 2404,
      "Ġduring": 2405,
      "Ġscra": 2406,
      "Ġtraffic": 2407,
      "Ġproductivity": 2408,
      "Ġswift": 2409,
      "Ġcursor": 2410,
      "Ġpoint": 2411,
      "Ġthinking": 2412,
      "Ġproducts": 2413,
      "Ġtren": 2414,
      "Ġfac": 2415,
      "Ġnode": 2416,
      "Ġamid": 2417,
      "Ġhackers": 2418,
      "dev": 2419,
      "bsd": 2420,
      "Ġhours": 2421,
      "Ġcovid": 2422,
      "press": 2423,
      "onds": 2424,
      "Ġher": 2425,
      "uth": 2426,
      "Ġcompl": 2427,
      "Ġfirm": 2428,
      "Ġrecomm": 2429,
      "Ġbreach": 2430,
      "Ġsubs": 2431,
      "prise": 2432,
      "Ġpackage": 2433,
      "Ġchallenge": 2434,
      "Ġfirefox": 2435,
      "Ġdocker": 2436,
      "Ġinnov": 2437,
      "bi": 2438,
      "pre": 2439,
      "Ġsle": 2440,
      "Ġsens": 2441,
      "ork": 2442,
      "ana": 2443,
      "Ġop": 2444,
      "eline": 2445,
      "Ġcompiler": 2446,
      "Ġ16": 2447,
      "Ġ17": 2448,
      "Ġdevice": 2449,
      "Ġsafe": 2450,
      "Ġpsych": 2451,
      "Ġlargest": 2452,
      "Ġsun": 2453,
      "Ġsugg": 2454,
      "Ġmen": 2455,
      "Ġhad": 2456,
      "oms": 2457,
      "Ġsolution": 2458,
      "Ġteach": 2459,
      "Ġagentic": 2460,
      "Ġintegr": 2461,
      "Ġminimal": 2462,
      "Ġfinancial": 2463,
      "ians": 2464,
      "ved": 2465,
      "Ġaff": 2466,
      "Ġtaking": 2467,
      "opt": 2468,
      "Ġunve": 2469,
      "aves": 2470,
      "Ġemerg": 2471,
      "Ġphil": 2472,
      "Ġflight": 2473,
      "Ġsimpl": 2474,
      "Ġfunding": 2475,
      "Ġvalley": 2476,
      "Ġproblems": 2477,
      "Ġturns": 2478,
      "Ġeconomy": 2479,
      "Ġanalyt": 2480,
      "Ġquestions": 2481,
      "Ġaway": 2482,
      "Ġaround": 2483,
      "Ġtakes": 2484,
      "Ġpri": 2485,
      "Ġpress": 2486,
      "Ġmit": 2487,
      "Ġrecor": 2488,
      "Ġ40": 2489,
      "Ġaction": 2490,
      "Ġspeech": 2491,
      "not": 2492,
      "Ġsent": 2493,
      "acter": 2494,
      "Ġstates": 2495,
      "astic": 2496,
      "Ġinterface": 2497,
      "Ġseries": 2498,
      "Ġtrain": 2499,
      "Ġevent": 2500,
      "Ġtests": 2501,
      "Ġadvanced": 2502,
      "head": 2503,
      "Ġmonths": 2504,
      "Ġtypescript": 2505,
      "Ġstrategy": 2506,
      "Ġenvironment": 2507,
      "map": 2508,
      "pass": 2509,
      "sm": 2510,
      "Ġic": 2511,
      "Ġfoc": 2512,
      "Ġdest": 2513,
      "Ġtransl": 2514,
      "ission": 2515,
      "Ġinflu": 2516,
      "generated": 2517,
      "Ġinference": 2518,
      "Ġenh": 2519,
      "ford": 2520,
      "Ġorder": 2521,
      "Ġflu": 2522,
      "ological": 2523,
      "ugging": 2524,
      "Ġcancer": 2525,
      "Ġid": 2526,
      "icle": 2527,
      "Ġstaff": 2528,
      "Ġmean": 2529,
      "weight": 2530,
      "Ġspacex": 2531,
      "Ġintroduction": 2532,
      "Ġphysics": 2533,
      "Ġchalleng": 2534,
      "driven": 2535,
      "embly": 2536,
      "bra": 2537,
      "writ": 2538,
      "Ġtreat": 2539,
      "rest": 2540,
      "Ġliving": 2541,
      "Ġve": 2542,
      "Ġauto": 2543,
      "Ġglass": 2544,
      "Ġsoon": 2545,
      "Ġprotect": 2546,
      "Ġwebsites": 2547,
      "Ġapplication": 2548,
      "Ġobserv": 2549,
      "Ġpolicy": 2550,
      "mo": 2551,
      "ris": 2552,
      "Ġcook": 2553,
      "Ġpast": 2554,
      "Ġdies": 2555,
      "Ġdue": 2556,
      "Ġ14": 2557,
      "Ġquality": 2558,
      "Ġevidence": 2559,
      "Ġimprove": 2560,
      "Ġinstr": 2561,
      "Ġmaps": 2562,
      "Ġukraine": 2563,
      "ein": 2564,
      "icing": 2565,
      "Ġvector": 2566,
      "oth": 2567,
      "Ġrandom": 2568,
      "echan": 2569,
      "Ġminutes": 2570,
      "Ġmultiple": 2571,
      "86": 2572,
      "apt": 2573,
      "reme": 2574,
      "Ġbid": 2575,
      "Ġnational": 2576,
      "Ġut": 2577,
      "Ġprob": 2578,
      "Ġprogress": 2579,
      "Ġposts": 2580,
      "Ġstudents": 2581,
      "Ġvalue": 2582,
      "Ġneeds": 2583,
      "Ġelectron": 2584,
      "Ġcalls": 2585,
      "Ġhalf": 2586,
      "Ġcamera": 2587,
      "Ġdistributed": 2588,
      "25": 2589,
      "cent": 2590,
      "oo": 2591,
      "pect": 2592,
      "Ġpan": 2593,
      "Ġmat": 2594,
      "Ġhor": 2595,
      "Ġchain": 2596,
      "Ġcome": 2597,
      "Ġworth": 2598,
      "ief": 2599,
      "Ġdise": 2600,
      "Ġjournal": 2601,
      "Ġemployees": 2602,
      "Ġmigr": 2603,
      "hn": 2604,
      "Ġmust": 2605,
      "Ġmatch": 2606,
      "Ġnight": 2607,
      "Ġrich": 2608,
      "Ġtrade": 2609,
      "Ġdrive": 2610,
      "Ġdetection": 2611,
      "Ġcustomers": 2612,
      "Ġrobots": 2613,
      "Ġreasoning": 2614,
      "ges": 2615,
      "met": 2616,
      "Ġ.": 2617,
      "Ġcert": 2618,
      "stack": 2619,
      "izer": 2620,
      "Ġlapt": 2621,
      "Ġwarns": 2622,
      "Ġdetect": 2623,
      "Ġupdates": 2624,
      "Ġnumber": 2625,
      "cel": 2626,
      "ring": 2627,
      "so": 2628,
      "reg": 2629,
      "Ġfig": 2630,
      "Ġgive": 2631,
      "Ġnan": 2632,
      "Ġreach": 2633,
      "Ġstrugg": 2634,
      "Ġautomated": 2635,
      "Ġradio": 2636,
      "Ġlawsuit": 2637,
      "idden": 2638,
      "Ġscratch": 2639,
      "oj": 2640,
      "stra": 2641,
      "through": 2642,
      "Ġtry": 2643,
      "Ġtravel": 2644,
      "Ġbeta": 2645,
      "Ġreality": 2646,
      "Ġcustomer": 2647,
      "Ġbecom": 2648,
      "Ġhttp": 2649,
      "Ġexecut": 2650,
      "Ġcritical": 2651,
      "Ġrecommend": 2652,
      "ways": 2653,
      "Ġsd": 2654,
      "Ġpur": 2655,
      "Ġbur": 2656,
      "Ġsharing": 2657,
      "chain": 2658,
      "pens": 2659,
      "ored": 2660,
      "anger": 2661,
      "inking": 2662,
      "Ġexploring": 2663,
      "Ġcool": 2664,
      "Ġmove": 2665,
      "Ġattacks": 2666,
      "Ġsurvey": 2667,
      "Ġcollection": 2668,
      "ga": 2669,
      "mon": 2670,
      "Ġsus": 2671,
      "Ġele": 2672,
      "aterial": 2673,
      "Ġtempl": 2674,
      "Ġmilit": 2675,
      "aspberry": 2676,
      "cd": 2677,
      "ha": 2678,
      "Ġfive": 2679,
      "Ġmer": 2680,
      "Ġbri": 2681,
      "abor": 2682,
      "ocr": 2683,
      "Ġconfir": 2684,
      "Ġmissing": 2685,
      "Ġsqlite": 2686,
      "Ġfederal": 2687,
      "Ġlatest": 2688,
      "Ġtariffs": 2689,
      "Ġaustral": 2690,
      "Ġtor": 2691,
      "Ġsound": 2692,
      "Ġmechan": 2693,
      "isp": 2694,
      "Ġgold": 2695,
      "Ġscript": 2696,
      "Ġaren": 2697,
      "offs": 2698,
      "Ġsequ": 2699,
      "Ġheat": 2700,
      "Ġaccoun": 2701,
      "Ġautomation": 2702,
      "ifying": 2703,
      "ique": 2704,
      "ittle": 2705,
      "Ġnearly": 2706,
      "Ġsleep": 2707,
      "cal": 2708,
      "fact": 2709,
      "Ġdiv": 2710,
      "Ġship": 2711,
      "Ġprovid": 2712,
      "Ġraspberry": 2713,
      "Ġalleg": 2714,
      "Ġ24": 2715,
      "Ġapis": 2716,
      "iction": 2717,
      "ync": 2718,
      "Ġdiscovery": 2719,
      "Ġastron": 2720,
      "Ġfraud": 2721,
      "Ġmathemat": 2722,
      "80": 2723,
      "rets": 2724,
      "ecurity": 2725,
      "illance": 2726,
      "Ġdoing": 2727,
      "Ġreverse": 2728,
      "Ġpolice": 2729,
      "Ġreading": 2730,
      "Ġlonger": 2731,
      "Ġreplace": 2732,
      "Ġlimit": 2733,
      "Ġpuzz": 2734,
      "aur": 2735,
      "ned": 2736,
      "Ġtable": 2737,
      "Ġhiring": 2738,
      "arter": 2739,
      "Ġshell": 2740,
      "rael": 2741,
      "Ġrate": 2742,
      "ume": 2743,
      "Ġexist": 2744,
      "Ġunc": 2745,
      "Ġarg": 2746,
      "Ġrails": 2747,
      "2015": 2748,
      "Ġprevent": 2749,
      "Ġstarted": 2750,
      "Ġchanged": 2751,
      "Ġhacking": 2752,
      "Ġtwitter": 2753,
      "Ġfounders": 2754,
      "Ġauthor": 2755,
      "Ġanalytics": 2756,
      "Ġpix": 2757,
      "Ġyork": 2758,
      "ills": 2759,
      "Ġarchive": 2760,
      "Ġkeyboard": 2761,
      "Ġnatural": 2762,
      "12": 2763,
      "part": 2764,
      "zy": 2765,
      "eries": 2766,
      "Ġgod": 2767,
      "Ġtrial": 2768,
      "Ġ13": 2769,
      "Ġrout": 2770,
      "Ġprompts": 2771,
      "Ġsurveillance": 2772,
      "cing": 2773,
      "ded": 2774,
      "light": 2775,
      "Ġess": 2776,
      "Ġdam": 2777,
      "asing": 2778,
      "Ġwhile": 2779,
      "Ġyoung": 2780,
      "akers": 2781,
      "Ġsym": 2782,
      "Ġsurv": 2783,
      "Ġreleases": 2784,
      "Ġlegal": 2785,
      "Ġfacebook": 2786,
      "Ġcomponents": 2787,
      "li": 2788,
      "Ġ#": 2789,
      "Ġ200": 2790,
      "Ġsites": 2791,
      "Ġcash": 2792,
      "rep": 2793,
      "Ġlittle": 2794,
      "Ġgiant": 2795,
      "Ġspread": 2796,
      "Ġflow": 2797,
      "Ġprep": 2798,
      "Ġmarketing": 2799,
      "Ġbehav": 2800,
      "Ġlightweight": 2801,
      "Ġcollabor": 2802,
      "org": 2803,
      "Ġpain": 2804,
      "Ġmaterial": 2805,
      "edly": 2806,
      "Ġnix": 2807,
      "asks": 2808,
      "Ġisrael": 2809,
      "Ġdatas": 2810,
      "Ġinterest": 2811,
      "Ġleft": 2812,
      "Ġcomputers": 2813,
      "Ġexplor": 2814,
      "Ġready": 2815,
      "Ġhyper": 2816,
      "Ġdomain": 2817,
      "Ġjourney": 2818,
      "Ġfavorite": 2819,
      "ged": 2820,
      "ka": 2821,
      "sl": 2822,
      "Ġfoot": 2823,
      "ening": 2824,
      "Ġwall": 2825,
      "Ġhall": 2826,
      "Ġdu": 2827,
      "alle": 2828,
      "Ġincl": 2829,
      "Ġshad": 2830,
      "Ġrole": 2831,
      "Ġautonom": 2832,
      "Ġdrone": 2833,
      "Ġbreaking": 2834,
      "Ġperfect": 2835,
      "64": 2836,
      "ove": 2837,
      "ories": 2838,
      "Ġmid": 2839,
      "Ġbir": 2840,
      "ico": 2841,
      "ears": 2842,
      "Ġscre": 2843,
      "Ġadmin": 2844,
      "Ġtele": 2845,
      "Ġpars": 2846,
      "Ġparad": 2847,
      "Ġgaming": 2848,
      "Ġmachines": 2849,
      "ollar": 2850,
      "Ġuniverse": 2851,
      "Ġnumbers": 2852,
      "Ġthought": 2853,
      "Ġcells": 2854,
      "Ġvulnerability": 2855,
      "Ġcanada": 2856,
      "Ġmast": 2857,
      "Ġname": 2858,
      "ray": 2859,
      "utor": 2860,
      "abilities": 2861,
      "uments": 2862,
      "ife": 2863,
      "Ġkind": 2864,
      "Ġapprov": 2865,
      "Ġenough": 2866,
      "Ġplant": 2867,
      "2013": 2868,
      "Ġrisc": 2869,
      "Ġdemo": 2870,
      "Ġhyd": 2871,
      "Ġcenter": 2872,
      "Ġdynamic": 2873,
      "Ġbegin": 2874,
      "Ġsatellite": 2875,
      "Ġten": 2876,
      "Ġcrow": 2877,
      "Ġgn": 2878,
      "acle": 2879,
      "utions": 2880,
      "emic": 2881,
      "place": 2882,
      "Ġcompar": 2883,
      "Ġguid": 2884,
      "flix": 2885,
      "Ġservers": 2886,
      "Ġobject": 2887,
      "scale": 2888,
      "Ġfamily": 2889,
      "Ġmilitary": 2890,
      "ban": 2891,
      "xy": 2892,
      "Ġspl": 2893,
      "Ġfa": 2894,
      "Ġwent": 2895,
      "Ġnob": 2896,
      "acts": 2897,
      "Ġsecrets": 2898,
      "Ġlinks": 2899,
      "Ġfew": 2900,
      "Ġbroad": 2901,
      "Ġpowerful": 2902,
      "cription": 2903,
      "Ġdownload": 2904,
      "Ġformer": 2905,
      "Ġcorpor": 2906,
      "Ġpopular": 2907,
      "Ġsince": 2908,
      "gl": 2909,
      "sd": 2910,
      "Ġach": 2911,
      "Ġdepend": 2912,
      "umb": 2913,
      "aps": 2914,
      "Ġrob": 2915,
      "Ġrare": 2916,
      "Ġboom": 2917,
      "comp": 2918,
      "Ġrequire": 2919,
      "Ġrespons": 2920,
      "Ġimplementation": 2921,
      "Ġculture": 2922,
      "Ġpatterns": 2923,
      "Ġtexas": 2924,
      "ders": 2925,
      "ij": 2926,
      "Ġsomet": 2927,
      "iter": 2928,
      "Ġhidden": 2929,
      "Ġbal": 2930,
      "Ġthread": 2931,
      "arch": 2932,
      "isco": 2933,
      "level": 2934,
      "Ġforce": 2935,
      "ably": 2936,
      "Ġatl": 2937,
      "Ġquery": 2938,
      "Ġlines": 2939,
      "Ġbrid": 2940,
      "Ġsteam": 2941,
      "Ġheart": 2942,
      "Ġmonitoring": 2943,
      "Ġnavig": 2944,
      "Ġchallenges": 2945,
      "cr": 2946,
      "iet": 2947,
      "Ġciv": 2948,
      "Ġfoss": 2949,
      "Ġbab": 2950,
      "Ġbattle": 2951,
      "Ġthird": 2952,
      "ively": 2953,
      "Ġrule": 2954,
      "Ġconver": 2955,
      "Ġalmost": 2956,
      "Ġdisplay": 2957,
      "Ġdriver": 2958,
      "Ġmini": 2959,
      "Ġdetail": 2960,
      "Ġconfig": 2961,
      "Ġuniversal": 2962,
      "Ġcapital": 2963,
      "Ġrender": 2964,
      "Ġhappened": 2965,
      "Ġstreet": 2966,
      "Ġdisease": 2967,
      "ah": 2968,
      "ause": 2969,
      "iency": 2970,
      "Ġdash": 2971,
      "Ġlik": 2972,
      "pped": 2973,
      "using": 2974,
      "Ġalph": 2975,
      "Ġdoct": 2976,
      "Ġpricing": 2977,
      "Ġcolle": 2978,
      "Ġerror": 2979,
      "Ġenterprise": 2980,
      "bm": 2981,
      "des": 2982,
      "Ġtask": 2983,
      "Ġpos": 2984,
      "Ġtowards": 2985,
      "uning": 2986,
      "Ġprocessing": 2987,
      "Ġalgorithms": 2988,
      "hosted": 2989,
      "Ġcareer": 2990,
      "Ġjudge": 2991,
      "32": 2992,
      "gu": 2993,
      "lines": 2994,
      "side": 2995,
      "Ġpull": 2996,
      "Ġcho": 2997,
      "osp": 2998,
      "Ġbub": 2999,
      "perform": 3000,
      "Ġreports": 3001,
      "Ġsurpr": 3002,
      "Ġscientific": 3003,
      "Ġcampa": 3004,
      "Ġmoving": 3005,
      "Ġstatic": 3006,
      "brid": 3007,
      "Ġmagic": 3008,
      "Ġscaling": 3009,
      "Ġlicense": 3010,
      "Ġveh": 3011,
      "Ġcampaign": 3012,
      "ew": 3013,
      "ĠâĢ": 3014,
      "Ġram": 3015,
      "ina": 3016,
      "Ġpick": 3017,
      "Ġstrong": 3018,
      "ived": 3019,
      "Ġunited": 3020,
      "Ġprices": 3021,
      "Ġblue": 3022,
      "Ġdriving": 3023,
      "ship": 3024,
      "Ġvalid": 3025,
      "Ġbecame": 3026,
      "Ġintegration": 3027,
      "Ġultra": 3028,
      "Ġautonomous": 3029,
      "gress": 3030,
      "vm": 3031,
      "wind": 3032,
      "Ġ&": 3033,
      "Ġsav": 3034,
      "Ġfarm": 3035,
      "oding": 3036,
      "Ġbeaut": 3037,
      "Ġclose": 3038,
      "Ġemp": 3039,
      "Ġraises": 3040,
      "Ġcrack": 3041,
      "Ġtracker": 3042,
      "Ġaddress": 3043,
      "mers": 3044,
      "no": 3045,
      "ted": 3046,
      "Ġpark": 3047,
      "Ġhell": 3048,
      "Ġgas": 3049,
      "Ġbuilder": 3050,
      "ensive": 3051,
      "Ġreviews": 3052,
      "Ġtransp": 3053,
      "Ġnetflix": 3054,
      "Ġcybers": 3055,
      "Ġhistor": 3056,
      "Ġdemand": 3057,
      "ready": 3058,
      "Ġunderstand": 3059,
      "Ġmystery": 3060,
      "Ġdiffusion": 3061,
      "dd": 3062,
      "iable": 3063,
      "set": 3064,
      "Ġtro": 3065,
      "Ġtab": 3066,
      "Ġcuts": 3067,
      "rect": 3068,
      "atives": 3069,
      "Ġwa": 3070,
      "Ġways": 3071,
      "Ġthen": 3072,
      "Ġthing": 3073,
      "Ġlock": 3074,
      "Ġtoken": 3075,
      "Ġef": 3076,
      "Ġjul": 3077,
      "Ġmanage": 3078,
      "Ġseek": 3079,
      "Ġrepos": 3080,
      "Ġbroken": 3081,
      "Ġground": 3082,
      "Ġpoly": 3083,
      "Ġsignal": 3084,
      "Ġphoto": 3085,
      "Ġlaptop": 3086,
      "key": 3087,
      "Ġmix": 3088,
      "Ġmental": 3089,
      "Ġhub": 3090,
      "Ġhits": 3091,
      "Ġdj": 3092,
      "Ġdna": 3093,
      "Ġopp": 3094,
      "Ġlas": 3095,
      "Ġang": 3096,
      "Ġrein": 3097,
      "Ġtruth": 3098,
      "ustain": 3099,
      "Ġoutage": 3100,
      "ishing": 3101,
      "plex": 3102,
      "ught": 3103,
      "Ġsched": 3104,
      "Ġregul": 3105,
      "Ġformat": 3106,
      "Ġbenef": 3107,
      "Ġdiscovered": 3108,
      "ball": 3109,
      "ead": 3110,
      "self": 3111,
      "wide": 3112,
      "Ġple": 3113,
      "Ġparen": 3114,
      "rag": 3115,
      "Ġonce": 3116,
      "Ġcha": 3117,
      "Ġweap": 3118,
      "Ġweight": 3119,
      "ured": 3120,
      "illa": 3121,
      "elling": 3122,
      "Ġround": 3123,
      "Ġupgra": 3124,
      "issions": 3125,
      "Ġadvice": 3126,
      "apping": 3127,
      "Ġfranc": 3128,
      "Ġgrid": 3129,
      "Ġreflect": 3130,
      "Ġspotify": 3131,
      "Ġrocket": 3132,
      "Ġwomen": 3133,
      "Ġpolitical": 3134,
      "ba": 3135,
      "rist": 3136,
      "Ġtutor": 3137,
      "Ġsqu": 3138,
      "Ġcogn": 3139,
      "Ġmain": 3140,
      "Ġmatter": 3141,
      "Ġhous": 3142,
      "Ġoce": 3143,
      "Ġgal": 3144,
      "Ġub": 3145,
      "eless": 3146,
      "odal": 3147,
      "osm": 3148,
      "Ġacad": 3149,
      "Ġsolve": 3150,
      "Ġelection": 3151,
      "Ġfailure": 3152,
      "Ġbreakthrough": 3153,
      "Ġquestion": 3154,
      "Ġwordpress": 3155,
      "Ġcopyright": 3156,
      "23": 3157,
      "fri": 3158,
      "views": 3159,
      "Ġaw": 3160,
      "Ġcs": 3161,
      "Ġcit": 3162,
      "Ġfusion": 3163,
      "Ġwal": 3164,
      "Ġchem": 3165,
      "empt": 3166,
      "under": 3167,
      "Ġweather": 3168,
      "Ġtrying": 3169,
      "apers": 3170,
      "ipedia": 3171,
      "fort": 3172,
      "Ġafric": 3173,
      "Ġinsights": 3174,
      "Ġbecause": 3175,
      "Ġmars": 3176,
      "Ġfunction": 3177,
      "iation": 3178,
      "ios": 3179,
      "Ġsustain": 3180,
      "Ġfaces": 3181,
      "Ġthese": 3182,
      "ership": 3183,
      "Ġplace": 3184,
      "Ġagi": 3185,
      "Ġdoom": 3186,
      "Ġtrading": 3187,
      "Ġaccur": 3188,
      "Ġstudio": 3189,
      "Ġmarkdown": 3190,
      "Ġsupply": 3191,
      "Ġfilm": 3192,
      "Ġdocs": 3193,
      "Ġoptimization": 3194,
      "Ġletter": 3195,
      "Ġmillion": 3196,
      "Ġaccounts": 3197,
      "come": 3198,
      "rs": 3199,
      "Ġpatch": 3200,
      "Ġbul": 3201,
      "Ġlater": 3202,
      "icks": 3203,
      "omb": 3204,
      "ads": 3205,
      "Ġii": 3206,
      "pending": 3207,
      "Ġgoes": 3208,
      "oke": 3209,
      "Ġdevs": 3210,
      "Ġblues": 3211,
      "Ġfeel": 3212,
      "Ġindian": 3213,
      "Ġeffects": 3214,
      "Ġdefense": 3215,
      "Ġgrowing": 3216,
      "Ġembedding": 3217,
      "Ġunveils": 3218,
      "Ġtasks": 3219,
      "Ġsend": 3220,
      "erve": 3221,
      "rel": 3222,
      "Ġmom": 3223,
      "Ġhur": 3224,
      "Ġlisp": 3225,
      "Ġgm": 3226,
      "Ġgar": 3227,
      "Ġstay": 3228,
      "imer": 3229,
      "erson": 3230,
      "Ġvacc": 3231,
      "Ġproof": 3232,
      "pping": 3233,
      "Ġroll": 3234,
      "Ġreven": 3235,
      "Ġsimulation": 3236,
      "ances": 3237,
      "Ġedition": 3238,
      "Ġparalle": 3239,
      "Ġpassword": 3240,
      "Ġprofess": 3241,
      "Ġoperating": 3242,
      "Ġanalyz": 3243,
      "Ġissue": 3244,
      "Ġnotebook": 3245,
      "Ġbrief": 3246,
      "Ġcomparison": 3247,
      "cope": 3248,
      "hood": 3249,
      "rust": 3250,
      "Ġrom": 3251,
      "ino": 3252,
      "ata": 3253,
      "esis": 3254,
      "Ġwild": 3255,
      "Ġwalk": 3256,
      "acs": 3257,
      "iles": 3258,
      "Ġdelet": 3259,
      "Ġwords": 3260,
      "Ġmyth": 3261,
      "Ġseconds": 3262,
      "2012": 3263,
      "Ġwarning": 3264,
      "Ġcover": 3265,
      "comput": 3266,
      "Ġfinding": 3267,
      "Ġcredit": 3268,
      "Ġmultim": 3269,
      "Ġexperts": 3270,
      "Ġemails": 3271,
      "Ġpractices": 3272,
      "Ġfunctional": 3273,
      "Ġconcern": 3274,
      "Ġorigin": 3275,
      "Ġinternational": 3276,
      "Ġcalculator": 3277,
      "plexity": 3278,
      "hol": 3279,
      "Ġpir": 3280,
      "Ġwire": 3281,
      "Ġdanger": 3282,
      "Ġther": 3283,
      "aly": 3284,
      "Ġgpus": 3285,
      "Ġspy": 3286,
      "Ġscan": 3287,
      "action": 3288,
      "rones": 3289,
      "Ġinstant": 3290,
      "Ġsnap": 3291,
      "Ġpractical": 3292,
      "Ġrespon": 3293,
      "ipping": 3294,
      "Ġviol": 3295,
      "Ġunlock": 3296,
      "60": 3297,
      "ua": 3298,
      "Ġson": 3299,
      "Ġsand": 3300,
      "Ġmir": 3301,
      "Ġmaker": 3302,
      "Ġburn": 3303,
      "Ġoil": 3304,
      "Ġled": 3305,
      "Ġga": 3306,
      "eles": 3307,
      "agn": 3308,
      "ements": 3309,
      "Ġneu": 3310,
      "osystem": 3311,
      "Ġibm": 3312,
      "Ġenglish": 3313,
      "Ġrecent": 3314,
      "Ġuseful": 3315,
      "Ġruns": 3316,
      "Ġchanging": 3317,
      "Ġjohn": 3318,
      "Ġharv": 3319,
      "Ġidentity": 3320,
      "Ġachie": 3321,
      "Ġcollege": 3322,
      "ters": 3323,
      "atory": 3324,
      "Ġdns": 3325,
      "ster": 3326,
      "Ġcomes": 3327,
      "open": 3328,
      "Ġconvert": 3329,
      "Ġalways": 3330,
      "Ġagency": 3331,
      "Ġactivity": 3332,
      "Ġreduce": 3333,
      "Ġplanet": 3334,
      "Ġlayoffs": 3335,
      "Ġpractice": 3336,
      "Ġpaid": 3337,
      "Ġkorea": 3338,
      "Ġdestro": 3339,
      "Ġpuzzle": 3340,
      "Ġsame": 3341,
      "Ġswe": 3342,
      "Ġpet": 3343,
      "Ġdrones": 3344,
      "imin": 3345,
      "ota": 3346,
      "Ġrank": 3347,
      "Ġneg": 3348,
      "Ġspect": 3349,
      "Ġadds": 3350,
      "Ġadapt": 3351,
      "Ġallow": 3352,
      "Ġpoll": 3353,
      "Ġextract": 3354,
      "Ġbrand": 3355,
      "Ġrisks": 3356,
      "Ġstatus": 3357,
      "Ġbelie": 3358,
      "Ġencryption": 3359,
      "Ġcomplete": 3360,
      "Ġphilos": 3361,
      "Ġcivil": 3362,
      "Ġbubble": 3363,
      "24": 3364,
      "500": 3365,
      "iance": 3366,
      "ufact": 3367,
      "yl": 3368,
      "Ġmatt": 3369,
      "Ġlot": 3370,
      "Ġstable": 3371,
      "Ġjet": 3372,
      "Ġworse": 3373,
      "apse": 3374,
      "rix": 3375,
      "ups": 3376,
      "Ġresources": 3377,
      "Ġcontract": 3378,
      "Ġblood": 3379,
      "Ġblocks": 3380,
      "Ġoffers": 3381,
      "Ġperplexity": 3382,
      "ashing": 3383,
      "Ġeduc": 3384,
      "Ġedge": 3385,
      "Ġhelps": 3386,
      "Ġclaim": 3387,
      "Ġadvent": 3388,
      "Ġcourse": 3389,
      "Ġmission": 3390,
      "Ġauthent": 3391,
      "Ġdrag": 3392,
      "Ġsemantic": 3393,
      "Ġfuel": 3394,
      "Ġevalu": 3395,
      "pective": 3396,
      "Ġtutorial": 3397,
      "Ġbluesky": 3398,
      "Ġrevenue": 3399,
      "iety": 3400,
      "med": 3401,
      "zen": 3402,
      "Ġinit": 3403,
      "Ġje": 3404,
      "Ġprofit": 3405,
      "Ġeconomic": 3406,
      "Ġjapanese": 3407,
      "Ġfunctions": 3408,
      "Ġefficiency": 3409,
      "Ġcountries": 3410,
      "Ġnovel": 3411,
      "Ġplugin": 3412,
      "Ġsdk": 3413,
      "Ġcybersecurity": 3414,
      "Ġparallel": 3415,
      "40": 3416,
      "mp": 3417,
      "Ġsense": 3418,
      "order": 3419,
      "Ġpin": 3420,
      "Ġpages": 3421,
      "Ġwel": 3422,
      "Ġwaste": 3423,
      "ems": 3424,
      "Ġtoolkit": 3425,
      "2010": 3426,
      "Ġflag": 3427,
      "Ġbox": 3428,
      "Ġsold": 3429,
      "Ġapache": 3430,
      "Ġdecision": 3431,
      "rict": 3432,
      "roll": 3433,
      "Ġfinal": 3434,
      "Ġincident": 3435,
      "Ġload": 3436,
      "Ġinvestment": 3437,
      "Ġdatabases": 3438,
      "Ġdraw": 3439,
      "Ġecosystem": 3440,
      "Ġbehavior": 3441,
      "Ġhousing": 3442,
      "tx": 3443,
      "Ġtit": 3444,
      "Ġsale": 3445,
      "Ġbase": 3446,
      "Ġok": 3447,
      "Ġanything": 3448,
      "Ġgol": 3449,
      "Ġmanufact": 3450,
      "world": 3451,
      "Ġsues": 3452,
      "endly": 3453,
      "Ġmedical": 3454,
      "Ġpartners": 3455,
      "Ġautomate": 3456,
      "Ġdebt": 3457,
      "Ġcommunication": 3458,
      "Ġpropos": 3459,
      "Ġturning": 3460,
      "Ġmalware": 3461,
      "Ġbasic": 3462,
      "Ġcounter": 3463,
      "Ġpixel": 3464,
      "Ġhydro": 3465,
      "16": 3466,
      "fi": 3467,
      "ney": 3468,
      "uff": 3469,
      "Ġtips": 3470,
      "Ġclear": 3471,
      "Ġfit": 3472,
      "Ġharm": 3473,
      "Ġbird": 3474,
      "Ġdb": 3475,
      "Ġtour": 3476,
      "Ġtook": 3477,
      "asc": 3478,
      "Ġstyle": 3479,
      "imes": 3480,
      "Ġclos": 3481,
      "2011": 3482,
      "Ġoffline": 3483,
      "Ġsimul": 3484,
      "Ġsolving": 3485,
      "Ġreduc": 3486,
      "Ġcurrent": 3487,
      "Ġdeliv": 3488,
      "Ġforever": 3489,
      "Ġesp": 3490,
      "ercial": 3491,
      "Ġtransparen": 3492,
      "70": 3493,
      "bol": 3494,
      "cious": 3495,
      "list": 3496,
      "Ġaug": 3497,
      "Ġsex": 3498,
      "atically": 3499,
      "Ġdied": 3500,
      "ications": 3501,
      "Ġvari": 3502,
      "Ġproper": 3503,
      "Ġchess": 3504,
      "Ġbud": 3505,
      "Ġunt": 3506,
      "Ġwhats": 3507,
      "phones": 3508,
      "Ġflo": 3509,
      "Ġrecover": 3510,
      "Ġcommercial": 3511,
      "flows": 3512,
      "ancing": 3513,
      "Ġinstagram": 3514,
      "Ġinstead": 3515,
      "198": 3516,
      "Ġserverless": 3517,
      "Ġsetting": 3518,
      "Ġmillions": 3519,
      "Ġcountry": 3520,
      "where": 3521,
      "aintain": 3522,
      "Ġwikipedia": 3523,
      "Ġintroducing": 3524,
      "Ġbinary": 3525,
      "Ġconfirms": 3526,
      "..": 3527,
      "craft": 3528,
      "lab": 3529,
      "rics": 3530,
      "tech": 3531,
      "wan": 3532,
      "Ġahead": 3533,
      "Ġtree": 3534,
      "Ġtick": 3535,
      "itors": 3536,
      "lec": 3537,
      "Ġnature": 3538,
      "Ġeg": 3539,
      "agent": 3540,
      "ades": 3541,
      "Ġarc": 3542,
      "Ġmarkets": 3543,
      "Ġplane": 3544,
      "Ġdemocr": 3545,
      "Ġstarlink": 3546,
      "Ġ90": 3547,
      "Ġmovie": 3548,
      "Ġmeasure": 3549,
      "Ġconsumer": 3550,
      "Ġinnovation": 3551,
      "Ġrecords": 3552,
      "Ġsomething": 3553,
      "lang": 3554,
      "sec": 3555,
      "Ġcities": 3556,
      "onstr": 3557,
      "Ġpg": 3558,
      "Ġshift": 3559,
      "imp": 3560,
      "Ġvp": 3561,
      "api": 3562,
      "Ġmodular": 3563,
      "Ġadvert": 3564,
      "Ġgenai": 3565,
      "Ġnothing": 3566,
      "Ġworkflow": 3567,
      "Ġpreview": 3568,
      "Ġzig": 3569,
      "encies": 3570,
      "Ġinvent": 3571,
      "Ġreplac": 3572,
      "Ġesc": 3573,
      "Ġdrugs": 3574,
      "Ġhomes": 3575,
      "Ġtalks": 3576,
      "Ġimportant": 3577,
      "Ġsurprising": 3578,
      "Ġocean": 3579,
      "Ġresponse": 3580,
      "eal": 3581,
      "eks": 3582,
      "sql": 3583,
      "ending": 3584,
      "Ġhyp": 3585,
      "Ġball": 3586,
      "Ġyc": 3587,
      "platform": 3588,
      "Ġclust": 3589,
      "Ġspac": 3590,
      "izes": 3591,
      "Ġprogrammer": 3592,
      "intend": 3593,
      "Ġelse": 3594,
      "Ġgrad": 3595,
      "Ġreportedly": 3596,
      "ribution": 3597,
      "Ġphysical": 3598,
      "auth": 3599,
      "Ġselling": 3600,
      "Ġcompetition": 3601,
      "Ġlevels": 3602,
      "Ġgermany": 3603,
      "Ġparadox": 3604,
      "oom": 3605,
      "Ġsong": 3606,
      "Ġspending": 3607,
      "ont": 3608,
      "Ġmel": 3609,
      "Ġmaintain": 3610,
      "Ġhab": 3611,
      "Ġlets": 3612,
      "urren": 3613,
      "ager": 3614,
      "Ġasync": 3615,
      "Ġjail": 3616,
      "Ġconstr": 3617,
      "Ġoffer": 3618,
      "Ġgrav": 3619,
      "Ġdocuments": 3620,
      "Ġhybrid": 3621,
      "Ġdepart": 3622,
      "Ġdocumentation": 3623,
      "Ġsuccessful": 3624,
      "Ġphilosoph": 3625,
      "ev": 3626,
      "zil": 3627,
      "Ġcens": 3628,
      "Ġcosm": 3629,
      "Ġpen": 3630,
      "Ġmaster": 3631,
      "Ġbay": 3632,
      "Ġbody": 3633,
      "Ġdie": 3634,
      "Ġduck": 3635,
      "Ġlives": 3636,
      "Ġvot": 3637,
      "Ġvict": 3638,
      "Ġrf": 3639,
      "ctic": 3640,
      "Ġago": 3641,
      "ounds": 3642,
      "Ġadopt": 3643,
      "Ġlinear": 3644,
      "Ġattention": 3645,
      "Ġcentury": 3646,
      "Ġdidn": 3647,
      "Ġcalcul": 3648,
      "Ġlinkedin": 3649,
      "Ġeye": 3650,
      "Ġscheme": 3651,
      "Ġscreens": 3652,
      "Ġfrancisco": 3653,
      "cs": 3654,
      "pected": 3655,
      "wall": 3656,
      "Ã©": 3657,
      "ĠÂ": 3658,
      "Ġaz": 3659,
      "Ġmail": 3660,
      "Ġhole": 3661,
      "Ġlun": 3662,
      "Ġlake": 3663,
      "oud": 3664,
      "Ġnyc": 3665,
      "Ġet": 3666,
      "ecraft": 3667,
      "Ġshop": 3668,
      "Ġchann": 3669,
      "pper": 3670,
      "ared": 3671,
      "ores": 3672,
      "ango": 3673,
      "Ġimag": 3674,
      "Ġprint": 3675,
      "Ġworkflows": 3676,
      "Ġgenerated": 3677,
      "Ġaccident": 3678,
      "Ġmuse": 3679,
      "Ġprotot": 3680,
      "Ġ60": 3681,
      "Ġexplained": 3682,
      "Ġfriends": 3683,
      "Ġmultimodal": 3684,
      "dition": 3685,
      "uk": 3686,
      "Ġsize": 3687,
      "Ġcards": 3688,
      "reh": 3689,
      "Ġpapers": 3690,
      "Ġmount": 3691,
      "ald": 3692,
      "Ġlate": 3693,
      "Ġtok": 3694,
      "style": 3695,
      "Ġchief": 3696,
      "Ġwealth": 3697,
      "Ġunix": 3698,
      "Ġrap": 3699,
      "Ġdrivers": 3700,
      "Ġteleg": 3701,
      "Ġactions": 3702,
      "Ġparam": 3703,
      "2009": 3704,
      "Ġdefault": 3705,
      "Ġentire": 3706,
      "Ġsigns": 3707,
      "Ġmagnet": 3708,
      "Ġmessages": 3709,
      "Ġlimits": 3710,
      "Ġpresident": 3711,
      "Ġprinci": 3712,
      "15": 3713,
      "mal": 3714,
      "Ġfren": 3715,
      "Ġmr": 3716,
      "Ġlanding": 3717,
      "Ġinject": 3718,
      "ament": 3719,
      "Ġchrist": 3720,
      "Ġusage": 3721,
      "Ġweird": 3722,
      "plo": 3723,
      "Ġtrue": 3724,
      "Ġcompos": 3725,
      "Ġcompreh": 3726,
      "Ġopens": 3727,
      "Ġcodes": 3728,
      "assembly": 3729,
      "Ġfirms": 3730,
      "Ġstarting": 3731,
      "ually": 3732,
      "Ġassoc": 3733,
      "Ġhelped": 3734,
      "Ġcreator": 3735,
      "Ġprotection": 3736,
      "Ġbrazil": 3737,
      "Ġinfin": 3738,
      "Ġ199": 3739,
      "Ġbots": 3740,
      "Ġforecast": 3741,
      "Ġexecution": 3742,
      "Ġbirth": 3743,
      "Ġlikely": 3744,
      "Ġtherap": 3745,
      "14": 3746,
      "saf": 3747,
      "Ġâ": 3748,
      "Ġssh": 3749,
      "erious": 3750,
      "Ġpure": 3751,
      "Ġwra": 3752,
      "Ġdive": 3753,
      "Ġoct": 3754,
      "Ġkit": 3755,
      "istration": 3756,
      "izations": 3757,
      "Ġarrest": 3758,
      "Ġemacs": 3759,
      "Ġray": 3760,
      "Ġflash": 3761,
      "Ġevents": 3762,
      "Ġremove": 3763,
      "Ġhigher": 3764,
      "ondon": 3765,
      "Ġsett": 3766,
      "Ġkilled": 3767,
      "Ġverification": 3768,
      "Ġscalable": 3769,
      "Ġembedded": 3770,
      "Ġfollowing": 3771,
      "Ġwhatsapp": 3772,
      "Ġprinciples": 3773,
      "ping": 3774,
      "Ġil": 3775,
      "Ġcatch": 3776,
      "anch": 3777,
      "icious": 3778,
      "Ġghost": 3779,
      "Ġnar": 3780,
      "Ġking": 3781,
      "Ġagre": 3782,
      "Ġcommit": 3783,
      "Ġzuck": 3784,
      "Ġhacked": 3785,
      "Ġbrings": 3786,
      "Ġinvestors": 3787,
      "Ġsky": 3788,
      "Ġdeliver": 3789,
      "Ġgraphics": 3790,
      "Ġforeign": 3791,
      "Ġspecial": 3792,
      "Ġstripe": 3793,
      "Ġult": 3794,
      "Ġwoman": 3795,
      "marks": 3796,
      "Ġbringing": 3797,
      "Ġestim": 3798,
      "Ġtrends": 3799,
      "Ġbudget": 3800,
      "intendo": 3801,
      "uary": 3802,
      "Ġtai": 3803,
      "eration": 3804,
      "rew": 3805,
      "Ġfat": 3806,
      "Ġfal": 3807,
      "Ġwins": 3808,
      "Ġbans": 3809,
      "ister": 3810,
      "Ġlondon": 3811,
      "Ġnintendo": 3812,
      "etch": 3813,
      "rie": 3814,
      "Ġarr": 3815,
      "Ġrail": 3816,
      "ocket": 3817,
      "Ġcold": 3818,
      "Ġcompute": 3819,
      "Ġplatforms": 3820,
      "print": 3821,
      "Ġturned": 3822,
      "Ġsteal": 3823,
      "Ġcentral": 3824,
      "Ġdirectly": 3825,
      "onym": 3826,
      "Ġcapture": 3827,
      "Ġbiden": 3828,
      "Ġbridge": 3829,
      "Ġtelegram": 3830,
      "cle": 3831,
      "lar": 3832,
      "rors": 3833,
      "with": 3834,
      "Ġfish": 3835,
      "Ġda": 3836,
      "Ġny": 3837,
      "elines": 3838,
      "agon": 3839,
      "Ġworst": 3840,
      "Ġunit": 3841,
      "astics": 3842,
      "Ġimpl": 3843,
      "Ġadm": 3844,
      "Ġinterviews": 3845,
      "Ġoracle": 3846,
      "Ġphones": 3847,
      "orship": 3848,
      "Ġgrok": 3849,
      "Ġcred": 3850,
      "Ġconsider": 3851,
      "Ġsupreme": 3852,
      "Ġoptimizing": 3853,
      "Ġlabs": 3854,
      "Ġtells": 3855,
      "untu": 3856,
      "Ġhosting": 3857,
      "Ġmysterious": 3858,
      "Ġdouble": 3859,
      "Ġcontainer": 3860,
      "Ġinspired": 3861,
      "Ġaustralia": 3862,
      "Ġchaos": 3863,
      "bro": 3864,
      "dem": 3865,
      "gs": 3866,
      "log": 3867,
      "inct": 3868,
      "Ġsix": 3869,
      "Ġcd": 3870,
      "Ġcoff": 3871,
      "Ġwave": 3872,
      "roph": 3873,
      "Ġtoy": 3874,
      "Ġvent": 3875,
      "Ġjan": 3876,
      "iful": 3877,
      "Ġclone": 3878,
      "Ġbypass": 3879,
      "Ġprison": 3880,
      "Ġdesp": 3881,
      "Ġrecogn": 3882,
      "Ġdecade": 3883,
      "Ġdesigning": 3884,
      "Ġinsur": 3885,
      "Ġexpress": 3886,
      "Ġretro": 3887,
      "Ġlooks": 3888,
      "Ġdebugging": 3889,
      "Ġrequest": 3890,
      "Ġipad": 3891,
      "break": 3892,
      "Ġbritish": 3893,
      "Ġcrowd": 3894,
      "Ġcorporate": 3895,
      "Ġcognitive": 3896,
      "Ġtaiwan": 3897,
      "fe": 3898,
      "founder": 3899,
      "Ġcou": 3900,
      "Ġmex": 3901,
      "Ġlam": 3902,
      "icated": 3903,
      "Ġnpm": 3904,
      "Ġstra": 3905,
      "amed": 3906,
      "Ġcomments": 3907,
      "Ġconst": 3908,
      "Ġbeat": 3909,
      "Ġadding": 3910,
      "Ġmodeling": 3911,
      "Ġediting": 3912,
      "Ġexpert": 3913,
      "Ġskills": 3914,
      "Ġothers": 3915,
      "Ġchatbots": 3916,
      "Ġdoge": 3917,
      "Ġclickhouse": 3918,
      "Ġanswer": 3919,
      "Ġsuggests": 3920,
      "Ġschedul": 3921,
      "bc": 3922,
      "can": 3923,
      "sa": 3924,
      "tal": 3925,
      "well": 3926,
      "Ġcart": 3927,
      "Ġfle": 3928,
      "Ġhate": 3929,
      "Ġboss": 3930,
      "Ġliqu": 3931,
      "Ġrans": 3932,
      "ifi": 3933,
      "istry": 3934,
      "Ġcontribut": 3935,
      "Ġdeveloping": 3936,
      "Ġaccused": 3937,
      "Ġprograms": 3938,
      "Ġdecent": 3939,
      "comm": 3940,
      "Ġactiv": 3941,
      "Ġplanning": 3942,
      "Ġcreative": 3943,
      "Ġconscious": 3944,
      "Ġfilter": 3945,
      "Ġcause": 3946,
      "Ġalternatives": 3947,
      "Ġlogic": 3948,
      "Ġsync": 3949,
      "Ġhappens": 3950,
      "Ġjoin": 3951,
      "Ġlayer": 3952,
      "Ġelectricity": 3953,
      "Ġfocus": 3954,
      "Ġdataset": 3955,
      "Ġgalax": 3956,
      "Ġmuseum": 3957,
      "13": 3958,
      "18": 3959,
      "sung": 3960,
      "Ġtun": 3961,
      "Ġfair": 3962,
      "Ġwear": 3963,
      "Ġmur": 3964,
      "owers": 3965,
      "Ġjump": 3966,
      "Ġbuying": 3967,
      "rial": 3968,
      "Ġwars": 3969,
      "Ġstudent": 3970,
      "Ġcoin": 3971,
      "Ġ500": 3972,
      "Ġlaunched": 3973,
      "she": 3974,
      "attack": 3975,
      "Ġdelay": 3976,
      "Ġbillions": 3977,
      "Ġ80": 3978,
      "Ġpatient": 3979,
      "Ġfailed": 3980,
      "afka": 3981,
      "Ġdiscuss": 3982,
      "Ġeffective": 3983,
      "Ġlicens": 3984,
      "Ġinclud": 3985,
      "Ġtroub": 3986,
      "Ġbenefits": 3987,
      "Ġeducation": 3988,
      "Ġcomprehensive": 3989,
      "tor": 3990,
      "tes": 3991,
      "Ġsud": 3992,
      "Ġcases": 3993,
      "Ġfield": 3994,
      "Ġpilot": 3995,
      "Ġdone": 3996,
      "Ġlower": 3997,
      "iding": 3998,
      "Ġstation": 3999,
      "olen": 4000,
      "Ġvan": 4001,
      "odes": 4002,
      "chat": 4003,
      "Ġrp": 4004,
      "Ġusb": 4005,
      "osh": 4006,
      "Ġweeks": 4007,
      "Ġspam": 4008,
      "Ġdisrupt": 4009,
      "Ġselect": 4010,
      "Ġrepair": 4011,
      "Ġfastest": 4012,
      "rene": 4013,
      "Ġlaunching": 4014,
      "Ġsetup": 4015,
      "rovers": 4016,
      "Ġuniversity": 4017,
      "Ġbreaks": 4018,
      "Ġincrease": 4019,
      "buil": 4020,
      "Ġhalluc": 4021,
      "Ġdjango": 4022,
      "Ġransom": 4023,
      "hel": 4024,
      "ny": 4025,
      "erberg": 4026,
      "Ġflex": 4027,
      "Ġpict": 4028,
      "esh": 4029,
      "itting": 4030,
      "Ġdar": 4031,
      "Ġdav": 4032,
      "Ġom": 4033,
      "room": 4034,
      "Ġeast": 4035,
      "Ġreth": 4036,
      "ida": 4037,
      "Ġveg": 4038,
      "Ġscot": 4039,
      "Ġplastic": 4040,
      "Ġorders": 4041,
      "Ġblu": 4042,
      "Ġ26": 4043,
      "Ġphp": 4044,
      "Ġevol": 4045,
      "Ġgui": 4046,
      "Ġparty": 4047,
      "Ġautomatic": 4048,
      "Ġautomatically": 4049,
      "Ġretrie": 4050,
      "Ġ70": 4051,
      "llama": 4052,
      "Ġmessage": 4053,
      "Ġtrees": 4054,
      "Ġobservability": 4055,
      "Ġprobably": 4056,
      "Ġbeautiful": 4057,
      "Ġsustainable": 4058,
      "duce": 4059,
      "ius": 4060,
      "ued": 4061,
      "Ġhunt": 4062,
      "Ġthin": 4063,
      "Ġoss": 4064,
      "isions": 4065,
      "Ġanonym": 4066,
      "Ġgives": 4067,
      "Ġnames": 4068,
      "Ġshap": 4069,
      "Ġvm": 4070,
      "uration": 4071,
      "Ġry": 4072,
      "Ġrates": 4073,
      "Ġcongress": 4074,
      "acking": 4075,
      "Ġkafka": 4076,
      "istent": 4077,
      "Ġsports": 4078,
      "uda": 4079,
      "iber": 4080,
      "Ġcontrovers": 4081,
      "Ġrepo": 4082,
      "Ġsurge": 4083,
      "Ġsupports": 4084,
      "Ġmanaging": 4085,
      "Ġslack": 4086,
      "Ġpredic": 4087,
      "Ġblocking": 4088,
      "Ġcollapse": 4089,
      "Ġtempor": 4090,
      "Ġpackages": 4091,
      "Ġpresent": 4092,
      "Ġfreed": 4093,
      "iddle": 4094,
      "Ġmeeting": 4095,
      "Ġvulnerabilities": 4096,
      "Ġsteps": 4097,
      "Ġglasses": 4098,
      "Ġmathematics": 4099,
      "Ġubuntu": 4100,
      "Ġconcerns": 4101,
      "Ġzuckerberg": 4102,
      "care": 4103,
      "look": 4104,
      "water": 4105,
      "Ġta": 4106,
      "Ġsort": 4107,
      "Ġcache": 4108,
      "Ġpand": 4109,
      "itation": 4110,
      "Ġham": 4111,
      "Ġbacter": 4112,
      "Ġlov": 4113,
      "stri": 4114,
      "Ġnation": 4115,
      "acent": 4116,
      "Ġstolen": 4117,
      "Ġwithin": 4118,
      "opol": 4119,
      "istics": 4120,
      "words": 4121,
      "ixir": 4122,
      "Ġdecline": 4123,
      "ternal": 4124,
      "Ġexpect": 4125,
      "Ġmoz": 4126,
      "Ġbusinesses": 4127,
      "llm": 4128,
      "Ġsnow": 4129,
      "Ġstories": 4130,
      "Ġannounce": 4131,
      "Ġcheap": 4132,
      "Ġemployee": 4133,
      "forcement": 4134,
      "Ġcertific": 4135,
      "Ġdetails": 4136,
      "Ġafrica": 4137,
      "computer": 4138,
      "Ġproposal": 4139,
      "Ġfrench": 4140,
      "65": 4141,
      "ae": 4142,
      "kn": 4143,
      "oes": 4144,
      "pose": 4145,
      "orph": 4146,
      "Ġporn": 4147,
      "Ġdate": 4148,
      "Ġdivers": 4149,
      "Ġliter": 4150,
      "stein": 4151,
      "Ġrece": 4152,
      "ading": 4153,
      "Ġalready": 4154,
      "Ġatom": 4155,
      "Ġwebassembly": 4156,
      "Ġabstr": 4157,
      "Ġsimulator": 4158,
      "Ġsolutions": 4159,
      "Ġteen": 4160,
      "Ġmedic": 4161,
      "Ġmacbook": 4162,
      "Ġcalend": 4163,
      "Ġscientist": 4164,
      "Ġpoints": 4165,
      "Ġsamsung": 4166,
      "Ġqr": 4167,
      "Ġgeomet": 4168,
      "Ġdirectory": 4169,
      "Ġinternal": 4170,
      "Ġtalking": 4171,
      "Ġexamples": 4172,
      "Ġsuggest": 4173,
      "Ġsaved": 4174,
      "Ġhydrogen": 4175,
      "Ġliquid": 4176,
      "300": 4177,
      "ca": 4178,
      "hs": 4179,
      "iam": 4180,
      "kes": 4181,
      "tax": 4182,
      "wood": 4183,
      "Ġftc": 4184,
      "Ġfda": 4185,
      "Ġpent": 4186,
      "Ġms": 4187,
      "Ġlose": 4188,
      "ether": 4189,
      "change": 4190,
      "Ġexpens": 4191,
      "Ġalso": 4192,
      "ipe": 4193,
      "Ġroom": 4194,
      "Ġleast": 4195,
      "Ġdisapp": 4196,
      "Ġserious": 4197,
      "Ġinde": 4198,
      "Ġfreebsd": 4199,
      "Ġplants": 4200,
      "Ġobjects": 4201,
      "Ġloop": 4202,
      "Ġsomeone": 4203,
      "Ġcalling": 4204,
      "Ġrelations": 4205,
      "Ġleader": 4206,
      "Ġeasier": 4207,
      "engine": 4208,
      "Ġrequests": 4209,
      "Ġoperations": 4210,
      "Ġbott": 4211,
      "Ġstructured": 4212,
      "Ġdrops": 4213,
      "Ġbecomes": 4214,
      "Ġtemplate": 4215,
      "safe": 4216,
      "()": 4217,
      "aire": 4218,
      "ben": 4219,
      "ki": 4220,
      "oon": 4221,
      "rated": 4222,
      "Ġtsm": 4223,
      "Ġteles": 4224,
      "real": 4225,
      "Ġdin": 4226,
      "Ġfork": 4227,
      "Ġcharge": 4228,
      "Ġconference": 4229,
      "ession": 4230,
      "Ġspent": 4231,
      "izon": 4232,
      "udio": 4233,
      "Ġleave": 4234,
      "Ġraise": 4235,
      "Ġprem": 4236,
      "Ġmeans": 4237,
      "Ġswed": 4238,
      "Ġplaying": 4239,
      "Ġpayments": 4240,
      "Ġextensions": 4241,
      "Ġstrike": 4242,
      "Ġcharging": 4243,
      "Ġpipeline": 4244,
      "Ġeffort": 4245,
      "urrency": 4246,
      "Ġcoffee": 4247,
      "Ġtsmc": 4248,
      "aware": 4249,
      "life": 4250,
      "Ġ`": 4251,
      "Ġign": 4252,
      "information": 4253,
      "Ġsources": 4254,
      "Ġfear": 4255,
      "Ġmand": 4256,
      "Ġmapping": 4257,
      "Ġhun": 4258,
      "Ġhaving": 4259,
      "Ġdollar": 4260,
      "Ġoly": 4261,
      "rote": 4262,
      "Ġtom": 4263,
      "Ġtown": 4264,
      "ilar": 4265,
      "Ġstress": 4266,
      "term": 4267,
      "oper": 4268,
      "iff": 4269,
      "Ġspark": 4270,
      "Ġque": 4271,
      "Ġqual": 4272,
      "Ġqueries": 4273,
      "Ġprev": 4274,
      "Ġafford": 4275,
      "Ġruntime": 4276,
      "Ġremember": 4277,
      "Ġknown": 4278,
      "ought": 4279,
      "Ġeasily": 4280,
      "Ġhappy": 4281,
      "Ġlabor": 4282,
      "Ġepic": 4283,
      "Ġencrypted": 4284,
      "Ġdoub": 4285,
      "Ġmethods": 4286,
      "Ġsynthetic": 4287,
      "Ġsubscription": 4288,
      "Ġfigma": 4289,
      "Ġazure": 4290,
      "Ġlunar": 4291,
      "Ġdespite": 4292,
      "Ġmexico": 4293,
      "37": 4294,
      "gr": 4295,
      "sol": 4296,
      "xic": 4297,
      "Ġaims": 4298,
      "Ġtag": 4299,
      "Ġcand": 4300,
      "only": 4301,
      "atible": 4302,
      "Ġfbi": 4303,
      "Ġpok": 4304,
      "ceed": 4305,
      "Ġrival": 4306,
      "Ġali": 4307,
      "Ġunion": 4308,
      "Ġyourself": 4309,
      "izz": 4310,
      "Ġroot": 4311,
      "Ġresume": 4312,
      "Ġemulator": 4313,
      "Ġseo": 4314,
      "Ġrecall": 4315,
      "Ġallows": 4316,
      "Ġhash": 4317,
      "Ġxai": 4318,
      "Ġelixir": 4319,
      "Ġmanagers": 4320,
      "Ġfrance": 4321,
      "Ġdiagram": 4322,
      "block": 4323,
      "Ġclassic": 4324,
      "Ġcomplexity": 4325,
      "Ġinvestigation": 4326,
      "point": 4327,
      "Ġpressure": 4328,
      "Ġastronom": 4329,
      "Ġthreads": 4330,
      "Ġseeking": 4331,
      "Ġrapid": 4332,
      "Ġilleg": 4333,
      ",'": 4334,
      "jo": 4335,
      "test": 4336,
      "ycl": 4337,
      "Ġtens": 4338,
      "Ġtwe": 4339,
      "Ġwid": 4340,
      "Ġmerg": 4341,
      "Ġthous": 4342,
      "Ġgate": 4343,
      "Ġuber": 4344,
      "iday": 4345,
      "idents": 4346,
      "Ġstopp": 4347,
      "aml": 4348,
      "ado": 4349,
      "unct": 4350,
      "ption": 4351,
      "aken": 4352,
      "Ġconv": 4353,
      "Ġtried": 4354,
      "Ġcompare": 4355,
      "Ġrot": 4356,
      "Ġseen": 4357,
      "Ġindie": 4358,
      "ologies": 4359,
      "Ġarticles": 4360,
      "Ġairb": 4361,
      "Ġairlines": 4362,
      "Ġexperi": 4363,
      "Ġmolec": 4364,
      "Ġdeterm": 4365,
      "Ġmarketplace": 4366,
      "Ġprocessor": 4367,
      "heimer": 4368,
      "Ġshares": 4369,
      "Ġseeks": 4370,
      "Ġmessaging": 4371,
      "Ġtransformers": 4372,
      "Ġimproving": 4373,
      "Ġbritain": 4374,
      "Ġanswers": 4375,
      "Ġadministration": 4376,
      "Ġwelcome": 4377,
      "Ġtokens": 4378,
      "dom": 4379,
      "dos": 4380,
      "gb": 4381,
      "lands": 4382,
      "Ġfol": 4383,
      "enn": 4384,
      "Ġmiddle": 4385,
      "itions": 4386,
      "Ġhands": 4387,
      "Ġbash": 4388,
      "Ġdot": 4389,
      "arian": 4390,
      "Ġlar": 4391,
      "Ġlosing": 4392,
      "Ġtouch": 4393,
      "Ġtoward": 4394,
      "Ġreject": 4395,
      "Ġshape": 4396,
      "utter": 4397,
      "Ġrss": 4398,
      "emy": 4399,
      "Ġbuilds": 4400,
      "resh": 4401,
      "Ġflor": 4402,
      "Ġguard": 4403,
      "Ġexplore": 4404,
      "coming": 4405,
      "Ġwindow": 4406,
      "2008": 4407,
      "Ġperspective": 4408,
      "letter": 4409,
      "Ġsubm": 4410,
      "Ġdefin": 4411,
      "ertain": 4412,
      "Ġhype": 4413,
      "Ġpatent": 4414,
      "Ġmoves": 4415,
      "Ġexperimental": 4416,
      "Ġofficials": 4417,
      "Ġprize": 4418,
      "Ġchemical": 4419,
      "Ġmoment": 4420,
      "Ġdelivery": 4421,
      "Ġphilosophy": 4422,
      "Ġinfinite": 4423,
      "Ġolymp": 4424,
      "99": 4425,
      "fall": 4426,
      "Ġdial": 4427,
      "Ġol": 4428,
      "Ġtoget": 4429,
      "Ġeach": 4430,
      "Ġrew": 4431,
      "Ġux": 4432,
      "Ġforget": 4433,
      "ided": 4434,
      "iders": 4435,
      "chron": 4436,
      "ogen": 4437,
      "Ġtrick": 4438,
      "Ġcompression": 4439,
      "apter": 4440,
      "Ġarea": 4441,
      "resent": 4442,
      "ober": 4443,
      "Ġprim": 4444,
      "Ġmanip": 4445,
      "Ġ21": 4446,
      "Ġattempt": 4447,
      "Ġplayer": 4448,
      "Ġcele": 4449,
      "Ġvisualization": 4450,
      "Ġoperation": 4451,
      "Ġurl": 4452,
      "Ġterra": 4453,
      "Ġprediction": 4454,
      "Ġcharacter": 4455,
      "door": 4456,
      "Ġquickly": 4457,
      "Ġintroduces": 4458,
      "Ġbecoming": 4459,
      "Ġexecutive": 4460,
      "Ġrendering": 4461,
      "Ġlaser": 4462,
      "Ġdangerous": 4463,
      "Ġdecentral": 4464,
      "Ġmozilla": 4465,
      "Ġtogether": 4466,
      "lers": 4467,
      "mos": 4468,
      "path": 4469,
      "rum": 4470,
      "vp": 4471,
      "atial": 4472,
      "Ġwest": 4473,
      "Ġtherm": 4474,
      "Ġloses": 4475,
      "Ġtold": 4476,
      "ione": 4477,
      "ols": 4478,
      "iga": 4479,
      "Ġprov": 4480,
      "Ġrights": 4481,
      "abled": 4482,
      "Ġexc": 4483,
      "Ġtrig": 4484,
      "Ġspring": 4485,
      "Ġquarter": 4486,
      "Ġphase": 4487,
      "Ġgenerating": 4488,
      "Ġperm": 4489,
      "ended": 4490,
      "Ġexplains": 4491,
      "ancy": 4492,
      "shot": 4493,
      "Ġexport": 4494,
      "Ġexpected": 4495,
      "Ġredis": 4496,
      "aza": 4497,
      "Ġprotein": 4498,
      "Ġpaying": 4499,
      "Ġnetworking": 4500,
      "Ġfixing": 4501,
      "Ġjoins": 4502,
      "Ġrestaur": 4503,
      "Ġforest": 4504,
      "Ġcyberattack": 4505,
      "Ġbugs": 4506,
      "Ġsummar": 4507,
      "Ġbatteries": 4508,
      "Ġdynamics": 4509,
      "Ġpublishing": 4510,
      "Ġmotion": 4511,
      "Ġbootstra": 4512,
      "Ġmatrix": 4513,
      "performance": 4514,
      "strike": 4515,
      "'ll": 4516,
      "bage": 4517,
      "gro": 4518,
      "mas": 4519,
      "making": 4520,
      "pir": 4521,
      "Ġcpus": 4522,
      "inger": 4523,
      "Ġpitch": 4524,
      "Ġpeter": 4525,
      "Ġhugging": 4526,
      "Ġdro": 4527,
      "alog": 4528,
      "Ġtheore": 4529,
      "edge": 4530,
      "Ġtoxic": 4531,
      "rable": 4532,
      "Ġvim": 4533,
      "ami": 4534,
      "Ġcloj": 4535,
      "Ġunic": 4536,
      "Ġunex": 4537,
      "Ġspin": 4538,
      "Ġdoor": 4539,
      "Ġemissions": 4540,
      "perature": 4541,
      "Ġtrap": 4542,
      "Ġevs": 4543,
      "bert": 4544,
      "Ġmetrics": 4545,
      "Ġ64": 4546,
      "Ġbanned": 4547,
      "Ġlibraries": 4548,
      "Ġsteve": 4549,
      "Ġsmartphone": 4550,
      "Ġshared": 4551,
      "Ġportable": 4552,
      "Ġsummer": 4553,
      "Ġdeployment": 4554,
      "Ġevaluation": 4555,
      "Ġtailwind": 4556,
      "Ġemergency": 4557,
      "Ġinfluence": 4558,
      "Ġdashboard": 4559,
      "Ġharvard": 4560,
      "Ġdestroy": 4561,
      "Ġdepartment": 4562,
      "Ġdavid": 4563,
      "core": 4564,
      "den": 4565,
      "iest": 4566,
      "Ġwil": 4567,
      "Ġhim": 4568,
      "Ġdan": 4569,
      "Ġollama": 4570,
      "otic": 4571,
      "Ġprobe": 4572,
      "Ġconfl": 4573,
      "andal": 4574,
      "Ġalz": 4575,
      "Ġclock": 4576,
      "Ġcomparing": 4577,
      "ortun": 4578,
      "Ġprime": 4579,
      "Ġinterp": 4580,
      "Ġleaving": 4581,
      "Ġblind": 4582,
      "Ġaband": 4583,
      "Ġmanif": 4584,
      "Ġseed": 4585,
      "Ġflood": 4586,
      "Ġflaw": 4587,
      "Ġcommands": 4588,
      "Ġdrives": 4589,
      "ifications": 4590,
      "Ġdesigned": 4591,
      "Ġactive": 4592,
      "Ġhelping": 4593,
      "Ġwasm": 4594,
      "Ġdeepf": 4595,
      "Ġfinance": 4596,
      "Ġstarts": 4597,
      "Ġsignals": 4598,
      "Ġdebian": 4599,
      "Ġcorrect": 4600,
      "Ġdomin": 4601,
      "Ġfactory": 4602,
      "Ġcameras": 4603,
      "Ġconversation": 4604,
      "Ġsatellites": 4605,
      "Ġflying": 4606,
      "party": 4607,
      "Ġessential": 4608,
      "Ġchoose": 4609,
      "Ġconstruction": 4610,
      "Ġtherapy": 4611,
      "Ġgalaxy": 4612,
      "Ġransomware": 4613,
      "Ġretrieval": 4614,
      "Ġcalendar": 4615,
      "Ġflorida": 4616,
      "au": 4617,
      "fol": 4618,
      "faces": 4619,
      "gth": 4620,
      "ker": 4621,
      "oe": 4622,
      "och": 4623,
      "pc": 4624,
      "uous": 4625,
      "Ġsets": 4626,
      "Ġfcc": 4627,
      "Ġpac": 4628,
      "Ġmos": 4629,
      "Ġgap": 4630,
      "Ġeat": 4631,
      "Ġforms": 4632,
      "eth": 4633,
      "Ġshr": 4634,
      "osure": 4635,
      "Ġjames": 4636,
      "Ġspar": 4637,
      "Ġscen": 4638,
      "ripts": 4639,
      "Ġdating": 4640,
      "Ġdatacent": 4641,
      "Ġcannot": 4642,
      "Ġrol": 4643,
      "Ġengines": 4644,
      "Ġprefer": 4645,
      "Ġrepro": 4646,
      "Ġtransfer": 4647,
      "boards": 4648,
      "Ġaircraft": 4649,
      "Ġassess": 4650,
      "Ġpromise": 4651,
      "Ġreader": 4652,
      "Ġerrors": 4653,
      "Ġlogin": 4654,
      "Ġleads": 4655,
      "Ġlegacy": 4656,
      "iques": 4657,
      "Ġthreatens": 4658,
      "Ġdiscord": 4659,
      "Ġeyes": 4660,
      "Ġspreadshe": 4661,
      "Ġexplorer": 4662,
      "Ġgnu": 4663,
      "Ġopportun": 4664,
      "Ġweapon": 4665,
      "friendly": 4666,
      "Ġcitiz": 4667,
      "Ġmanufacturing": 4668,
      "Ġultimate": 4669,
      "Ġindepend": 4670,
      "):": 4671,
      "gment": 4672,
      "ht": 4673,
      "Ġalex": 4674,
      "Ġspend": 4675,
      "rec": 4676,
      "Ġwi": 4677,
      "Ġmort": 4678,
      "Ġhop": 4679,
      "Ġhold": 4680,
      "Ġbio": 4681,
      "Ġbull": 4682,
      "Ġlon": 4683,
      "Ġgiving": 4684,
      "Ġeb": 4685,
      "Ġvr": 4686,
      "Ġisland": 4687,
      "aked": 4688,
      "Ġexchange": 4689,
      "anda": 4690,
      "isted": 4691,
      "illion": 4692,
      "ares": 4693,
      "ublic": 4694,
      "2025": 4695,
      "aching": 4696,
      "Ġitself": 4697,
      "Ġsolved": 4698,
      "rength": 4699,
      "Ġcreators": 4700,
      "Ġrising": 4701,
      "Ġfinally": 4702,
      "Ġstars": 4703,
      "Ġprofile": 4704,
      "Ġcapac": 4705,
      "ields": 4706,
      "Ġastero": 4707,
      "Ġkeeps": 4708,
      "Ġimplementing": 4709,
      "Ġstructures": 4710,
      "Ġbegins": 4711,
      "Ġenvironments": 4712,
      "Ġiran": 4713,
      "Ġmigration": 4714,
      "Ġtreas": 4715,
      "Ġinstruct": 4716,
      "Ġparsing": 4717,
      "Ġparents": 4718,
      "Ġgolang": 4719,
      "Ġuntil": 4720,
      "Ġinjection": 4721,
      "Ġinsurance": 4722,
      "Ġtelescope": 4723,
      "Ġalzheimer": 4724,
      "17": 4725,
      "dp": 4726,
      "hd": 4727,
      "more": 4728,
      "vis": 4729,
      "Ġax": 4730,
      "inator": 4731,
      "Ġsf": 4732,
      "Ġsora": 4733,
      "icate": 4734,
      "Ġtow": 4735,
      "stream": 4736,
      "Ġstrength": 4737,
      "odon": 4738,
      "ocal": 4739,
      "Ġkar": 4740,
      "Ġends": 4741,
      "pling": 4742,
      "quality": 4743,
      "Ġunique": 4744,
      "ecting": 4745,
      "Ġaging": 4746,
      "Ġorch": 4747,
      "Ġdisk": 4748,
      "overs": 4749,
      "Ġoverview": 4750,
      "Ġoutput": 4751,
      "Ġmetal": 4752,
      "Ġsimilar": 4753,
      "Ġvisa": 4754,
      "Ġnoise": 4755,
      "Ġextra": 4756,
      "Ġassembly": 4757,
      "Ġvaluation": 4758,
      "197": 4759,
      "Ġcalled": 4760,
      "Ġoldest": 4761,
      "Ġviral": 4762,
      "Ġcybertr": 4763,
      "prof": 4764,
      "ographic": 4765,
      "Ġprinc": 4766,
      "Ġstrategic": 4767,
      "Ġoriginal": 4768,
      "Ġtranslation": 4769,
      "Ġstruggle": 4770,
      "Ġbaby": 4771,
      "iate": 4772,
      "iative": 4773,
      "lm": 4774,
      "run": 4775,
      "uel": 4776,
      "inter": 4777,
      "Ġputs": 4778,
      "Ġmart": 4779,
      "Ġhosp": 4780,
      "Ġforward": 4781,
      "ecks": 4782,
      "Ġshoot": 4783,
      "rab": 4784,
      "check": 4785,
      "agi": 4786,
      "Ġconcept": 4787,
      "Ġexcel": 4788,
      "Ġmodule": 4789,
      "Ġresign": 4790,
      "Ġaccept": 4791,
      "Ġinterpre": 4792,
      "Ġ23": 4793,
      "Ġimpossible": 4794,
      "Ġrepresent": 4795,
      "Ġcoast": 4796,
      "Ġexposed": 4797,
      "Ġcreates": 4798,
      "Ġreporting": 4799,
      "Ġcenters": 4800,
      "Ġmovement": 4801,
      "Ġhandling": 4802,
      "Ġassistants": 4803,
      "Ġdraft": 4804,
      "Ġphysic": 4805,
      "Ġfalling": 4806,
      "Ġbenchmarks": 4807,
      "Ġarmy": 4808,
      "Ġfactor": 4809,
      "Ġtreatment": 4810,
      "Ġfossil": 4811,
      "Ġconverter": 4812,
      "Ġvehicles": 4813,
      "Ġempire": 4814,
      "Ġauthentication": 4815,
      "Ġduckdb": 4816,
      "Ġrecognition": 4817,
      "Ġexpensive": 4818,
      "iated": 4819,
      "nel": 4820,
      "pace": 4821,
      "sup": 4822,
      "spe": 4823,
      "uits": 4824,
      "watch": 4825,
      "Ġwashing": 4826,
      "itrust": 4827,
      "Ġtheft": 4828,
      "Ġforg": 4829,
      "asons": 4830,
      "oles": 4831,
      "Ġcomment": 4832,
      "Ġtri": 4833,
      "ourced": 4834,
      "Ġplain": 4835,
      "aven": 4836,
      "Ġquiet": 4837,
      "Ġemb": 4838,
      "Ġ22": 4839,
      "Ġprec": 4840,
      "Ġsmarter": 4841,
      "Ġcrime": 4842,
      "web": 4843,
      "Ġcreation": 4844,
      "Ġconsole": 4845,
      "Ġinstit": 4846,
      "Ġsociety": 4847,
      "Ġtechniques": 4848,
      "Ġstarship": 4849,
      "Ġrobotics": 4850,
      "Ġantitrust": 4851,
      "Ġkeys": 4852,
      "Ġlocally": 4853,
      "Ġboth": 4854,
      "Ġstores": 4855,
      "Ġvercel": 4856,
      "iveness": 4857,
      "Ġcutting": 4858,
      "Ġstrategies": 4859,
      "Ġfrontier": 4860,
      "Ġmalicious": 4861,
      "Ġimmig": 4862,
      "Ġinfluenc": 4863,
      "reprene": 4864,
      "Ġdoctors": 4865,
      "Ġgmail": 4866,
      "Ġgarbage": 4867,
      "Ġmatters": 4868,
      "Ġvpn": 4869,
      "ĠÂ£": 4870,
      "Ġinterpreter": 4871,
      "bor": 4872,
      "body": 4873,
      "gpu": 4874,
      "lights": 4875,
      "Ġts": 4876,
      "Ġty": 4877,
      "erts": 4878,
      "Ġci": 4879,
      "Ġpump": 4880,
      "esity": 4881,
      "Ġmam": 4882,
      "Ġmice": 4883,
      "Ġhon": 4884,
      "Ġband": 4885,
      "Ġdut": 4886,
      "Ġditch": 4887,
      "Ġetc": 4888,
      "Ġproxy": 4889,
      "aming": 4890,
      "Ġring": 4891,
      "emp": 4892,
      "Ġalign": 4893,
      "Ġclub": 4894,
      "Ġunified": 4895,
      "inder": 4896,
      "avel": 4897,
      "Ġrecr": 4898,
      "Ġcommission": 4899,
      "Ġapart": 4900,
      "Ġwhole": 4901,
      "2006": 4902,
      "Ġentreprene": 4903,
      "Ġfired": 4904,
      "Ġlogs": 4905,
      "Ġsyntax": 4906,
      "Ġleadership": 4907,
      "Ġolder": 4908,
      "Ġpersonalized": 4909,
      "Ġblockchain": 4910,
      "Ġlawy": 4911,
      "Ġdomains": 4912,
      "Ġspecies": 4913,
      "ooth": 4914,
      "Ġcritic": 4915,
      "Ġanimation": 4916,
      "Ġequity": 4917,
      "Ġexample": 4918,
      "Ġmigrating": 4919,
      "Ġrecommendations": 4920,
      "Ġmathematical": 4921,
      "Ġnobody": 4922,
      "Ġroman": 4923,
      "Ġescape": 4924,
      "Ġrethinking": 4925,
      "Ġillegal": 4926,
      "\"?": 4927,
      "90": 4928,
      "audio": 4929,
      "cra": 4930,
      "cop": 4931,
      "dis": 4932,
      "fa": 4933,
      "fo": 4934,
      "greg": 4935,
      "hips": 4936,
      "my": 4937,
      "pf": 4938,
      "vas": 4939,
      "Ġped": 4940,
      "Ġwrote": 4941,
      "station": 4942,
      "Ġuplo": 4943,
      "Ġforces": 4944,
      "Ġforced": 4945,
      "elves": 4946,
      "ece": 4947,
      "Ġshopp": 4948,
      "Ġvc": 4949,
      "Ġchrom": 4950,
      "ander": 4951,
      "Ġalge": 4952,
      "Ġcompil": 4953,
      "ighter": 4954,
      "Ġscandal": 4955,
      "rible": 4956,
      "Ġleaves": 4957,
      "Ġsuff": 4958,
      "Ġprogrammers": 4959,
      "Ġdeclar": 4960,
      "Ġbackground": 4961,
      "Ġpeer": 4962,
      "wei": 4963,
      "Ġsurface": 4964,
      "Ġearning": 4965,
      "Ġanalog": 4966,
      "Ġhumanity": 4967,
      "Ġslop": 4968,
      "Ġcaused": 4969,
      "Ġlocation": 4970,
      "Ġowners": 4971,
      "Ġinfo": 4972,
      "Ġupdated": 4973,
      "Ġdiagn": 4974,
      "Ġweekly": 4975,
      "Ġurban": 4976,
      "Ġpredictions": 4977,
      "Ġanimals": 4978,
      "Ġroadmap": 4979,
      "Ġcraw": 4980,
      "Ġleaked": 4981,
      "Ġmistral": 4982,
      "Ġfirmware": 4983,
      "metry": 4984,
      "Ġplease": 4985,
      "Ġsandbox": 4986,
      "Ġchannel": 4987,
      "Ġcrowdstrike": 4988,
      "bench": 4989,
      "Ġclojure": 4990,
      "Ġunexpected": 4991,
      "Ġalgebra": 4992,
      "aid": 4993,
      "col": 4994,
      "ham": 4995,
      "hib": 4996,
      "hold": 4997,
      "mind": 4998,
      "tuning": 4999,
      "Ġiv": 5000,
      "Ĥ¬": 5001,
      "Ġsir": 5002,
      "Ġsounds": 5003,
      "ender": 5004,
      "Ġwish": 5005,
      "Ġhope": 5006,
      "Ġbol": 5007,
      "Ġbomb": 5008,
      "isa": 5009,
      "icide": 5010,
      "outs": 5011,
      "Ġreb": 5012,
      "idual": 5013,
      "Ġstuff": 5014,
      "imens": 5015,
      "Ġwhe": 5016,
      "Ġriv": 5017,
      "aged": 5018,
      "ague": 5019,
      "add": 5020,
      "Ġneut": 5021,
      "ther": 5022,
      "osis": 5023,
      "vere": 5024,
      "abling": 5025,
      "Ġapply": 5026,
      "Ġbeats": 5027,
      "izable": 5028,
      "active": 5029,
      "Ġamong": 5030,
      "Ġamiga": 5031,
      "Ġorbit": 5032,
      "Ġemot": 5033,
      "Ġemoj": 5034,
      "iented": 5035,
      "Ġzen": 5036,
      "Ġextreme": 5037,
      "Ġobesity": 5038,
      "Ġplayground": 5039,
      "Ġincome": 5040,
      "Ġreliable": 5041,
      "Ġcryptography": 5042,
      "Ġfixes": 5043,
      "Ġfixed": 5044,
      "Ġbias": 5045,
      "Ġkilling": 5046,
      "Ġpopulation": 5047,
      "Ġlatency": 5048,
      "Ġgroups": 5049,
      "Ġofficially": 5050,
      "bye": 5051,
      "Ġmeasuring": 5052,
      "Ġcomponent": 5053,
      "Ġbenchmarking": 5054,
      "Ġopin": 5055,
      "Ġteaching": 5056,
      "Ġprior": 5057,
      "Ġuncertain": 5058,
      "Ġvehicle": 5059,
      "Ġprofessional": 5060,
      "Ġbelieve": 5061,
      "Ġhallucin": 5062,
      "Ġcelebr": 5063,
      "Ġmanifest": 5064,
      "35": 5065,
      "eper": 5066,
      "gin": 5067,
      "makers": 5068,
      "Ġtables": 5069,
      "Ġcas": 5070,
      "Ġcable": 5071,
      "Ġcry": 5072,
      "Ġcuda": 5073,
      "Ġfiction": 5074,
      "Ġhua": 5075,
      "Ġox": 5076,
      "Ġgun": 5077,
      "Ġgone": 5078,
      "Ġgaza": 5079,
      "Ġeating": 5080,
      "Ġyes": 5081,
      "aks": 5082,
      "Ġexerc": 5083,
      "Ġadults": 5084,
      "Ġgenetic": 5085,
      "Ġresist": 5086,
      "Ġcontact": 5087,
      "Ġmysql": 5088,
      "Ġblow": 5089,
      "Ġtrained": 5090,
      "Ġcommod": 5091,
      "Ġdecades": 5092,
      "Ġmonet": 5093,
      "aze": 5094,
      "Ġwaymo": 5095,
      "Ġshouldn": 5096,
      "Ġpoor": 5097,
      "Ġcontrols": 5098,
      "Ġsafari": 5099,
      "Ġdifference": 5100,
      "Ġgraphs": 5101,
      "Ġdiy": 5102,
      "Ġdiet": 5103,
      "Ġhandle": 5104,
      "Ġtemperature": 5105,
      "Ġtransformer": 5106,
      "Ġprinting": 5107,
      "Ġtariff": 5108,
      "Ġtargeting": 5109,
      "Ġelectronic": 5110,
      "Ġmatching": 5111,
      "Ġdependency": 5112,
      "Ġdoctor": 5113,
      "Ġevaluating": 5114,
      "Ġjeff": 5115,
      "Ġrecovery": 5116,
      "Ġaccidentally": 5117,
      "Ġbacteria": 5118,
      "Ġasteroid": 5119,
      "Ġhuawei": 5120,
      "card": 5121,
      "pired": 5122,
      "paper": 5123,
      "war": 5124,
      "inian": 5125,
      "Ġsab": 5126,
      "rem": 5127,
      "Ġfan": 5128,
      "Ġfur": 5129,
      "Ġpowers": 5130,
      "Ġww": 5131,
      "Ġmi": 5132,
      "Ġovers": 5133,
      "Ġinj": 5134,
      "state": 5135,
      "idian": 5136,
      "Ġisol": 5137,
      "acks": 5138,
      "Ġenable": 5139,
      "Ġasking": 5140,
      "Ġ2026": 5141,
      "aires": 5142,
      "Ġcodebase": 5143,
      "Ġxbox": 5144,
      "Ġbroke": 5145,
      "Ġbranch": 5146,
      "criptions": 5147,
      "Ġcreativity": 5148,
      "2007": 5149,
      "Ġwayland": 5150,
      "Ġgoodbye": 5151,
      "Ġdebate": 5152,
      "Ġrobotax": 5153,
      "scape": 5154,
      "Ġeconomics": 5155,
      "Ġwinning": 5156,
      "Ġcheat": 5157,
      "Ġclients": 5158,
      "Ġincreasing": 5159,
      "Ġreturns": 5160,
      "Ġpolicies": 5161,
      "Ġshutting": 5162,
      "Ġcharged": 5163,
      "Ġremoved": 5164,
      "Ġmeaning": 5165,
      "Ġnightm": 5166,
      "Ġshadow": 5167,
      "Ġmastodon": 5168,
      "Ġpollution": 5169,
      "Ġcloser": 5170,
      "Ġadvertising": 5171,
      "Ġcluster": 5172,
      "Ġscreensh": 5173,
      "Ġconsciousness": 5174,
      "Ġpentagon": 5175,
      "Ġstopped": 5176,
      ")?": 5177,
      "22": 5178,
      "fast": 5179,
      "mod": 5180,
      "par": 5181,
      "pod": 5182,
      "ril": 5183,
      "wave": 5184,
      "Ġaer": 5185,
      "oned": 5186,
      "ato": 5187,
      "Ġfp": 5188,
      "Ġpiv": 5189,
      "Ġpione": 5190,
      "Ġwood": 5191,
      "itz": 5192,
      "itory": 5193,
      "Ġber": 5194,
      "Ġded": 5195,
      "Ġoz": 5196,
      "Ġluc": 5197,
      "Ġgut": 5198,
      "Ġreasons": 5199,
      "Ġoften": 5200,
      "Ġvoy": 5201,
      "Ġneur": 5202,
      "Ġjup": 5203,
      "Ġplas": 5204,
      "obe": 5205,
      "Ġnotion": 5206,
      "Ġrepublic": 5207,
      "Ġindiv": 5208,
      "Ġdriven": 5209,
      "Ġworldwide": 5210,
      "Ġreally": 5211,
      "Ġcoal": 5212,
      "Ġmining": 5213,
      "Ġresearcher": 5214,
      "Ġbigger": 5215,
      "Ġneeded": 5216,
      "Ġtechnologies": 5217,
      "ribe": 5218,
      "Ġanalyze": 5219,
      "Ġkeeping": 5220,
      "Ġrenew": 5221,
      "space": 5222,
      "Ġstrikes": 5223,
      "Ġswitching": 5224,
      "Ġfamil": 5225,
      "Ġsending": 5226,
      "Ġcatalog": 5227,
      "Ġfighting": 5228,
      "Ġpolitics": 5229,
      "Ġcanadian": 5230,
      "Ġmistake": 5231,
      "control": 5232,
      "Ġenhance": 5233,
      "Ġvaccine": 5234,
      "Ġcensorship": 5235,
      "Ġadoption": 5236,
      "Ġfalse": 5237,
      "Ġventure": 5238,
      "band": 5239,
      "hum": 5240,
      "yst": 5241,
      "Ġaward": 5242,
      "Ġturing": 5243,
      "Ġsep": 5244,
      "Ġsaving": 5245,
      "Ġcve": 5246,
      "Ġfires": 5247,
      "Ġwes": 5248,
      "itable": 5249,
      "Ġboring": 5250,
      "Ġdual": 5251,
      "rock": 5252,
      "Ġlie": 5253,
      "Ġinput": 5254,
      "Ġdeals": 5255,
      "ifies": 5256,
      "illing": 5257,
      "Ġund": 5258,
      "Ġgoals": 5259,
      "Ġsci": 5260,
      "Ġtransition": 5261,
      "conn": 5262,
      "Ġairport": 5263,
      "inspired": 5264,
      "2005": 5265,
      "Ġcauses": 5266,
      "Ġharder": 5267,
      "Ġpasswords": 5268,
      "Ġgraphql": 5269,
      "Ġfails": 5270,
      "Ġfreel": 5271,
      "Ġbankrupt": 5272,
      "Ġconversations": 5273,
      "Ġiceberg": 5274,
      "Ġalleged": 5275,
      "Ġmaterials": 5276,
      "Ġconfiguration": 5277,
      "Ġacademic": 5278,
      "Ġaccuracy": 5279,
      "Ġtransparency": 5280,
      "Ġreplacement": 5281,
      "Ġprototype": 5282,
      "Ġlamb": 5283,
      "Ġmedicine": 5284,
      "Ġcybertruck": 5285,
      "26": 5286,
      "bird": 5287,
      "dog": 5288,
      "graph": 5289,
      "mx": 5290,
      "native": 5291,
      "su": 5292,
      "ses": 5293,
      "Ġaim": 5294,
      "Ġtap": 5295,
      "Ġtact": 5296,
      "Ġsvel": 5297,
      "Ġpocket": 5298,
      "Ġwol": 5299,
      "Ġder": 5300,
      "Ġod": 5301,
      "rot": 5302,
      "Ġlith": 5303,
      "Ġlens": 5304,
      "Ġgre": 5305,
      "Ġnom": 5306,
      "Ġrewrit": 5307,
      "Ġstage": 5308,
      "âĢĿ": 5309,
      "Ġchecks": 5310,
      "Ġio": 5311,
      "verage": 5312,
      "Ġkid": 5313,
      "Ġbuff": 5314,
      "Ġalask": 5315,
      "rier": 5316,
      "oku": 5317,
      "Ġdiscl": 5318,
      "Ġdisney": 5319,
      "Ġ300": 5320,
      "Ġpret": 5321,
      "Ġsued": 5322,
      "encing": 5323,
      "Ġcomputational": 5324,
      "Ġdecisions": 5325,
      "Ġexplos": 5326,
      "Ġstring": 5327,
      "Ġthanks": 5328,
      "Ġtechnique": 5329,
      "Ġdemonstr": 5330,
      "books": 5331,
      "Ġpasses": 5332,
      "Ġdistribution": 5333,
      "Ġgrand": 5334,
      "Ġlego": 5335,
      "Ġfedora": 5336,
      "Ġobsidian": 5337,
      "Ġconnection": 5338,
      "ilerpl": 5339,
      "Ġhosted": 5340,
      "Ġimproved": 5341,
      "liner": 5342,
      "Ġfriend": 5343,
      "Ġtalent": 5344,
      "Ġsanct": 5345,
      "Ġmistakes": 5346,
      "Ġcontainers": 5347,
      "Ġkorean": 5348,
      "Ġelectronics": 5349,
      "Ġnobel": 5350,
      "Ġalpha": 5351,
      "Ġhistorical": 5352,
      "Ġanalyzing": 5353,
      "Ġunlocking": 5354,
      "Ġmirror": 5355,
      "Ġshopify": 5356,
      "Ġfreedom": 5357,
      "Ġinterpret": 5358,
      "Ġindividual": 5359,
      "auts": 5360,
      "ih": 5361,
      "just": 5362,
      "lock": 5363,
      "nd": 5364,
      "pi": 5365,
      "pal": 5366,
      "page": 5367,
      "racts": 5368,
      "Ġss": 5369,
      "Ġsit": 5370,
      "Ġsuck": 5371,
      "oning": 5372,
      "Ġfab": 5373,
      "Ġthr": 5374,
      "Ġlays": 5375,
      "icit": 5376,
      "Ġgave": 5377,
      "Ġech": 5378,
      "Ġreform": 5379,
      "omp": 5380,
      "Ġstocks": 5381,
      "Ġconstra": 5382,
      "Ġkde": 5383,
      "pends": 5384,
      "ourcing": 5385,
      "Ġscore": 5386,
      "actions": 5387,
      "sequ": 5388,
      "phere": 5389,
      "Ġembr": 5390,
      "Ġchats": 5391,
      "Ġhask": 5392,
      "Ġexplan": 5393,
      "Ġcompanion": 5394,
      "2003": 5395,
      "Ġqw": 5396,
      "ength": 5397,
      "Ġintelligent": 5398,
      "Ġlayout": 5399,
      "driving": 5400,
      "Ġmiles": 5401,
      "Ġradar": 5402,
      "Ġcheaper": 5403,
      "Ġterms": 5404,
      "Ġidentify": 5405,
      "Ġorganization": 5406,
      "Ġtargets": 5407,
      "Ġschools": 5408,
      "Ġacquire": 5409,
      "Ġrevealed": 5410,
      "Ġutility": 5411,
      "Ġrouter": 5412,
      "Ġresponses": 5413,
      "Ġatlas": 5414,
      "ĠâĢľ": 5415,
      "Ġgravity": 5416,
      "ĠâĤ¬": 5417,
      "Ġcapacity": 5418,
      "dollar": 5419,
      "game": 5420,
      "iod": 5421,
      "ately": 5422,
      "Ġposs": 5423,
      "Ġmad": 5424,
      "itude": 5425,
      "Ġhij": 5426,
      "Ġdos": 5427,
      "Ġdump": 5428,
      "arctic": 5429,
      "Ġlos": 5430,
      "Ġforum": 5431,
      "rad": 5432,
      "oting": 5433,
      "Ġru": 5434,
      "Ġusa": 5435,
      "ula": 5436,
      "Ġgov": 5437,
      "antir": 5438,
      "upid": 5439,
      "ibly": 5440,
      "Ġresil": 5441,
      "Ġ32": 5442,
      "Ġdeveloped": 5443,
      "Ġrevers": 5444,
      "Ġsolid": 5445,
      "ificant": 5446,
      "Ġparis": 5447,
      "Ġmembers": 5448,
      "cloud": 5449,
      "Ġvalues": 5450,
      "Ġcurious": 5451,
      "Ġpoison": 5452,
      "Ġnewsletter": 5453,
      "Ġtyping": 5454,
      "Ġsmaller": 5455,
      "Ġearthqu": 5456,
      "Ġ1000": 5457,
      "Ġipo": 5458,
      "Ġipv": 5459,
      "Ġinflation": 5460,
      "Ġpushing": 5461,
      "Ġorigins": 5462,
      "Ġsenior": 5463,
      "breaking": 5464,
      "Ġshutdown": 5465,
      "Ġputting": 5466,
      "Ġmaxim": 5467,
      "Ġschema": 5468,
      "Ġscraping": 5469,
      "Ġopent": 5470,
      "Ġrecording": 5471,
      "Ġtemplates": 5472,
      "Ġastronauts": 5473,
      "Ġsymbol": 5474,
      "Ġexploration": 5475,
      "Ġrobust": 5476,
      "Ġposition": 5477,
      "Ġfarmers": 5478,
      "Ġrepository": 5479,
      "Ġinitiative": 5480,
      "Ġcredential": 5481,
      "Ġgeometry": 5482,
      "Ġcandid": 5483,
      "Ġdecentralized": 5484,
      "Ġorchest": 5485,
      "Ġrecruit": 5486,
      "Ġplasma": 5487,
      "Ġhaskell": 5488,
      "'d": 5489,
      ".'": 5490,
      "note": 5491,
      "rd": 5492,
      "rant": 5493,
      "ya": 5494,
      "Ġ<": 5495,
      "Ġcame": 5496,
      "Ġfro": 5497,
      "Ġfem": 5498,
      "Ġfell": 5499,
      "Ġmouse": 5500,
      "Ġhire": 5501,
      "Ġbed": 5502,
      "Ġthose": 5503,
      "Ġgard": 5504,
      "star": 5505,
      "Ġnut": 5506,
      "Ġford": 5507,
      "Ġstan": 5508,
      "igen": 5509,
      "Ġrh": 5510,
      "Ġrange": 5511,
      "Ġrtx": 5512,
      "Ġneigh": 5513,
      "Ġdeg": 5514,
      "abet": 5515,
      "Ġjun": 5516,
      "Ġjoy": 5517,
      "lywood": 5518,
      "ifting": 5519,
      "Ġcompress": 5520,
      "Ġplot": 5521,
      "Ġresource": 5522,
      "Ġresolution": 5523,
      "Ġamb": 5524,
      "Ġabuse": 5525,
      "Ġphishing": 5526,
      "Ġautism": 5527,
      "Ġrecurs": 5528,
      "Ġmeets": 5529,
      "Ġtransport": 5530,
      "ished": 5531,
      "Ġapoll": 5532,
      "Ġguess": 5533,
      "Ġsurg": 5534,
      "Ġminecraft": 5535,
      "Ġhumanoid": 5536,
      "class": 5537,
      "Ġbrains": 5538,
      "Ġcurl": 5539,
      "ussian": 5540,
      "Ġregulation": 5541,
      "Ġcorrupt": 5542,
      "Ġrequired": 5543,
      "Ġstandards": 5544,
      "ycle": 5545,
      "Ġpurch": 5546,
      "Ġpurpose": 5547,
      "Ġparser": 5548,
      "Ġsplit": 5549,
      "Ġreinforcement": 5550,
      "Ġweapons": 5551,
      "Ġaccurate": 5552,
      "Ġdemocracy": 5553,
      "Ġoctober": 5554,
      "torch": 5555,
      "Ġdisappear": 5556,
      "Ġthousands": 5557,
      "Ġterraform": 5558,
      "Ġwildf": 5559,
      "Ġalaska": 5560,
      "bing": 5561,
      "cod": 5562,
      "here": 5563,
      "pad": 5564,
      "Ġari": 5565,
      "Ġtaken": 5566,
      "era": 5567,
      "Ġcn": 5568,
      "onic": 5569,
      "Ġmcd": 5570,
      "Ġbag": 5571,
      "isation": 5572,
      "Ġli": 5573,
      "Ġtotal": 5574,
      "Ġanx": 5575,
      "Ġgir": 5576,
      "ette": 5577,
      "Ġstuck": 5578,
      "Ġvote": 5579,
      "Ġviews": 5580,
      "Ġrul": 5581,
      "Ġjam": 5582,
      "Ġjune": 5583,
      "Ġexcept": 5584,
      "Ġworry": 5585,
      "Ġtracing": 5586,
      "Ġasked": 5587,
      "mented": 5588,
      "Ġaggreg": 5589,
      "Ġgene": 5590,
      "ucks": 5591,
      "ooks": 5592,
      "Ġdispl": 5593,
      "Ġworked": 5594,
      "Ġmanual": 5595,
      "assisted": 5596,
      "Ġseason": 5597,
      "Ġrab": 5598,
      "Ġoutside": 5599,
      "Ġoffering": 5600,
      "Ġimpress": 5601,
      "peg": 5602,
      "Ġboilerpl": 5603,
      "ductor": 5604,
      "Ġdeck": 5605,
      "Ġbackdoor": 5606,
      "Ġstruct": 5607,
      "conf": 5608,
      "Ġsovere": 5609,
      "Ġextinct": 5610,
      "Ġartists": 5611,
      "Ġvscode": 5612,
      "2004": 5613,
      "Ġvalu": 5614,
      "iously": 5615,
      "Ġadvant": 5616,
      "Ġsubt": 5617,
      "Ġpayment": 5618,
      "Ġformal": 5619,
      "Ġantarctic": 5620,
      "Ġcommunications": 5621,
      "Ġgrant": 5622,
      "Ġreactor": 5623,
      "enger": 5624,
      "Ġ198": 5625,
      "Ġdeadly": 5626,
      "Ġwonder": 5627,
      "Ġpaul": 5628,
      "Ġviewer": 5629,
      "Ġcombat": 5630,
      "Ġbillionaire": 5631,
      "Ġcompliance": 5632,
      "Ġgolden": 5633,
      "Ġdamage": 5634,
      "Ġcollaboration": 5635,
      "Ġinteresting": 5636,
      "Ġapproval": 5637,
      "Ġrequirements": 5638,
      "Ġnavigating": 5639,
      "Ġwallet": 5640,
      "Ġspectrum": 5641,
      "Ġchristmas": 5642,
      "Ġarrested": 5643,
      "Ġscott": 5644,
      "Ġcontroversial": 5645,
      "Ġqualcomm": 5646,
      "Ġrolling": 5647,
      "Ġinstructions": 5648,
      "Ġapollo": 5649,
      "Ġsovereign": 5650,
      "fire": 5651,
      "iers": 5652,
      "lib": 5653,
      "mem": 5654,
      "nb": 5655,
      "win": 5656,
      "ym": 5657,
      "Ġsv": 5658,
      "Ġsick": 5659,
      "ered": 5660,
      "Ġcms": 5661,
      "ording": 5662,
      "oriented": 5663,
      "Ġfans": 5664,
      "Ġfont": 5665,
      "enom": 5666,
      "Ġpul": 5667,
      "Ġhero": 5668,
      "Ġbound": 5669,
      "Ġdys": 5670,
      "Ġdying": 5671,
      "Ġgian": 5672,
      "Ġfort": 5673,
      "iminal": 5674,
      "iger": 5675,
      "Ġvar": 5676,
      "charg": 5677,
      "Ġchamp": 5678,
      "Ġran": 5679,
      "Ġjr": 5680,
      "quant": 5681,
      "Ġclosed": 5682,
      "Ġuncover": 5683,
      "Ġspir": 5684,
      "Ġopenbsd": 5685,
      "asts": 5686,
      "Ġatmos": 5687,
      "angers": 5688,
      "ained": 5689,
      "Ġrow": 5690,
      "Ġresol": 5691,
      "Ġflutter": 5692,
      "Ġcolors": 5693,
      "Ġboy": 5694,
      "Ġsaid": 5695,
      "Ġmicroserv": 5696,
      "Ġdesigns": 5697,
      "Ġconspir": 5698,
      "def": 5699,
      "Ġoptical": 5700,
      "tools": 5701,
      "Ġ737": 5702,
      "Ġinvesting": 5703,
      "Ġske": 5704,
      "Ġskill": 5705,
      "Ġrobotic": 5706,
      "Ġfriday": 5707,
      "Ġstatement": 5708,
      "market": 5709,
      "Ġastro": 5710,
      "Ġthreaten": 5711,
      "Ġindustrial": 5712,
      "Ġterrible": 5713,
      "Ġpcs": 5714,
      "Ġholes": 5715,
      "Ġmeetings": 5716,
      "Ġconversion": 5717,
      "Ġinvestigating": 5718,
      "Ġpalantir": 5719,
      "Ġremoves": 5720,
      "Ġcircuit": 5721,
      "build": 5722,
      "Ġpodcasts": 5723,
      "Ġfocused": 5724,
      "Ġelements": 5725,
      "Ġaustralian": 5726,
      "Ġproviders": 5727,
      "Ġdatasets": 5728,
      "Ġgnome": 5729,
      "Ġguidance": 5730,
      "guard": 5731,
      "Ġinstantly": 5732,
      "Ġpartnership": 5733,
      "Ġharmful": 5734,
      "Ġproperty": 5735,
      "Ġmagnetic": 5736,
      "Ġryzen": 5737,
      "Ġgateway": 5738,
      "Ġwashington": 5739,
      "Ġnightmare": 5740,
      "45": 5741,
      "bar": 5742,
      "text": 5743,
      "Ġarab": 5744,
      "Ġtale": 5745,
      "erver": 5746,
      "orm": 5747,
      "orrow": 5748,
      "Ġpig": 5749,
      "Ġmock": 5750,
      "Ġmesh": 5751,
      "Ġhier": 5752,
      "Ġbell": 5753,
      "Ġbbc": 5754,
      "Ġoh": 5755,
      "icult": 5756,
      "oust": 5757,
      "omy": 5758,
      "Ġstick": 5759,
      "Ġrl": 5760,
      "Ġiron": 5761,
      "abase": 5762,
      "ocation": 5763,
      "que": 5764,
      "Ġbez": 5765,
      "istle": 5766,
      "Ġcomprom": 5767,
      "Ġspatial": 5768,
      "Ġroc": 5769,
      "Ġinterfaces": 5770,
      "avy": 5771,
      "Ġdisaster": 5772,
      "Ġmeg": 5773,
      "enced": 5774,
      "Ġwarming": 5775,
      "Ġhighlights": 5776,
      "Ġanymore": 5777,
      "Ġartist": 5778,
      "Ġjustice": 5779,
      "Ġexpand": 5780,
      "Ġbanks": 5781,
      "Ġcaught": 5782,
      "Ġadvis": 5783,
      "Ġbookmark": 5784,
      "Ġowner": 5785,
      "Ġdelta": 5786,
      "Ġmovies": 5787,
      "Ġleading": 5788,
      "Ġkiller": 5789,
      "Ġtermin": 5790,
      "Ġshortc": 5791,
      "Ġprompting": 5792,
      "Ġcancel": 5793,
      "Ġhollywood": 5794,
      "Ġfuzz": 5795,
      "Ġillust": 5796,
      "Ġintegrated": 5797,
      "Ġgodot": 5798,
      "Ġwait": 5799,
      "Ġjulia": 5800,
      "Ġupgrade": 5801,
      "Ġembeddings": 5802,
      "Ġpiracy": 5803,
      "Ġaugust": 5804,
      "Ġcosmic": 5805,
      "Ġtrouble": 5806,
      "Ġaffordable": 5807,
      "Ġastronomers": 5808,
      "Ġprovide": 5809,
      "folio": 5810,
      "Ġmcdon": 5811,
      "Ġrabbit": 5812,
      "Ġgiants": 5813,
      "\":": 5814,
      "ever": 5815,
      "foc": 5816,
      "oen": 5817,
      "tw": 5818,
      "Ġais": 5819,
      "Ġsony": 5820,
      "Ġcoc": 5821,
      "Ġwiz": 5822,
      "Ġmut": 5823,
      "itution": 5824,
      "Ġbing": 5825,
      "Ġbount": 5826,
      "Ġnest": 5827,
      "Ġecl": 5828,
      "Ġreim": 5829,
      "ently": 5830,
      "Ġsty": 5831,
      "olith": 5832,
      "Ġvert": 5833,
      "odb": 5834,
      "Ġwhether": 5835,
      "Ġrat": 5836,
      "Ġexternal": 5837,
      "Ġappl": 5838,
      "Ġadhd": 5839,
      "obby": 5840,
      "Ġresc": 5841,
      "Ġnotifications": 5842,
      "Ġdisp": 5843,
      "Ġ2022": 5844,
      "Ġseven": 5845,
      "Ġrain": 5846,
      "Ġflat": 5847,
      "Ġrecycl": 5848,
      "Ġzone": 5849,
      "Ġrealtime": 5850,
      "ancer": 5851,
      "Ġparts": 5852,
      "click": 5853,
      "idential": 5854,
      "Ġoptions": 5855,
      "Ġannual": 5856,
      "Ġregistry": 5857,
      "orders": 5858,
      "Ġdebugg": 5859,
      "Ġsteel": 5860,
      "Ġreplacing": 5861,
      "Ġhtmx": 5862,
      "Ġoperator": 5863,
      "Ġdirector": 5864,
      "Ġseeing": 5865,
      "Ġfrequ": 5866,
      "Ġincreases": 5867,
      "Ġconcurrency": 5868,
      "Ġsemicon": 5869,
      "Ġanimal": 5870,
      "Ġimprovements": 5871,
      "Ġminimum": 5872,
      "Ġdifficult": 5873,
      "Ġpytorch": 5874,
      "Ġcombinator": 5875,
      "Ġcontinue": 5876,
      "Ġexploit": 5877,
      "Ġsheet": 5878,
      "Ġsurvival": 5879,
      "Ġcollaborative": 5880,
      "Ġapproves": 5881,
      "Ġvalidation": 5882,
      "Ġtransparent": 5883,
      "Ġticket": 5884,
      "Ġmurder": 5885,
      "Ġpatients": 5886,
      "Ġlicensing": 5887,
      "Ġanonymous": 5888,
      "Ġmanipulation": 5889,
      "Ġdutch": 5890,
      "Ġsiri": 5891,
      "human": 5892,
      "Ġlambda": 5893,
      "Ġsvelte": 5894,
      "Ġhierarch": 5895,
      "file": 5896,
      "gram": 5897,
      "how": 5898,
      "ii": 5899,
      "lor": 5900,
      "nes": 5901,
      "sch": 5902,
      "sur": 5903,
      "ties": 5904,
      "Ġing": 5905,
      "Ġaid": 5906,
      "Ġaur": 5907,
      "Ġmvp": 5908,
      "Ġhat": 5909,
      "Ġdram": 5910,
      "Ġly": 5911,
      "Ġlands": 5912,
      "Ġgif": 5913,
      "Ġgates": 5914,
      "store": 5915,
      "ola": 5916,
      "Ġvo": 5917,
      "Ġchick": 5918,
      "ago": 5919,
      "emon": 5920,
      "unds": 5921,
      "Ġken": 5922,
      "Ġspain": 5923,
      "Ġarena": 5924,
      "Ġlean": 5925,
      "Ġorg": 5926,
      "Ġ27": 5927,
      "Ġengland": 5928,
      "Ġoutperform": 5929,
      "Ġsue": 5930,
      "Ġpercent": 5931,
      "Ġapril": 5932,
      "Ġhighest": 5933,
      "Ġanyway": 5934,
      "Ġpromises": 5935,
      "Ġpartner": 5936,
      "Ġ101": 5937,
      "Ġsignificant": 5938,
      "Ġskin": 5939,
      "Ġrelated": 5940,
      "Ġvisualize": 5941,
      "Ġhealthcare": 5942,
      "rete": 5943,
      "Ġstatistics": 5944,
      "Ġleaders": 5945,
      "Ġstorm": 5946,
      "Ġlisten": 5947,
      "Ġtheme": 5948,
      "Ġgreatest": 5949,
      "Ġthreats": 5950,
      "Ġproposes": 5951,
      "Ġsummary": 5952,
      "Ġdeaths": 5953,
      "Ġnavy": 5954,
      "Ġdenmark": 5955,
      "Ġacquires": 5956,
      "Ġmotor": 5957,
      "Ġwiki": 5958,
      "Ġpdfs": 5959,
      "Ġsensor": 5960,
      "Ġhistoric": 5961,
      "related": 5962,
      "Ġhurric": 5963,
      "Ġwireless": 5964,
      "Ġranking": 5965,
      "Ġnegative": 5966,
      "ditional": 5967,
      "Ġincluding": 5968,
      "known": 5969,
      "Ġspreadsheet": 5970,
      "Ġcitizens": 5971,
      "Ġhospital": 5972,
      "Ġearnings": 5973,
      "Ġopinion": 5974,
      "quantum": 5975,
      "04": 5976,
      "away": 5977,
      "car": 5978,
      "cost": 5979,
      "dra": 5980,
      "fin": 5981,
      "king": 5982,
      "made": 5983,
      "matic": 5984,
      "oia": 5985,
      "talk": 5986,
      "Ġ~": 5987,
      "Ġcro": 5988,
      "Ġfinger": 5989,
      "Ġwifi": 5990,
      "Ġbon": 5991,
      "Ġbare": 5992,
      "Ġbind": 5993,
      "Ġdement": 5994,
      "Ġddos": 5995,
      "aling": 5996,
      "Ġlect": 5997,
      "Ġgh": 5998,
      "Ġshipping": 5999,
      "Ġstupid": 6000,
      "olic": 6001,
      "cha": 6002,
      "Ġwhistle": 6003,
      "Ġpros": 6004,
      "Ġprosec": 6005,
      "Ġchapter": 6006,
      "Ġiphones": 6007,
      "ptic": 6008,
      "plane": 6009,
      "Ġtricks": 6010,
      "rian": 6011,
      "ellar": 6012,
      "Ġadobe": 6013,
      "Ġnotice": 6014,
      "Ġwebb": 6015,
      "Ġdism": 6016,
      "Ġllvm": 6017,
      "Ġworkforce": 6018,
      "Ġrevis": 6019,
      "Ġaccording": 6020,
      "Ġmega": 6021,
      "cohol": 6022,
      "Ġbackup": 6023,
      "boot": 6024,
      "Ġstudies": 6025,
      "comes": 6026,
      "Ġhighly": 6027,
      "Ġmemories": 6028,
      "Ġfunds": 6029,
      "Ġsubstack": 6030,
      "Ġsupporting": 6031,
      "Ġceos": 6032,
      "Ġ95": 6033,
      "Ġvisualizing": 6034,
      "Ġmarch": 6035,
      "Ġtimeline": 6036,
      "backed": 6037,
      "Ġblocked": 6038,
      "Ġwanted": 6039,
      "Ġnormal": 6040,
      "process": 6041,
      "Ġproposed": 6042,
      "Ġdepression": 6043,
      "player": 6044,
      "Ġcharts": 6045,
      "Ġmisinformation": 6046,
      "Ġaccelerating": 6047,
      "Ġmathematic": 6048,
      "Ġremoval": 6049,
      "Ġtargeted": 6050,
      "Ġcontinues": 6051,
      "Ġenhanced": 6052,
      "Ġmechanical": 6053,
      "Ġalphabet": 6054,
      "Ġrolls": 6055,
      "Ġgaussian": 6056,
      "Ġatomic": 6057,
      "Ġsweden": 6058,
      "Ġairbnb": 6059,
      "Ġconflict": 6060,
      "Ġdatacenter": 6061,
      "Ġphysicists": 6062,
      "empic": 6063,
      "Ġsurgery": 6064,
      "?\"": 6065,
      "field": 6066,
      "hub": 6067,
      "las": 6068,
      "ni": 6069,
      "pay": 6070,
      "Ġfault": 6071,
      "Ġfiber": 6072,
      "Ġfresh": 6073,
      "Ġwide": 6074,
      "Ġhug": 6075,
      "Ġhund": 6076,
      "anes": 6077,
      "Ġdod": 6078,
      "Ġthom": 6079,
      "Ġlack": 6080,
      "Ġlists": 6081,
      "edel": 6082,
      "Ġnv": 6083,
      "Ġelement": 6084,
      "eland": 6085,
      "etime": 6086,
      "idel": 6087,
      "Ġshot": 6088,
      "Ġstone": 6089,
      "Ġvac": 6090,
      "Ġones": 6091,
      "Ġrac": 6092,
      "Ġriver": 6093,
      "Ġkick": 6094,
      "Ġappears": 6095,
      "Ġappeal": 6096,
      "Ġbuck": 6097,
      "Ġalter": 6098,
      "istan": 6099,
      "Ġplaces": 6100,
      "Ġintent": 6101,
      "ansion": 6102,
      "Ġroy": 6103,
      "Ġarctic": 6104,
      "Ġcoder": 6105,
      "Ġresh": 6106,
      "Ġleap": 6107,
      "Ġdisput": 6108,
      "Ġbloom": 6109,
      "Ġsever": 6110,
      "Ġperiod": 6111,
      "Ġcommits": 6112,
      "Ġtransm": 6113,
      "Ġdece": 6114,
      "Ġdeclare": 6115,
      "Ġwarn": 6116,
      "rich": 6117,
      "Ġelite": 6118,
      "Ġinvol": 6119,
      "Ġtested": 6120,
      "Ġedit": 6121,
      "Ġswiss": 6122,
      "iversary": 6123,
      "Ġdonald": 6124,
      "Ġretail": 6125,
      "Ġcycle": 6126,
      "Ġframeworks": 6127,
      "Ġreli": 6128,
      "Ġadded": 6129,
      "Ġgeo": 6130,
      "Ġbiology": 6131,
      "Ġmicropl": 6132,
      "Ġcellular": 6133,
      "itted": 6134,
      "Ġturbo": 6135,
      "Ġblogs": 6136,
      "Ġsends": 6137,
      "oppy": 6138,
      "Ġcrazy": 6139,
      "Ġleaks": 6140,
      "contin": 6141,
      "new": 6142,
      "Ġbillionaires": 6143,
      "Ġnano": 6144,
      "Ġisraeli": 6145,
      "Ġfaa": 6146,
      "Ġbroadcast": 6147,
      "Ġextraction": 6148,
      "Ġthinks": 6149,
      "Ġpredicts": 6150,
      "opoly": 6151,
      "Ġlaravel": 6152,
      "Ġtheorem": 6153,
      "Ġforgot": 6154,
      "Ġmanifesto": 6155,
      "Ġsepar": 6156,
      "Ġdementia": 6157,
      "400": 6158,
      "eu": 6159,
      "fare": 6160,
      "fix": 6161,
      "gov": 6162,
      "high": 6163,
      "lash": 6164,
      "pg": 6165,
      "rative": 6166,
      "Ġicon": 6167,
      "inary": 6168,
      "Ġtet": 6169,
      "Ġcv": 6170,
      "orge": 6171,
      "Ġfears": 6172,
      "Ġfields": 6173,
      "ingu": 6174,
      "Ġpf": 6175,
      "esome": 6176,
      "Ġhd": 6177,
      "Ġhired": 6178,
      "Ġgains": 6179,
      "asy": 6180,
      "rage": 6181,
      "Ġstem": 6182,
      "Ġstole": 6183,
      "Ġvend": 6184,
      "âĢĲ": 6185,
      "Ġchart": 6186,
      "Ġrush": 6187,
      "Ġasia": 6188,
      "Ġneov": 6189,
      "usive": 6190,
      "Ġconsequ": 6191,
      "Ġkong": 6192,
      "Ġclip": 6193,
      "Ġiter": 6194,
      "Ġitaly": 6195,
      "Ġcompact": 6196,
      "Ġspan": 6197,
      "ostic": 6198,
      "Ġscripts": 6199,
      "Ġasks": 6200,
      "asting": 6201,
      "elled": 6202,
      "Ġrobert": 6203,
      "Ġdevops": 6204,
      "sey": 6205,
      "Ġresur": 6206,
      "Ġlazy": 6207,
      "Ġraw": 6208,
      "Ġflux": 6209,
      "Ġrecip": 6210,
      "Ġzoom": 6211,
      "Ġguy": 6212,
      "Ġdecoding": 6213,
      "Ġcriminal": 6214,
      "cons": 6215,
      "Ġanywhere": 6216,
      "Ġarticle": 6217,
      "Ġcrew": 6218,
      "Ġexposure": 6219,
      "Ġprotest": 6220,
      "Ġbutton": 6221,
      "Ġbrowsers": 6222,
      "Ġannot": 6223,
      "Ġeverywhere": 6224,
      "Ġtracks": 6225,
      "Ġdebug": 6226,
      "keys": 6227,
      "Ġaccessibility": 6228,
      "Ġrestrict": 6229,
      "Ġanalyst": 6230,
      "Ġversus": 6231,
      "Ġrent": 6232,
      "Ġepis": 6233,
      "Ġdepth": 6234,
      "Ġcompete": 6235,
      "kyo": 6236,
      "Ġturb": 6237,
      "valds": 6238,
      "Ġvolcan": 6239,
      "Ġcontinuous": 6240,
      "Ġexploited": 6241,
      "Ġfacial": 6242,
      "device": 6243,
      "Ġpsychedel": 6244,
      "Ġmenu": 6245,
      "Ġenvironmental": 6246,
      "Ġelev": 6247,
      "Ġtorvalds": 6248,
      "Ġprovider": 6249,
      "Ġtelecom": 6250,
      "Ġaddresses": 6251,
      "Ġacadem": 6252,
      "Ġdelete": 6253,
      "Ġspyware": 6254,
      "Ġdragon": 6255,
      "Ġadmits": 6256,
      "Ġflexible": 6257,
      "Ġdiagrams": 6258,
      "Ġexperiences": 6259,
      "Ġdefinition": 6260,
      "speed": 6261,
      "Ġrobotaxi": 6262,
      "Ġbankruptcy": 6263,
      "Ġlithium": 6264,
      "Ġmicroservices": 6265,
      "Ġbezos": 6266,
      "Ġmcdonald": 6267,
      "aug": 6268,
      "du": 6269,
      "fm": 6270,
      "gi": 6271,
      "long": 6272,
      "maker": 6273,
      "nam": 6274,
      "pack": 6275,
      "pub": 6276,
      "sim": 6277,
      "tag": 6278,
      "txt": 6279,
      "Ġtum": 6280,
      "rele": 6281,
      "Ġfacing": 6282,
      "Ġpaint": 6283,
      "Ġwat": 6284,
      "Ġbear": 6285,
      "Ġbatch": 6286,
      "Ġow": 6287,
      "Ġosc": 6288,
      "Ġocc": 6289,
      "Ġlad": 6290,
      "Ġlum": 6291,
      "ica": 6292,
      "Ġtokyo": 6293,
      "Ġgps": 6294,
      "step": 6295,
      "Ġshuts": 6296,
      "rays": 6297,
      "Ġchron": 6298,
      "Ġchoice": 6299,
      "employ": 6300,
      "Ġexit": 6301,
      "lying": 6302,
      "Ġweak": 6303,
      "Ġkan": 6304,
      "Ġenabling": 6305,
      "Ġbust": 6306,
      "Ġalcohol": 6307,
      "Ġclin": 6308,
      "Ġcompile": 6309,
      "Ġspo": 6310,
      "Ġopenapi": 6311,
      "Ġimper": 6312,
      "Ġrog": 6313,
      "Ġcodex": 6314,
      "Ġquit": 6315,
      "Ġworker": 6316,
      "Ġphoen": 6317,
      "athon": 6318,
      "Ġtrains": 6319,
      "Ġhasn": 6320,
      "Ġrepe": 6321,
      "Ġrealistic": 6322,
      "Ġexpansion": 6323,
      "Ġcurated": 6324,
      "Ġavat": 6325,
      "Ġdemos": 6326,
      "Ġdemands": 6327,
      "Ġanniversary": 6328,
      "Ġcontroller": 6329,
      "Ġfirewall": 6330,
      "Ġsupercomputer": 6331,
      "Ġantib": 6332,
      "Ġlogo": 6333,
      "Ġhealthy": 6334,
      "Ġfailing": 6335,
      "Ġoptimize": 6336,
      "Ġgovernance": 6337,
      "Ġmagaz": 6338,
      "Ġversions": 6339,
      "Ġshortage": 6340,
      "Ġfalls": 6341,
      "Ġpreserv": 6342,
      "Ġsummaries": 6343,
      "Ġpublished": 6344,
      "Ġdogs": 6345,
      "Ġconsumption": 6346,
      "Ġputin": 6347,
      "Ġcharges": 6348,
      "Ġcounting": 6349,
      "Ġestate": 6350,
      "Ġethical": 6351,
      "Ġtrend": 6352,
      "Ġsensitive": 6353,
      "Ġinstruction": 6354,
      "Ġhorizon": 6355,
      "Ġstruggling": 6356,
      "Ġmerge": 6357,
      "Ġargent": 6358,
      "Ġsurvive": 6359,
      "Ġnixos": 6360,
      "Ġdependencies": 6361,
      "Ġreflection": 6362,
      "Ġnegot": 6363,
      "Ġhabits": 6364,
      "Ġconsidered": 6365,
      "Ġfleet": 6366,
      "Ġtunnel": 6367,
      "built": 6368,
      "Ġpicture": 6369,
      "Ġpandemic": 6370,
      "Ġcertificate": 6371,
      "Ġtensor": 6372,
      "Ġpacific": 6373,
      "Ġshopping": 6374,
      "Ġemoji": 6375,
      "Ġuncertainty": 6376,
      "Ġcryst": 6377,
      "Ġvoyager": 6378,
      "Ġfamilies": 6379,
      "Ġsanctions": 6380,
      "',": 6381,
      "cat": 6382,
      "doc": 6383,
      "han": 6384,
      "hop": 6385,
      "iot": 6386,
      "kill": 6387,
      "mi": 6388,
      "mic": 6389,
      "rc": 6390,
      "tps": 6391,
      "vant": 6392,
      "wse": 6393,
      "Ġ=": 6394,
      "Ġcad": 6395,
      "organ": 6396,
      "Ġfant": 6397,
      "ener": 6398,
      "esp": 6399,
      "Ġwis": 6400,
      "Ġmull": 6401,
      "Ġmakers": 6402,
      "anet": 6403,
      "Ġbost": 6404,
      "Ġdm": 6405,
      "Ġdub": 6406,
      "road": 6407,
      "Ġlou": 6408,
      "Ġliv": 6409,
      "Ġine": 6410,
      "Ġgig": 6411,
      "Ġgall": 6412,
      "Ġgram": 6413,
      "iled": 6414,
      "Ġprox": 6415,
      "Ġchair": 6416,
      "cepts": 6417,
      "Ġrating": 6418,
      "Ġjack": 6419,
      "Ġalone": 6420,
      "Ġclosing": 6421,
      "Ġtrip": 6422,
      "Ġscroll": 6423,
      "Ġplate": 6424,
      "astroph": 6425,
      "udi": 6426,
      "Ġable": 6427,
      "Ġsees": 6428,
      "Ġseam": 6429,
      "Ġsept": 6430,
      "Ġovert": 6431,
      "Ġfees": 6432,
      "Ġmete": 6433,
      "Ġpeace": 6434,
      "Ġcrush": 6435,
      "Ġelimin": 6436,
      "Ġdesigner": 6437,
      "Ġhacks": 6438,
      "Ġexpands": 6439,
      "Ġretire": 6440,
      "Ġplaybook": 6441,
      "Ġfines": 6442,
      "Ġcustomizable": 6443,
      "Ġsignature": 6444,
      "Ġinvestor": 6445,
      "Ġdistract": 6446,
      "Ġannounced": 6447,
      "Ġcapabilities": 6448,
      "Ġmicrob": 6449,
      "Ġportfolio": 6450,
      "Ġcompetitive": 6451,
      "Ġlandscape": 6452,
      "google": 6453,
      "Ġalgorithmic": 6454,
      "Ġavoiding": 6455,
      "Ġrecommendation": 6456,
      "Ġcooling": 6457,
      "Ġessays": 6458,
      "Ġbeginner": 6459,
      "Ġnavigation": 6460,
      "Ġhello": 6461,
      "Ġjuly": 6462,
      "Ġsquare": 6463,
      "Ġagrees": 6464,
      "brows": 6465,
      "Ġjanuary": 6466,
      "Ġsudden": 6467,
      "Ġsnowfl": 6468,
      "Ġabstraction": 6469,
      "Ġdinos": 6470,
      "Ġtrigger": 6471,
      "Ġdeepfake": 6472,
      "Ġreproduc": 6473,
      "Ġindependent": 6474,
      "Ġozempic": 6475,
      "Ġwestern": 6476,
      "Ġanxiety": 6477,
      "Ġboilerplate": 6478,
      "focused": 6479,
      "bet": 6480,
      "bling": 6481,
      "cam": 6482,
      "hour": 6483,
      "kin": 6484,
      "nm": 6485,
      "puts": 6486,
      "rint": 6487,
      "sign": 6488,
      "table": 6489,
      "uing": 6490,
      "Ġaware": 6491,
      "Ġtack": 6492,
      "Ġtcp": 6493,
      "Ġtuning": 6494,
      "Ġcraft": 6495,
      "Ġcaching": 6496,
      "ona": 6497,
      "Ġpm": 6498,
      "Ġmc": 6499,
      "Ġment": 6500,
      "Ġhp": 6501,
      "Ġbreat": 6502,
      "Ġdoll": 6503,
      "Ġoxy": 6504,
      "ara": 6505,
      "Ġgear": 6506,
      "Ġnim": 6507,
      "Ġreference": 6508,
      "image": 6509,
      "Ġwhis": 6510,
      "agen": 6511,
      "Ġju": 6512,
      "Ġenables": 6513,
      "Ġalive": 6514,
      "istency": 6515,
      "Ġscar": 6516,
      "Ġscores": 6517,
      "Ġplus": 6518,
      "ipse": 6519,
      "Ġgenius": 6520,
      "Ġreserv": 6521,
      "Ġcontracts": 6522,
      "Ġorb": 6523,
      "ikes": 6524,
      "Ġemul": 6525,
      "Ġhaw": 6526,
      "Ġouts": 6527,
      "Ġoutlook": 6528,
      "ulture": 6529,
      "Ġsuit": 6530,
      "Ġsuch": 6531,
      "Ġmeat": 6532,
      "ilem": 6533,
      "Ġsafer": 6534,
      "Ġbrowse": 6535,
      "Ġtransc": 6536,
      "Ġsolo": 6537,
      "Ġguil": 6538,
      "Ġworlds": 6539,
      "Ġbacklash": 6540,
      "intellig": 6541,
      "Ġunderground": 6542,
      "Ġcarry": 6543,
      "Ġsurprise": 6544,
      "Ġ400": 6545,
      "ologists": 6546,
      "Ġeditors": 6547,
      "Ġknows": 6548,
      "ypes": 6549,
      "Ġproton": 6550,
      "Ġelectro": 6551,
      "ropy": 6552,
      "Ġcycl": 6553,
      "Ġstarter": 6554,
      "Ġdelays": 6555,
      "Ġglobally": 6556,
      "Ġcommunities": 6557,
      "Ġreplication": 6558,
      "Ġsynd": 6559,
      "Ġaccessible": 6560,
      "Ġdiab": 6561,
      "Ġbiological": 6562,
      "Ġsaying": 6563,
      "Ġaudi": 6564,
      "Ġdomest": 6565,
      "Ġfeeds": 6566,
      "Ġharness": 6567,
      "Ġincreased": 6568,
      "Ġorganic": 6569,
      "Ġfamous": 6570,
      "Ġconversational": 6571,
      "Ġpublishers": 6572,
      "Ġcolorado": 6573,
      "Ġacquis": 6574,
      "Ġconsumers": 6575,
      "Ġpipelines": 6576,
      "Ġscams": 6577,
      "Ġsynthesis": 6578,
      "Ġreaches": 6579,
      "Ġargument": 6580,
      "Ġguidelines": 6581,
      "Ġawesome": 6582,
      "Ġadaptive": 6583,
      "Ġadventure": 6584,
      "Ġdrawing": 6585,
      "Ġreducing": 6586,
      "Ġhypoth": 6587,
      "Ġparamet": 6588,
      "Ġforecasting": 6589,
      "Ġtoyota": 6590,
      "Ġevolving": 6591,
      "engineering": 6592,
      "Ġrewrite": 6593,
      "Ġrestaurant": 6594,
      "Ġunicorn": 6595,
      "Ġassessment": 6596,
      "Ġebpf": 6597,
      "Ġtreasury": 6598,
      "Ġprinciple": 6599,
      "Ġimmigration": 6600,
      "Ġdeclarative": 6601,
      "Ġexercise": 6602,
      "Ġcommodore": 6603,
      "Ġpivot": 6604,
      "Ġearthquake": 6605,
      "Ġneovim": 6606,
      "33": 6607,
      "but": 6608,
      "fy": 6609,
      "funct": 6610,
      "lier": 6611,
      "md": 6612,
      "mini": 6613,
      "py": 6614,
      "Ġath": 6615,
      "inting": 6616,
      "Ġton": 6617,
      "Ġtired": 6618,
      "Ġsag": 6619,
      "Ġsection": 6620,
      "atibility": 6621,
      "esth": 6622,
      "Ġmp": 6623,
      "Ġmas": 6624,
      "Ġmong": 6625,
      "Ġhide": 6626,
      "Ġble": 6627,
      "Ġdumb": 6628,
      "Ġocr": 6629,
      "isms": 6630,
      "rooms": 6631,
      "Ġlit": 6632,
      "Ġlength": 6633,
      "icity": 6634,
      "Ġanat": 6635,
      "Ġnamed": 6636,
      "Ġein": 6637,
      "aced": 6638,
      "Ġandre": 6639,
      "Ġshar": 6640,
      "Ġstability": 6641,
      "Ġrt": 6642,
      "ulting": 6643,
      "umes": 6644,
      "Ġconvent": 6645,
      "Ġkot": 6646,
      "plant": 6647,
      "Ġtruck": 6648,
      "Ġcompatibility": 6649,
      "Ġunb": 6650,
      "Ġspaces": 6651,
      "ially": 6652,
      "ugar": 6653,
      "Ġworkload": 6654,
      "Ġraising": 6655,
      "Ġlinus": 6656,
      "Ġfloppy": 6657,
      "Ġzip": 6658,
      "Ġbetting": 6659,
      "Ġremains": 6660,
      "shit": 6661,
      "Ġparticle": 6662,
      "Ġautomating": 6663,
      "apped": 6664,
      "Ġ99": 6665,
      "Ġlesson": 6666,
      "Ġfailures": 6667,
      "Ġcourses": 6668,
      "Ġsample": 6669,
      "Ġlightning": 6670,
      "Ġstops": 6671,
      "Ġbiom": 6672,
      "Ġkills": 6673,
      "office": 6674,
      "Ġpropag": 6675,
      "Ġprinter": 6676,
      "Ġsucks": 6677,
      "Ġcompetitor": 6678,
      "Ġdocumentary": 6679,
      "Ġfarms": 6680,
      "Ġirs": 6681,
      "Ġcultural": 6682,
      "Ġdreams": 6683,
      "Ġcrashes": 6684,
      "Ġcircle": 6685,
      "Ġtailscale": 6686,
      "Ġminimalist": 6687,
      "Ġsimplify": 6688,
      "haul": 6689,
      "Ġscripting": 6690,
      "Ġprepare": 6691,
      "Ġpainting": 6692,
      "Ġtitle": 6693,
      "Ġsettlement": 6694,
      "Ġscheduling": 6695,
      "Ġpremium": 6696,
      "Ġmolecular": 6697,
      "Ġscenes": 6698,
      "Ġalignment": 6699,
      "Ġemotional": 6700,
      "Ġpretty": 6701,
      "Ġcredentials": 6702,
      "Ġrecursive": 6703,
      "Ġdisplays": 6704,
      "Ġadvantage": 6705,
      "enomen": 6706,
      "Ġvarious": 6707,
      "Ġconspiracy": 6708,
      "Ġeclipse": 6709,
      "Ġhurricane": 6710,
      "Ġsnowflake": 6711,
      "250": 6712,
      "800": 6713,
      "aver": 6714,
      "aws": 6715,
      "cale": 6716,
      "di": 6717,
      "drop": 6718,
      "drag": 6719,
      "elect": 6720,
      "frame": 6721,
      "master": 6722,
      "pine": 6723,
      "python": 6724,
      "rup": 6725,
      "vity": 6726,
      "yr": 6727,
      "Ġtui": 6728,
      "Ġcow": 6729,
      "Ġfer": 6730,
      "Ġfox": 6731,
      "Ġpra": 6732,
      "Ġwip": 6733,
      "Ġmine": 6734,
      "Ġmother": 6735,
      "Ġhiding": 6736,
      "Ġbought": 6737,
      "Ġdc": 6738,
      "arily": 6739,
      "Ġlights": 6740,
      "Ġtough": 6741,
      "Ġans": 6742,
      "Ġgle": 6743,
      "Ġnin": 6744,
      "Ġnost": 6745,
      "ett": 6746,
      "etz": 6747,
      "Ġven": 6748,
      "odies": 6749,
      "che": 6750,
      "ches": 6751,
      "Ġproduce": 6752,
      "Ġchance": 6753,
      "ulf": 6754,
      "Ġire": 6755,
      "Ġjim": 6756,
      "earth": 6757,
      "Ġalert": 6758,
      "Ġclim": 6759,
      "Ġintr": 6760,
      "Ġcann": 6761,
      "Ġresidents": 6762,
      "Ġwebgpu": 6763,
      "gex": 6764,
      "Ġ28": 6765,
      "Ġphenomen": 6766,
      "Ġoverflow": 6767,
      "Ġheavy": 6768,
      "Ġimpacts": 6769,
      "Ġsuing": 6770,
      "Ġfee": 6771,
      "Ġdrinking": 6772,
      "Ġmush": 6773,
      "Ġwarfare": 6774,
      "Ġcru": 6775,
      "Ġcargo": 6776,
      "Ġpolar": 6777,
      "Ġminute": 6778,
      "commer": 6779,
      "Ġproductive": 6780,
      "Ġasset": 6781,
      "Ġconsistent": 6782,
      "Ġmeme": 6783,
      "Ġdeepmind": 6784,
      "Ġtwice": 6785,
      "iverse": 6786,
      "Ġretros": 6787,
      "Ġmaybe": 6788,
      "Ġmostly": 6789,
      "Ġsubsc": 6790,
      "Ġwriter": 6791,
      "Ġplayers": 6792,
      "Ġownership": 6793,
      "Ġstarliner": 6794,
      "Ġregular": 6795,
      "Ġfrust": 6796,
      "Ġtyped": 6797,
      "Ġcryptoc": 6798,
      "Ġprocesses": 6799,
      "Ġdiam": 6800,
      "Ġgeorge": 6801,
      "Ġsnake": 6802,
      "Ġmissile": 6803,
      "Ġstreams": 6804,
      "Ġinteractions": 6805,
      "Ġwinter": 6806,
      "Ġurls": 6807,
      "Ġsells": 6808,
      "Ġblogging": 6809,
      "Ġpiece": 6810,
      "1999": 6811,
      "Ġconnections": 6812,
      "Ġinstalling": 6813,
      "Ġsheets": 6814,
      "optim": 6815,
      "Ġsentence": 6816,
      "Ġfluid": 6817,
      "Ġdetecting": 6818,
      "Ġfigure": 6819,
      "Ġmechanics": 6820,
      "Ġbulk": 6821,
      "Ġdeleted": 6822,
      "Ġcoverage": 6823,
      "Ġadventures": 6824,
      "Ġreplaced": 6825,
      "Ġtemporal": 6826,
      "Ġdiversity": 6827,
      "Ġpreviously": 6828,
      "pathy": 6829,
      "Ġtower": 6830,
      "super": 6831,
      "Ġlawyer": 6832,
      "Ġwheel": 6833,
      "Ġexplanation": 6834,
      "Ġqwen": 6835,
      "memory": 6836,
      "Ġmicroplastics": 6837,
      "Ġphoenix": 6838,
      "?)": 6839,
      "dc": 6840,
      "files": 6841,
      "loss": 6842,
      "mart": 6843,
      "serv": 6844,
      "tree": 6845,
      "uv": 6846,
      "vision": 6847,
      "walk": 6848,
      "Ġawards": 6849,
      "Ġsugar": 6850,
      "Ġcube": 6851,
      "Ġcisa": 6852,
      "reds": 6853,
      "orter": 6854,
      "Ġwine": 6855,
      "Ġhr": 6856,
      "Ġborder": 6857,
      "Ġdh": 6858,
      "Ġdust": 6859,
      "Ġthems": 6860,
      "Ġgain": 6861,
      "Ġgift": 6862,
      "lets": 6863,
      "Ġner": 6864,
      "Ġug": 6865,
      "elly": 6866,
      "Ġshock": 6867,
      "Ġships": 6868,
      "imited": 6869,
      "Ġrid": 6870,
      "Ġasci": 6871,
      "unge": 6872,
      "Ġuseless": 6873,
      "Ġjer": 6874,
      "essions": 6875,
      "Ġens": 6876,
      "Ġalerts": 6877,
      "Ġcompatible": 6878,
      "Ġunf": 6879,
      "Ġunus": 6880,
      "aph": 6881,
      "aping": 6882,
      "Ġintuit": 6883,
      "Ġcanon": 6884,
      "Ġdoj": 6885,
      "Ġimaging": 6886,
      "Ġarbit": 6887,
      "ava": 6888,
      "Ġleague": 6889,
      "Ġempt": 6890,
      "Ġability": 6891,
      "Ġsecuring": 6892,
      "Ġdesert": 6893,
      "Ġsuicide": 6894,
      "Ġfeels": 6895,
      "Ġperman": 6896,
      "Ġwilliam": 6897,
      "Ġlangchain": 6898,
      "Ġmetab": 6899,
      "Ġcomputation": 6900,
      "Ġteens": 6901,
      "issance": 6902,
      "Ġremain": 6903,
      "Ġnether": 6904,
      "Ġassets": 6905,
      "Ġexpanding": 6906,
      "Ġsuperm": 6907,
      "Ġwasn": 6908,
      "Ġsupercon": 6909,
      "Ġlogging": 6910,
      "Ġfract": 6911,
      "Ġsalt": 6912,
      "Ġtakeover": 6913,
      "Ġlegend": 6914,
      "ditions": 6915,
      "Ġauthors": 6916,
      "Ġheads": 6917,
      "Ġwatchdog": 6918,
      "Ġavailability": 6919,
      "Ġterror": 6920,
      "Ġexperiments": 6921,
      "Ġchecker": 6922,
      "Ġcores": 6923,
      "Ġfundament": 6924,
      "brew": 6925,
      "Ġgreenland": 6926,
      "Ġacquired": 6927,
      "Ġacceleration": 6928,
      "Ġplugins": 6929,
      "Ġfacts": 6930,
      "brains": 6931,
      "written": 6932,
      "Ġpanel": 6933,
      "Ġburst": 6934,
      "month": 6935,
      "Ġtabs": 6936,
      "Ġreflections": 6937,
      "Ġneuro": 6938,
      "Ġharvest": 6939,
      "Ġflags": 6940,
      "Ġreduces": 6941,
      "Ġfloor": 6942,
      "Ġegg": 6943,
      "Ġspacecraft": 6944,
      "Ġjailbreak": 6945,
      "Ġassociated": 6946,
      "Ġwrapper": 6947,
      "Ġstealing": 6948,
      "Ġvmware": 6949,
      "orphic": 6950,
      "chronous": 6951,
      "Ġargentina": 6952,
      "Ġseamless": 6953,
      "Ġseptember": 6954,
      "browser": 6955,
      "Ġsyndrome": 6956,
      "Ġkotlin": 6957,
      "Ġthemselves": 6958,
      "21": 6959,
      "600": 6960,
      "bal": 6961,
      "bur": 6962,
      "fly": 6963,
      "from": 6964,
      "ias": 6965,
      "iors": 6966,
      "mac": 6967,
      "sized": 6968,
      "uid": 6969,
      "Ġaverage": 6970,
      "inem": 6971,
      "Ġtu": 6972,
      "Ġtts": 6973,
      "Ġssd": 6974,
      "Ġcto": 6975,
      "Ġfint": 6976,
      "Ġmask": 6977,
      "ito": 6978,
      "Ġbow": 6979,
      "Ġbom": 6980,
      "Ġbond": 6981,
      "Ġbatt": 6982,
      "Ġdilem": 6983,
      "Ġthiel": 6984,
      "Ġoc": 6985,
      "Ġoauth": 6986,
      "Ġlux": 6987,
      "Ġlyn": 6988,
      "Ġink": 6989,
      "Ġgri": 6990,
      "Ġgpts": 6991,
      "stor": 6992,
      "stage": 6993,
      "Ġnice": 6994,
      "Ġrena": 6995,
      "Ġregex": 6996,
      "Ġuv": 6997,
      "etics": 6998,
      "ecess": 6999,
      "olar": 7000,
      "Ġyaml": 7001,
      "Ġvit": 7002,
      "amin": 7003,
      "urrent": 7004,
      "usal": 7005,
      "opl": 7006,
      "opilot": 7007,
      "Ġweigh": 7008,
      "Ġbeer": 7009,
      "Ġalpine": 7010,
      "illed": 7011,
      "Ġunle": 7012,
      "Ġplays": 7013,
      "Ġagile": 7014,
      "Ġagencies": 7015,
      "arding": 7016,
      "anta": 7017,
      "forts": 7018,
      "Ġarray": 7019,
      "Ġadam": 7020,
      "Ġadult": 7021,
      "Ġwebh": 7022,
      "Ġdiscontin": 7023,
      "Ġtooling": 7024,
      "Ġgenerates": 7025,
      "Ġoutbreak": 7026,
      "Ġcolour": 7027,
      "Ġxz": 7028,
      "Ġmonopoly": 7029,
      "Ġinvis": 7030,
      "Ġexports": 7031,
      "inson": 7032,
      "Ġconsent": 7033,
      "Ġconsistency": 7034,
      "Ġserving": 7035,
      "ypse": 7036,
      "Ġpartic": 7037,
      "Ġcurren": 7038,
      "Ġcausing": 7039,
      "Ġadvance": 7040,
      "Ġoption": 7041,
      "Ġwrites": 7042,
      "Ġpaywall": 7043,
      "Ġspeak": 7044,
      "Ġerlang": 7045,
      "Ġstealth": 7046,
      "Ġmario": 7047,
      "Ġsampling": 7048,
      "tenance": 7049,
      "Ġprofits": 7050,
      "Ġpersonality": 7051,
      "Ġsilver": 7052,
      "Ġuniversities": 7053,
      "Ġvirus": 7054,
      "Ġ2000": 7055,
      "Ġaudit": 7056,
      "Ġmonthly": 7057,
      "Ġcheese": 7058,
      "Ġsucceed": 7059,
      "Ġchecking": 7060,
      "training": 7061,
      "Ġimproves": 7062,
      "Ġminds": 7063,
      "generation": 7064,
      "Ġdifferences": 7065,
      "Ġnovember": 7066,
      "fficient": 7067,
      "Ġbasics": 7068,
      "Ġexploiting": 7069,
      "Ġtranslate": 7070,
      "brain": 7071,
      "Ġinstrument": 7072,
      "Ġstruggles": 7073,
      "Ġmechanism": 7074,
      "Ġprovides": 7075,
      "Ġallegedly": 7076,
      "Ġfootball": 7077,
      "Ġkindle": 7078,
      "compatible": 7079,
      "Ġbabies": 7080,
      "Ġbeauty": 7081,
      "Ġefforts": 7082,
      "Ġmixt": 7083,
      "Ġanalyzer": 7084,
      "Ġnotebooklm": 7085,
      "Ġwalking": 7086,
      "Ġpirate": 7087,
      "Ġcalculus": 7088,
      "Ġmountain": 7089,
      "Ġcdc": 7090,
      "building": 7091,
      "held": 7092,
      "Ġpictures": 7093,
      "Ġrelationship": 7094,
      "Ġdetermin": 7095,
      "Ġdominance": 7096,
      "Ġhallucinations": 7097,
      "Ġisolation": 7098,
      "Ġresilience": 7099,
      "Ġcorruption": 7100,
      "Ġsemiconductor": 7101,
      "Ġwhistlebl": 7102,
      "Ġroyal": 7103,
      "Ġpfas": 7104,
      "Ġboston": 7105,
      "Ġmeteor": 7106,
      "Ġanatomy": 7107,
      "Ġfintech": 7108,
      "150": 7109,
      "28": 7110,
      "aa": 7111,
      "cil": 7112,
      "cell": 7113,
      "ele": 7114,
      "gers": 7115,
      "hack": 7116,
      "ja": 7117,
      "journ": 7118,
      "mail": 7119,
      "person": 7120,
      "rate": 7121,
      "ura": 7122,
      "uum": 7123,
      "uage": 7124,
      "west": 7125,
      "Ġ+": 7126,
      "Ġtam": 7127,
      "Ġtape": 7128,
      "Ġsor": 7129,
      "Ġsig": 7130,
      "Ġsail": 7131,
      "Ġcel": 7132,
      "Ġcub": 7133,
      "atting": 7134,
      "Ġfis": 7135,
      "Ġfool": 7136,
      "Ġpit": 7137,
      "Ġpays": 7138,
      "Ġpurs": 7139,
      "Ġwaves": 7140,
      "Ġmale": 7141,
      "Ġborn": 7142,
      "Ġdimens": 7143,
      "Ġlu": 7144,
      "Ġgang": 7145,
      "Ġnl": 7146,
      "Ġrefer": 7147,
      "etooth": 7148,
      "asion": 7149,
      "imm": 7150,
      "Ġvms": 7151,
      "Ġshowing": 7152,
      "Ġchur": 7153,
      "Ġride": 7154,
      "2000": 7155,
      "Ġcomet": 7156,
      "Ġappear": 7157,
      "Ġending": 7158,
      "ried": 7159,
      "angle": 7160,
      "oking": 7161,
      "ellation": 7162,
      "Ġcoders": 7163,
      "Ġgenes": 7164,
      "Ġambit": 7165,
      "Ġdisast": 7166,
      "Ġempower": 7167,
      "ensity": 7168,
      "Ġoverhaul": 7169,
      "Ġalloc": 7170,
      "Ġdecide": 7171,
      "ashes": 7172,
      "weg": 7173,
      "Ġminer": 7174,
      "Ġminister": 7175,
      "Ġinsider": 7176,
      "Ġextended": 7177,
      "Ġsearching": 7178,
      "shell": 7179,
      "Ġairpod": 7180,
      "Ġactual": 7181,
      "Ġclouds": 7182,
      "Ġmanaged": 7183,
      "Ġtwitch": 7184,
      "2001": 7185,
      "lete": 7186,
      "196": 7187,
      "Ġcave": 7188,
      "Ġsketch": 7189,
      "Ġfrank": 7190,
      "Ġrelig": 7191,
      "Ġgrants": 7192,
      "Ġaddiction": 7193,
      "Ġoptimized": 7194,
      "Ġoptimizations": 7195,
      "Ġsmartphones": 7196,
      "Ġverify": 7197,
      "Ġcollective": 7198,
      "Ġpushes": 7199,
      "Ġorganize": 7200,
      "Ġholding": 7201,
      "Ġhearing": 7202,
      "Ġequip": 7203,
      "Ġdeno": 7204,
      "Ġpyd": 7205,
      "Ġconnectivity": 7206,
      "unking": 7207,
      "Ġaffect": 7208,
      "Ġcookies": 7209,
      "Ġburning": 7210,
      "Ġsequence": 7211,
      "design": 7212,
      "Ġvalidate": 7213,
      "Ġwaiting": 7214,
      "Ġmaintenance": 7215,
      "Ġcsv": 7216,
      "Ġvaccines": 7217,
      "Ġscanner": 7218,
      "Ġsonnet": 7219,
      "Ġburnout": 7220,
      "Ġneuros": 7221,
      "Ġachieve": 7222,
      "Ġfloating": 7223,
      "Ġgradient": 7224,
      "Ġsongs": 7225,
      "Ġhabit": 7226,
      "Ġvictor": 7227,
      "Ġchannels": 7228,
      "Ġdelayed": 7229,
      "Ġdarpa": 7230,
      "Ġbluetooth": 7231,
      "Ġtaught": 7232,
      "Ġabandoned": 7233,
      "Ġopportunities": 7234,
      "Ġhopes": 7235,
      "Ġinstitute": 7236,
      "Ġresistance": 7237,
      "Ġfurther": 7238,
      "Ġscreenshots": 7239,
      "Ġgarden": 7240,
      "Ġsvg": 7241,
      "Ġbounty": 7242,
      "Ġdebugger": 7243,
      "Ġconsequences": 7244,
      "Ġoxygen": 7245,
      "Ġacquisition": 7246,
      "Ġnetherlands": 7247,
      "cer": 7248,
      "call": 7249,
      "fp": 7250,
      "hy": 7251,
      "ji": 7252,
      "kan": 7253,
      "mcp": 7254,
      "tle": 7255,
      "taking": 7256,
      "wing": 7257,
      "Ġ*": 7258,
      "Ġion": 7259,
      "Ġsms": 7260,
      "Ġcast": 7261,
      "Ġfetch": 7262,
      "Ġfighter": 7263,
      "Ġpic": 7264,
      "Ġpng": 7265,
      "Ġpico": 7266,
      "esign": 7267,
      "Ġwake": 7268,
      "Ġhu": 7269,
      "Ġbang": 7270,
      "Ġdir": 7271,
      "Ġdict": 7272,
      "isk": 7273,
      "Ġlies": 7274,
      "Ġinform": 7275,
      "Ġinher": 7276,
      "start": 7277,
      "Ġnih": 7278,
      "Ġshed": 7279,
      "Ġstations": 7280,
      "Ġvint": 7281,
      "Ġvcs": 7282,
      "oder": 7283,
      "Ġprove": 7284,
      "amental": 7285,
      "Ġchains": 7286,
      "Ġrack": 7287,
      "Ġrip": 7288,
      "Ġneon": 7289,
      "Ġdear": 7290,
      "thy": 7291,
      "Ġconditions": 7292,
      "Ġbuys": 7293,
      "Ġital": 7294,
      "Ġtrib": 7295,
      "Ġtrace": 7296,
      "uster": 7297,
      "Ġgoal": 7298,
      "Ġspons": 7299,
      "Ġscans": 7300,
      "uber": 7301,
      "mental": 7302,
      "Ġagric": 7303,
      "ella": 7304,
      "Ġcanvas": 7305,
      "Ġbyd": 7306,
      "Ġroute": 7307,
      "Ġgender": 7308,
      "obile": 7309,
      "Ġcontra": 7310,
      "ensen": 7311,
      "Ġups": 7312,
      "Ġ37": 7313,
      "Ġseems": 7314,
      "Ġraised": 7315,
      "Ġoutcomes": 7316,
      "Ġflights": 7317,
      "Ġdesc": 7318,
      "Ġreconstr": 7319,
      "Ġrecipe": 7320,
      "Ġsystemd": 7321,
      "Ġrevol": 7322,
      "Ġzed": 7323,
      "Ġbets": 7324,
      "umpy": 7325,
      "issue": 7326,
      "Ġbrick": 7327,
      "shitt": 7328,
      "rolling": 7329,
      "Ġsupabase": 7330,
      "icted": 7331,
      "Ġvalve": 7332,
      "Ġpersistent": 7333,
      "Ġreaders": 7334,
      "Ġarchives": 7335,
      "Ġpool": 7336,
      "Ġentry": 7337,
      "Ġannoy": 7338,
      "Ġdebut": 7339,
      "Ġvisualizer": 7340,
      "Ġphotograph": 7341,
      "health": 7342,
      "Ġjoh": 7343,
      "Ġbios": 7344,
      "Ġhandbook": 7345,
      "Ġrestore": 7346,
      "Ġnorway": 7347,
      "Ġarchitectures": 7348,
      "Ġlimited": 7349,
      "Ġcancels": 7350,
      "Ġwatching": 7351,
      "spot": 7352,
      "Ġtaxes": 7353,
      "Ġswitches": 7354,
      "Ġdeploying": 7355,
      "minute": 7356,
      "Ġhitting": 7357,
      "Ġcatastroph": 7358,
      "Ġfriendly": 7359,
      "Ġmotiv": 7360,
      "Ġukrainian": 7361,
      "Ġillusion": 7362,
      "ilingual": 7363,
      "Ġmitig": 7364,
      "Ġdestr": 7365,
      "Ġpanic": 7366,
      "Ġrichard": 7367,
      "Ġrouting": 7368,
      "Ġinclude": 7369,
      "Ġmastering": 7370,
      "Ġbroadcom": 7371,
      "Ġbalance": 7372,
      "Ġatlantic": 7373,
      "Ġcapitalism": 7374,
      "Ġchoosing": 7375,
      "Ġafrican": 7376,
      "Ġbullet": 7377,
      "Ġjetbrains": 7378,
      "Ġinitial": 7379,
      "Ġtitan": 7380,
      "Ġsettings": 7381,
      "Ġadvertis": 7382,
      "Ġparameter": 7383,
      "Ġdawn": 7384,
      "Ġbluep": 7385,
      "Ġliterature": 7386,
      "Ġhunting": 7387,
      "Ġtweet": 7388,
      "Ġchemicals": 7389,
      "Ġolympics": 7390,
      "ocalypse": 7391,
      "profit": 7392,
      "Ġfpga": 7393,
      "Ġjupy": 7394,
      "Ġtactics": 7395,
      "Ġvaluable": 7396,
      "twitter": 7397,
      "Ġrecycling": 7398,
      "Ġhierarchical": 7399,
      "Ġdispute": 7400,
      "Ġmagazine": 7401,
      "Ġdollars": 7402,
      "Ġguilty": 7403,
      "Ġparameters": 7404,
      "Ġeinstein": 7405,
      "dragon": 7406,
      "commerce": 7407,
      "Ġfundamentals": 7408,
      "38": 7409,
      "55": 7410,
      "bin": 7411,
      "cap": 7412,
      "cache": 7413,
      "dec": 7414,
      "lie": 7415,
      "mort": 7416,
      "prom": 7417,
      "post": 7418,
      "ran": 7419,
      "rid": 7420,
      "wid": 7421,
      "xiv": 7422,
      "you": 7423,
      "Ġtear": 7424,
      "Ġsum": 7425,
      "Ġsight": 7426,
      "Ġcables": 7427,
      "oro": 7428,
      "Ġpyp": 7429,
      "Ġpair": 7430,
      "Ġmang": 7431,
      "Ġmerc": 7432,
      "Ġho": 7433,
      "Ġhong": 7434,
      "Ġhedge": 7435,
      "Ġhaven": 7436,
      "Ġbsd": 7437,
      "ales": 7438,
      "outh": 7439,
      "Ġnord": 7440,
      "eling": 7441,
      "Ġproced": 7442,
      "agement": 7443,
      "ada": 7444,
      "adata": 7445,
      "Ġasyn": 7446,
      "Ġiq": 7447,
      "abil": 7448,
      "Ġjs": 7449,
      "Ġjw": 7450,
      "Ġjit": 7451,
      "iry": 7452,
      "Ġcondition": 7453,
      "essage": 7454,
      "Ġenshitt": 7455,
      "Ġalarm": 7456,
      "Ġclar": 7457,
      "Ġtrillion": 7458,
      "Ġuncon": 7459,
      "Ġunknown": 7460,
      "apore": 7461,
      "Ġopening": 7462,
      "Ġplumm": 7463,
      "riers": 7464,
      "okes": 7465,
      "Ġcoded": 7466,
      "Ġgenome": 7467,
      "Ġreserve": 7468,
      "Ġworkplace": 7469,
      "eping": 7470,
      "Ġ35": 7471,
      "Ġpharm": 7472,
      "Ġsegment": 7473,
      "Ġtraditional": 7474,
      "Ġze": 7475,
      "Ġtransactions": 7476,
      "Ġsmith": 7477,
      "Ġsmugg": 7478,
      "ashion": 7479,
      "Ġpowering": 7480,
      "Ġgroc": 7481,
      "Ġgroq": 7482,
      "Ġcoach": 7483,
      "Ġnetbsd": 7484,
      "Ġhackathon": 7485,
      "Ġfinder": 7486,
      "Ġgraf": 7487,
      "Ġartif": 7488,
      "Ġexposes": 7489,
      "Ġredesign": 7490,
      "Ġconsiders": 7491,
      "Ġmacro": 7492,
      "Ġpromote": 7493,
      "Ġelectr": 7494,
      "Ġelections": 7495,
      "Ġbanning": 7496,
      "Ġbanana": 7497,
      "fully": 7498,
      "Ġdelivers": 7499,
      "Ġreactive": 7500,
      "Ġreactors": 7501,
      "Ġconfidence": 7502,
      "Ġrequires": 7503,
      "Ġcaps": 7504,
      "Ġcapable": 7505,
      "Ġcollaps": 7506,
      "Ġfilesystem": 7507,
      "Ġinteraction": 7508,
      "Ġspecification": 7509,
      "trans": 7510,
      "Ġtransformation": 7511,
      "Ġgitlab": 7512,
      "Ġeffectively": 7513,
      "Ġchildhood": 7514,
      "spec": 7515,
      "Ġengineered": 7516,
      "Ġlander": 7517,
      "Ġanimations": 7518,
      "Ġbanking": 7519,
      "Ġfarming": 7520,
      "Ġfundamental": 7521,
      "grad": 7522,
      "Ġmeasures": 7523,
      "Ġhottest": 7524,
      "Ġhappening": 7525,
      "Ġneuralink": 7526,
      "Ġpalest": 7527,
      "Ġpsychology": 7528,
      "Ġenhancing": 7529,
      "Ġutil": 7530,
      "Ġsequoia": 7531,
      "Ġbirds": 7532,
      "Ġfewer": 7533,
      "ĠâĢĺ": 7534,
      "Ġstronger": 7535,
      "Ġparking": 7536,
      "Ġregulators": 7537,
      "Ġiii": 7538,
      "...": 7539,
      "language": 7540,
      "Ġvoting": 7541,
      "Ġrfc": 7542,
      "Ġmrna": 7543,
      "Ġcomposition": 7544,
      "Ġagreement": 7545,
      "Ġconstant": 7546,
      "Ġcoinbase": 7547,
      "Ġannouncement": 7548,
      "Ġcertificates": 7549,
      "Ġalien": 7550,
      "Ġrejected": 7551,
      "Ġthermal": 7552,
      "Ġdropped": 7553,
      "Ġdestroyed": 7554,
      "Ġsparks": 7555,
      "Ġrivals": 7556,
      "Ġfemale": 7557,
      "Ġneighbor": 7558,
      "Ġaggregator": 7559,
      "Ġextinction": 7560,
      "Ġaurora": 7561,
      "Ġchicken": 7562,
      "Ġhundreds": 7563,
      "Ġreliability": 7564,
      "Ġtetris": 7565,
      "Ġdiabetes": 7566,
      "Ġireland": 7567,
      "Ġrenaissance": 7568,
      "Ġairpods": 7569,
      "Ġjupyter": 7570,
      "29": 7571,
      "cpp": 7572,
      "css": 7573,
      "fil": 7574,
      "fts": 7575,
      "hi": 7576,
      "hand": 7577,
      "home": 7578,
      "iat": 7579,
      "joy": 7580,
      "lay": 7581,
      "system": 7582,
      "Ġties": 7583,
      "Ġtank": 7584,
      "Ġtaste": 7585,
      "Ġtls": 7586,
      "Ġsac": 7587,
      "Ġsad": 7588,
      "Ġsector": 7589,
      "Ġcer": 7590,
      "Ġcats": 7591,
      "Ġciting": 7592,
      "Ġcisco": 7593,
      "Ġfib": 7594,
      "Ġfram": 7595,
      "Ġfold": 7596,
      "Ġmd": 7597,
      "Ġhint": 7598,
      "Ġhoney": 7599,
      "Ġbob": 7600,
      "Ġdma": 7601,
      "Ġthrow": 7602,
      "ario": 7603,
      "Ġluck": 7604,
      "Ġinqu": 7605,
      "Ġnu": 7606,
      "Ġnich": 7607,
      "Ġforge": 7608,
      "oming": 7609,
      "ethe": 7610,
      "otes": 7611,
      "Ġonboard": 7612,
      "uries": 7613,
      "aby": 7614,
      "Ġjones": 7615,
      "umn": 7616,
      "umin": 7617,
      "akistan": 7618,
      "Ġconcepts": 7619,
      "estream": 7620,
      "Ġkitch": 7621,
      "Ġbeij": 7622,
      "Ġalb": 7623,
      "Ġnewly": 7624,
      "Ġuns": 7625,
      "anging": 7626,
      "ounding": 7627,
      "Ġmodules": 7628,
      "acters": 7629,
      "ails": 7630,
      "Ġlever": 7631,
      "Ġoral": 7632,
      "Ġdisable": 7633,
      "Ġupcoming": 7634,
      "Ġlaid": 7635,
      "Ġserial": 7636,
      "Ġflaws": 7637,
      "Ġautopilot": 7638,
      "Ġmicha": 7639,
      "Ġmetric": 7640,
      "Ġsimd": 7641,
      "Ġmusical": 7642,
      "Ġdecomp": 7643,
      "Ġwarp": 7644,
      "Ġmonster": 7645,
      "intosh": 7646,
      "Ġremark": 7647,
      "comple": 7648,
      "Ġhighlight": 7649,
      "Ġactually": 7650,
      "Ġconserv": 7651,
      "Ġmultip": 7652,
      "Ġmemo": 7653,
      "Ġslides": 7654,
      "onda": 7655,
      "Ġnextjs": 7656,
      "Ġbrowsing": 7657,
      "Ġadvoc": 7658,
      "Ġcontrolled": 7659,
      "Ġcops": 7660,
      "Ġformula": 7661,
      "Ġsupercharg": 7662,
      "Ġpassed": 7663,
      "Ġ800": 7664,
      "Ġmoved": 7665,
      "Ġhomebrew": 7666,
      "bruary": 7667,
      "Ġhappiness": 7668,
      "Ġmissed": 7669,
      "Ġlinking": 7670,
      "Ġsilent": 7671,
      "Ġannouncing": 7672,
      "Ġescal": 7673,
      "Ġexecs": 7674,
      "Ġmilest": 7675,
      "ipped": 7676,
      "Ġwordle": 7677,
      "Ġhalt": 7678,
      "Ġultr": 7679,
      "Ġbelong": 7680,
      "Ġsoul": 7681,
      "Ġcharacters": 7682,
      "Ġfuels": 7683,
      "Ġpaths": 7684,
      "1997": 7685,
      "Ġimmune": 7686,
      "Ġpyram": 7687,
      "Ġviet": 7688,
      "Ġvolume": 7689,
      "Ġaccelerator": 7690,
      "Ġremoving": 7691,
      "Ġnorthern": 7692,
      "points": 7693,
      "Ġmorph": 7694,
      "Ġscammers": 7695,
      "Ġsubsid": 7696,
      "Ġsubscriptions": 7697,
      "Ġaffecting": 7698,
      "Ġsimpler": 7699,
      "Ġicons": 7700,
      "Ġiceland": 7701,
      "Ġlaptops": 7702,
      "liest": 7703,
      "Ġscanning": 7704,
      "Ġprofitable": 7705,
      "Ġsurprisingly": 7706,
      "Ġgravit": 7707,
      "Ġpredicting": 7708,
      "Ġopportunity": 7709,
      "Ġbullshit": 7710,
      "Ġresigns": 7711,
      "Ġmamm": 7712,
      "Ġentrepreneur": 7713,
      "Ġentrepreneurs": 7714,
      "holders": 7715,
      "Ġbolt": 7716,
      "ginx": 7717,
      "Ġsabot": 7718,
      "Ġexplosion": 7719,
      "Ġsituation": 7720,
      "Ġthomas": 7721,
      "Ġforgotten": 7722,
      "Ġepisode": 7723,
      "Ġclinical": 7724,
      "Ġgrammar": 7725,
      "Ġpropaganda": 7726,
      "etzner": 7727,
      "Ġascii": 7728,
      "Ġempty": 7729,
      "Ġdilemma": 7730,
      "Ġinvisible": 7731,
      "Ġequipment": 7732,
      "Ġitalian": 7733,
      "Ġgrafana": 7734,
      "Ġbeijing": 7735,
      "27": 7736,
      "39": 7737,
      "47": 7738,
      "75": 7739,
      "bles": 7740,
      "bank": 7741,
      "cience": 7742,
      "det": 7743,
      "dist": 7744,
      "fish": 7745,
      "hot": 7746,
      "hell": 7747,
      "oint": 7748,
      "rt": 7749,
      "rations": 7750,
      "tic": 7751,
      "yard": 7752,
      "inc": 7753,
      "Ġtay": 7754,
      "rey": 7755,
      "Ġfather": 7756,
      "Ġpas": 7757,
      "Ġports": 7758,
      "Ġwp": 7759,
      "Ġmile": 7760,
      "Ġhook": 7761,
      "Ġbars": 7762,
      "roke": 7763,
      "Ġlob": 7764,
      "Ġgt": 7765,
      "Ġgiven": 7766,
      "stone": 7767,
      "Ġnhs": 7768,
      "Ġeight": 7769,
      "Ġease": 7770,
      "asm": 7771,
      "idering": 7772,
      "Ġstake": 7773,
      "Ġyield": 7774,
      "Ġdee": 7775,
      "thread": 7776,
      "osition": 7777,
      "Ġjon": 7778,
      "Ġconduct": 7779,
      "Ġexcl": 7780,
      "Ġtries": 7781,
      "Ġunp": 7782,
      "Ġspies": 7783,
      "aped": 7784,
      "Ġscene": 7785,
      "Ġatari": 7786,
      "ortion": 7787,
      "Ġroast": 7788,
      "Ġroles": 7789,
      "Ġinteroper": 7790,
      "Ġcontest": 7791,
      "Ġdiss": 7792,
      "Ġblender": 7793,
      "Ġ38": 7794,
      "Ġ365": 7795,
      "Ġgeneric": 7796,
      "Ġgenerations": 7797,
      "Ġraid": 7798,
      "Ġdrift": 7799,
      "Ġsaudi": 7800,
      "Ġmetadata": 7801,
      "Ġxi": 7802,
      "Ġtransplant": 7803,
      "Ġwarrant": 7804,
      "Ġpeak": 7805,
      "ricks": 7806,
      "Ġmont": 7807,
      "Ġmonkey": 7808,
      "Ġbuildings": 7809,
      "Ġglac": 7810,
      "Ġextend": 7811,
      "Ġbrands": 7812,
      "Ġparas": 7813,
      "yping": 7814,
      "Ġmemor": 7815,
      "Ġslide": 7816,
      "Ġpersist": 7817,
      "Ġdemyst": 7818,
      "Ġeveryday": 7819,
      "itories": 7820,
      "Ġspeaking": 7821,
      "screen": 7822,
      "Ġfruit": 7823,
      "Ġvisually": 7824,
      "Ġgraphene": 7825,
      "Ġconfidential": 7826,
      "Ġletters": 7827,
      "Ġprofiling": 7828,
      "brand": 7829,
      "Ġintroduce": 7830,
      "Ġsingapore": 7831,
      "Ġhandheld": 7832,
      "Ġ2030": 7833,
      "Ġlawmakers": 7834,
      "Ġtransforming": 7835,
      "Ġmultiplayer": 7836,
      "proof": 7837,
      "Ġdiscr": 7838,
      "Ġdiscovers": 7839,
      "Ġweekend": 7840,
      "Ġmillenn": 7841,
      "Ġdeprec": 7842,
      "Ġsummit": 7843,
      "Ġconcrete": 7844,
      "Ġvulnerable": 7845,
      "Ġsenate": 7846,
      "Ġlarger": 7847,
      "Ġtexts": 7848,
      "Ġethere": 7849,
      "Ġbinaries": 7850,
      "Ġemerging": 7851,
      "Ġsuspected": 7852,
      "Ġaccounting": 7853,
      "Ġauthorization": 7854,
      "Ġdurable": 7855,
      "Ġbeginning": 7856,
      "Ġbroadband": 7857,
      "Ġbooming": 7858,
      "Ġresponsible": 7859,
      "Ġpulls": 7860,
      "Ġcrackdown": 7861,
      "Ġrepositories": 7862,
      "Ġangeles": 7863,
      "Ġwalmart": 7864,
      "Ġpatches": 7865,
      "ersonic": 7866,
      "riction": 7867,
      "Ġrfk": 7868,
      "Ġsettle": 7869,
      "Ġfatal": 7870,
      "Ġimplications": 7871,
      "Ġcredits": 7872,
      "Ġwearable": 7873,
      "Ġvegas": 7874,
      "Ġshapes": 7875,
      "Ġcontroversy": 7876,
      "Ġleaderboard": 7877,
      "Ġswedish": 7878,
      "Ġmartin": 7879,
      "Ġhonest": 7880,
      "Ġupload": 7881,
      "Ġpioneer": 7882,
      "Ġcandidate": 7883,
      "Ġimpressions": 7884,
      "Ġantarctica": 7885,
      "Ġapplied": 7886,
      "Ġspanish": 7887,
      "Ġresurrect": 7888,
      "Ġcrystal": 7889,
      "Ġwhisper": 7890,
      "intelligence": 7891,
      "Ġdomestic": 7892,
      "Ġretrospective": 7893,
      "Ġpydantic": 7894,
      "Ġasynchronous": 7895,
      "Ġkitchen": 7896,
      "Ġmichael": 7897,
      ".,": 7898,
      "gn": 7899,
      "hes": 7900,
      "ira": 7901,
      "iad": 7902,
      "ipl": 7903,
      "kb": 7904,
      "ku": 7905,
      "len": 7906,
      "now": 7907,
      "night": 7908,
      "oz": 7909,
      "rator": 7910,
      "sourced": 7911,
      "vy": 7912,
      "wise": 7913,
      "Ġig": 7914,
      "Ġtel": 7915,
      "Ġtip": 7916,
      "Ġtipping": 7917,
      "Ġsb": 7918,
      "Ġsund": 7919,
      "Ġsession": 7920,
      "Ġcath": 7921,
      "orp": 7922,
      "Ġfest": 7923,
      "Ġfif": 7924,
      "Ġwife": 7925,
      "Ġmary": 7926,
      "Ġmarg": 7927,
      "Ġhetzner": 7928,
      "Ġbic": 7929,
      "Ġdol": 7930,
      "Ġthunder": 7931,
      "arant": 7932,
      "isl": 7933,
      "Ġlen": 7934,
      "Ġlung": 7935,
      "Ġanom": 7936,
      "Ġanch": 7937,
      "owe": 7938,
      "ste": 7939,
      "Ġnine": 7940,
      "Ġnations": 7941,
      "Ġreus": 7942,
      "oma": 7943,
      "ete": 7944,
      "Ġstd": 7945,
      "Ġvault": 7946,
      "otion": 7947,
      "Ġwhale": 7948,
      "Ġrce": 7949,
      "agg": 7950,
      "agnet": 7951,
      "Ġneo": 7952,
      "unding": 7953,
      "Ġcompens": 7954,
      "Ġiot": 7955,
      "abis": 7956,
      "Ġjets": 7957,
      "ategor": 7958,
      "ifts": 7959,
      "andme": 7960,
      "Ġappe": 7961,
      "Ġenforcement": 7962,
      "Ġenemy": 7963,
      "Ġ150": 7964,
      "Ġspider": 7965,
      "Ġages": 7966,
      "ellow": 7967,
      "ieval": 7968,
      "Ġarms": 7969,
      "Ġresult": 7970,
      "Ġleet": 7971,
      "Ġquiz": 7972,
      "Ġblo": 7973,
      "Ġabove": 7974,
      "Ġtrail": 7975,
      "ockets": 7976,
      "Ġrecon": 7977,
      "Ġcolon": 7978,
      "Ġpercept": 7979,
      "Ġindic": 7980,
      "Ġbrown": 7981,
      "Ġtranscription": 7982,
      "Ġprogramm": 7983,
      "Ġvisit": 7984,
      "Ġgrows": 7985,
      "week": 7986,
      "Ġcouldn": 7987,
      "Ġactors": 7988,
      "Ġswim": 7989,
      "Ġprote": 7990,
      "Ġbutt": 7991,
      "cla": 7992,
      "Ġfutures": 7993,
      "Ġadvances": 7994,
      "Ġsubmar": 7995,
      "Ġarchae": 7996,
      "Ġbusy": 7997,
      "Ġenth": 7998,
      "Ġ75": 7999,
      "Ġsigning": 8000,
      "Ġfirebase": 8001,
      "Ġpasskeys": 8002,
      "Ġdistance": 8003,
      "Ġsynchron": 8004,
      "Ġgran": 8005,
      "Ġstats": 8006,
      "Ġeasiest": 8007,
      "Ġhttps": 8008,
      "tee": 8009,
      "Ġjoining": 8010,
      "Ġlistening": 8011,
      "Ġfeds": 8012,
      "Ġfediverse": 8013,
      "Ġverizon": 8014,
      "Ġrefact": 8015,
      "Ġworkspace": 8016,
      "Ġcollector": 8017,
      "Ġstoryt": 8018,
      "Ġpredicted": 8019,
      "Ġanimated": 8020,
      "Ġbuyers": 8021,
      "Ġheard": 8022,
      "Ġcrispr": 8023,
      "linux": 8024,
      "Ġtrusted": 8025,
      "Ġcaptured": 8026,
      "Ġnato": 8027,
      "Ġunlimited": 8028,
      "Ġmorning": 8029,
      "Ġillness": 8030,
      "Ġindexing": 8031,
      "Ġsynthes": 8032,
      "Ġcomplaint": 8033,
      "Ġsensors": 8034,
      "Ġintegrity": 8035,
      "Ġintegrating": 8036,
      "oooo": 8037,
      "Ġdivide": 8038,
      "Ġpreparing": 8039,
      "Ġapproved": 8040,
      "Ġsometimes": 8041,
      "Ġbalancing": 8042,
      "Ġconverting": 8043,
      "Ġreinvent": 8044,
      "Ġsnapdragon": 8045,
      "Ġrecently": 8046,
      "Ġallowed": 8047,
      "Ġsimulating": 8048,
      "Ġtickets": 8049,
      "Ġsuccessfully": 8050,
      "printed": 8051,
      "Ġimplant": 8052,
      "Ġstraight": 8053,
      "Ġscheduler": 8054,
      "Ġdiscussion": 8055,
      "Ġpresentation": 8056,
      "Ġexpectations": 8057,
      "Ġpoker": 8058,
      "grown": 8059,
      "Ġkarpathy": 8060,
      "Ġneutral": 8061,
      "Ġcelebrating": 8062,
      "Ġdedicated": 8063,
      "supp": 8064,
      "Ġrewriting": 8065,
      "Ġstanford": 8066,
      "Ġdegree": 8067,
      "Ġwildfire": 8068,
      "Ġstructural": 8069,
      "Ġdrama": 8070,
      "Ġlecture": 8071,
      "Ġgallery": 8072,
      "Ġeliminate": 8073,
      "Ġsuddenly": 8074,
      "Ġhypothesis": 8075,
      "Ġgleam": 8076,
      "journey": 8077,
      "Ġhuang": 8078,
      "width": 8079,
      "Ġinquiry": 8080,
      "Ġvietnam": 8081,
      "Ġethereum": 8082,
      ".)": 8083,
      "34": 8084,
      "95": 8085,
      "date": 8086,
      "fect": 8087,
      "lat": 8088,
      "mat": 8089,
      "paces": 8090,
      "rary": 8091,
      "tb": 8092,
      "town": 8093,
      "vector": 8094,
      "Ġtan": 8095,
      "Ġtil": 8096,
      "Ġssl": 8097,
      "Ġct": 8098,
      "Ġcock": 8099,
      "Ġcrop": 8100,
      "reet": 8101,
      "reck": 8102,
      "Ġful": 8103,
      "Ġfert": 8104,
      "Ġfriction": 8105,
      "ened": 8106,
      "Ġpill": 8107,
      "Ġpaste": 8108,
      "Ġprag": 8109,
      "Ġpizz": 8110,
      "Ġpakistan": 8111,
      "Ġwit": 8112,
      "itual": 8113,
      "Ġhan": 8114,
      "any": 8115,
      "Ġba": 8116,
      "Ġbun": 8117,
      "Ġbund": 8118,
      "Ġbits": 8119,
      "Ġdry": 8120,
      "Ġot": 8121,
      "Ġodd": 8122,
      "iced": 8123,
      "Ġgent": 8124,
      "stop": 8125,
      "Ġnist": 8126,
      "Ġnik": 8127,
      "Ġnginx": 8128,
      "ilation": 8129,
      "Ġforth": 8130,
      "elog": 8131,
      "ented": 8132,
      "asis": 8133,
      "Ġandrew": 8134,
      "Ġstim": 8135,
      "ither": 8136,
      "Ġvue": 8137,
      "charge": 8138,
      "Ġiso": 8139,
      "tery": 8140,
      "Ġjensen": 8141,
      "ifier": 8142,
      "Ġkim": 8143,
      "ogy": 8144,
      "query": 8145,
      "Ġbeware": 8146,
      "Ġalong": 8147,
      "Ġitems": 8148,
      "Ġunre": 8149,
      "Ġunity": 8150,
      "ectors": 8151,
      "ounts": 8152,
      "Ġmodelling": 8153,
      "allow": 8154,
      "Ġbyted": 8155,
      "resist": 8156,
      "ortex": 8157,
      "Ġlex": 8158,
      "Ġdisks": 8159,
      "Ġdisorder": 8160,
      "Ġdisinformation": 8161,
      "Ġllam": 8162,
      "ension": 8163,
      "Ġseem": 8164,
      "Ġhaz": 8165,
      "Ġhaik": 8166,
      "Ġserve": 8167,
      "Ġoutages": 8168,
      "Ġtrailer": 8169,
      "Ġtradem": 8170,
      "Ġevil": 8171,
      "Ġoffic": 8172,
      "Ġsuite": 8173,
      "Ġfebruary": 8174,
      "Ġindones": 8175,
      "enda": 8176,
      "Ġbrought": 8177,
      "Ġtransit": 8178,
      "Ġtransist": 8179,
      "Ġdecl": 8180,
      "Ġdecember": 8181,
      "Ġbacks": 8182,
      "Ġstrings": 8183,
      "Ġbrut": 8184,
      "Ġrelevant": 8185,
      "Ġconsulting": 8186,
      "Ġconsidering": 8187,
      "Ġinstance": 8188,
      "Ġswap": 8189,
      "Ġmedium": 8190,
      "Ġmacs": 8191,
      "Ġmacros": 8192,
      "Ġmember": 8193,
      "Ġobsc": 8194,
      "Ġprivile": 8195,
      "Ġplaystation": 8196,
      "too": 8197,
      "priv": 8198,
      "Ġloops": 8199,
      "Ġlongest": 8200,
      "Ġregions": 8201,
      "Ġregression": 8202,
      "Ġ78": 8203,
      "Ġupdating": 8204,
      "Ġskip": 8205,
      "Ġbilling": 8206,
      "Ġpatents": 8207,
      "Ġstatist": 8208,
      "Ġlabels": 8209,
      "Ġrestric": 8210,
      "Ġintellect": 8211,
      "Ġgemma": 8212,
      "bler": 8213,
      "Ġspecs": 8214,
      "Ġpope": 8215,
      "ometric": 8216,
      "Ġemployment": 8217,
      "hosting": 8218,
      "Ġlatin": 8219,
      "Ġlatent": 8220,
      "Ġimplemented": 8221,
      "aneous": 8222,
      "Ġspotted": 8223,
      "Ġsemi": 8224,
      "Ġsemant": 8225,
      "what": 8226,
      "whel": 8227,
      "Ġsalesforce": 8228,
      "1998": 8229,
      "Ġrevolutionizing": 8230,
      "Ġkernels": 8231,
      "Ġroads": 8232,
      "march": 8233,
      "Ġscrut": 8234,
      "Ġcleaning": 8235,
      "Ġcouncil": 8236,
      "Ġlosses": 8237,
      "Ġcomplain": 8238,
      "smart": 8239,
      "Ġpanels": 8240,
      "Ġmigrate": 8241,
      "Ġmigrations": 8242,
      "Ġsuspend": 8243,
      "Ġsequences": 8244,
      "Ġexisting": 8245,
      "Ġtrials": 8246,
      "Ġfaq": 8247,
      "Ġdetailed": 8248,
      "Ġschedule": 8249,
      "Ġroundup": 8250,
      "Ġfeeling": 8251,
      "Ġsweet": 8252,
      "labs": 8253,
      "Ġinvented": 8254,
      "Ġgradu": 8255,
      "Ġmelt": 8256,
      "Ġbayes": 8257,
      "Ġvictims": 8258,
      "Ġimagine": 8259,
      "Ġestimates": 8260,
      "Ġnyt": 8261,
      "Ġselection": 8262,
      "Ġomn": 8263,
      "Ġshaped": 8264,
      "Ġreceive": 8265,
      "Ġeffortless": 8266,
      "Ġmerger": 8267,
      "Ġdialog": 8268,
      "Ġrestaurants": 8269,
      "Ġpedest": 8270,
      "addy": 8271,
      "Ġwolf": 8272,
      "Ġfabric": 8273,
      "Ġpoisoning": 8274,
      "Ġcompromised": 8275,
      "Ġreimag": 8276,
      "Ġstyles": 8277,
      "Ġvertical": 8278,
      "Ġvendor": 8279,
      "Ġrecipes": 8280,
      "Ġfantasy": 8281,
      "Ġinequality": 8282,
      "Ġmongodb": 8283,
      "Ġworkloads": 8284,
      "Ġphenomenon": 8285,
      "Ġsubscrib": 8286,
      "Ġcryptocurrency": 8287,
      "Ġwhistleblower": 8288,
      "Ġadvertisers": 8289,
      "Ġgrocery": 8290,
      "Ġtaylor": 8291,
      "Ġbytedance": 8292,
      "born": 8293,
      "city": 8294,
      "case": 8295,
      "dig": 8296,
      "data": 8297,
      "fc": 8298,
      "gets": 8299,
      "hal": 8300,
      "hatt": 8301,
      "hole": 8302,
      "iations": 8303,
      "lists": 8304,
      "mb": 8305,
      "men": 8306,
      "pur": 8307,
      "pread": 8308,
      "ports": 8309,
      "rants": 8310,
      "vol": 8311,
      "wa": 8312,
      "ypt": 8313,
      "Ġauction": 8314,
      "Ġtied": 8315,
      "Ġtorn": 8316,
      "Ġtier": 8317,
      "Ġsota": 8318,
      "Ġcm": 8319,
      "Ġcof": 8320,
      "Ġcere": 8321,
      "Ġcategor": 8322,
      "ingo": 8323,
      "Ġmt": 8324,
      "Ġmes": 8325,
      "Ġmim": 8326,
      "Ġmun": 8327,
      "ani": 8328,
      "Ġdangers": 8329,
      "Ġoreg": 8330,
      "ali": 8331,
      "alysis": 8332,
      "arts": 8333,
      "Ġtoile": 8334,
      "Ġgest": 8335,
      "Ġgrew": 8336,
      "ionage": 8337,
      "Ġnit": 8338,
      "Ġnic": 8339,
      "Ġnap": 8340,
      "Ġnsa": 8341,
      "Ġshake": 8342,
      "rails": 8343,
      "Ġstall": 8344,
      "iment": 8345,
      "Ġyt": 8346,
      "Ġvery": 8347,
      "Ġont": 8348,
      "ams": 8349,
      "Ġrational": 8350,
      "Ġrural": 8351,
      "agers": 8352,
      "agger": 8353,
      "emu": 8354,
      "Ġasml": 8355,
      "Ġnex": 8356,
      "usc": 8357,
      "abs": 8358,
      "Ġjpm": 8359,
      "Ġka": 8360,
      "plus": 8361,
      "Ġclang": 8362,
      "Ġtriv": 8363,
      "Ġcompound": 8364,
      "Ġcompiling": 8365,
      "Ġunm": 8366,
      "Ġunemploy": 8367,
      "ective": 8368,
      "Ġspike": 8369,
      "ria": 8370,
      "Ġaged": 8371,
      "Ġagree": 8372,
      "Ġarrays": 8373,
      "Ġarxiv": 8374,
      "Ġresumes": 8375,
      "Ġwebkit": 8376,
      "exper": 8377,
      "Ġgenerators": 8378,
      "Ġtraged": 8379,
      "Ġrecreat": 8380,
      "Ġoffsh": 8381,
      "Ġmicrop": 8382,
      "Ġaccuses": 8383,
      "Ġcolleg": 8384,
      "Ġperl": 8385,
      "ernet": 8386,
      "Ġmuscle": 8387,
      "Ġbroker": 8388,
      "Ġposting": 8389,
      "flight": 8390,
      "Ġstudios": 8391,
      "Ġmonolith": 8392,
      "Ġrunner": 8393,
      "Ġremind": 8394,
      "Ġglitch": 8395,
      "Ġunderwater": 8396,
      "Ġextending": 8397,
      "Ġbuilders": 8398,
      "Ġassass": 8399,
      "Ġexpression": 8400,
      "Ġredef": 8401,
      "Ġplanes": 8402,
      "Ġlifetime": 8403,
      "azz": 8404,
      "Ġmacintosh": 8405,
      "Ġattract": 8406,
      "Ġautomatt": 8407,
      "Ġfilters": 8408,
      "Ġmojo": 8409,
      "Ġdetected": 8410,
      "Ġadvers": 8411,
      "Ġinfring": 8412,
      "prints": 8413,
      "Ġenters": 8414,
      "Ġincent": 8415,
      "struct": 8416,
      "Ġloan": 8417,
      "Ġregion": 8418,
      "Ġregister": 8419,
      "appy": 8420,
      "erty": 8421,
      "Ġsteph": 8422,
      "Ġrelational": 8423,
      "Ġreaction": 8424,
      "Ġaddition": 8425,
      "Ġprofiles": 8426,
      "Ġ197": 8427,
      "eeee": 8428,
      "Ġlayoff": 8429,
      "Ġstreaml": 8430,
      "Ġaudience": 8431,
      "Ġspecific": 8432,
      "official": 8433,
      "Ġwinner": 8434,
      "ometer": 8435,
      "Ġwatches": 8436,
      "Ġvulkan": 8437,
      "Ġeffectiveness": 8438,
      "cedented": 8439,
      "ipper": 8440,
      "Ġcharlie": 8441,
      "Ġhomeless": 8442,
      "awa": 8443,
      "grade": 8444,
      "Ġdenies": 8445,
      "Ġprotocols": 8446,
      "Ġefficiently": 8447,
      "Ġaccelerate": 8448,
      "Ġmoral": 8449,
      "linked": 8450,
      "Ġscrap": 8451,
      "Ġheroku": 8452,
      "precedented": 8453,
      "Ġordered": 8454,
      "writer": 8455,
      "Ġjournalist": 8456,
      "Ġpuzzles": 8457,
      "Ġmidjourney": 8458,
      "Ġparadig": 8459,
      "Ġcracking": 8460,
      "Ġgroundbreaking": 8461,
      "Ġangular": 8462,
      "Ġregulatory": 8463,
      "Ġupgrades": 8464,
      "Ġwireguard": 8465,
      "Ġviolence": 8466,
      "Ġachieves": 8467,
      "openai": 8468,
      "iminals": 8469,
      "Ġstablecoin": 8470,
      "Ġproperties": 8471,
      "Ġconstruct": 8472,
      "Ġprinted": 8473,
      "Ġwrapped": 8474,
      "Ġestimation": 8475,
      "Ġpilots": 8476,
      "Ġremembering": 8477,
      "Ġunicode": 8478,
      "Ġdaniel": 8479,
      "Ġprecision": 8480,
      "Ġinfluencers": 8481,
      "Ġgirl": 8482,
      "Ġruling": 8483,
      "Ġrocks": 8484,
      "Ġshortcuts": 8485,
      "itutional": 8486,
      "Ġrogue": 8487,
      "Ġretirement": 8488,
      "Ġreproducible": 8489,
      "Ġcruise": 8490,
      "Ġdiamond": 8491,
      "ecessary": 8492,
      "Ġchurch": 8493,
      "Ġalbum": 8494,
      "Ġreusable": 8495,
      "Ġenthus": 8496,
      "Ġpizza": 8497,
      "Ġtrademark": 8498,
      "Ġoregon": 8499,
      "Ġcolleges": 8500,
      "Ġautomattic": 8501,
      "44": 8502,
      "creat": 8503,
      "dy": 8504,
      "git": 8505,
      "loud": 8506,
      "mobile": 8507,
      "pet": 8508,
      "sk": 8509,
      "sen": 8510,
      "uz": 8511,
      "va": 8512,
      "wik": 8513,
      "zes": 8514,
      "zero": 8515,
      "Ġ>": 8516,
      "Ġaqu": 8517,
      "Ġtort": 8518,
      "Ġtight": 8519,
      "Ġtissue": 8520,
      "Ġsap": 8521,
      "erated": 8522,
      "Ġcorn": 8523,
      "onts": 8524,
      "rees": 8525,
      "Ġfs": 8526,
      "Ġfonts": 8527,
      "env": 8528,
      "enna": 8529,
      "Ġpow": 8530,
      "Ġpun": 8531,
      "Ġpep": 8532,
      "Ġws": 8533,
      "Ġwing": 8534,
      "Ġware": 8535,
      "Ġholog": 8536,
      "Ġbike": 8537,
      "iser": 8538,
      "Ġlid": 8539,
      "Ġlite": 8540,
      "sters": 8541,
      "street": 8542,
      "Ġnumpy": 8543,
      "ille": 8544,
      "Ġshield": 8545,
      "Ġvill": 8546,
      "ott": 8547,
      "otech": 8548,
      "Ġwithdra": 8549,
      "Ġwhose": 8550,
      "Ġchic": 8551,
      "Ġrer": 8552,
      "Ġracing": 8553,
      "Ġyouth": 8554,
      "opher": 8555,
      "Ġjunk": 8556,
      "early": 8557,
      "Ġconqu": 8558,
      "ocom": 8559,
      "Ġexact": 8560,
      "ifiable": 8561,
      "Ġker": 8562,
      "Ġkil": 8563,
      "Ġenjoy": 8564,
      "Ġcloses": 8565,
      "Ġtrash": 8566,
      "Ġtraces": 8567,
      "Ġbyte": 8568,
      "Ġimessage": 8569,
      "Ġada": 8570,
      "Ġadapter": 8571,
      "Ġadjust": 8572,
      "Ġgenom": 8573,
      "Ġblast": 8574,
      "Ġ36": 8575,
      "Ġphd": 8576,
      "Ġgenerally": 8577,
      "Ġoutputs": 8578,
      "Ġflip": 8579,
      "Ġflows": 8580,
      "Ġdrink": 8581,
      "Ġsaw": 8582,
      "Ġxp": 8583,
      "Ġsolves": 8584,
      "Ġguarant": 8585,
      "Ġtea": 8586,
      "Ġcoher": 8587,
      "Ġstrange": 8588,
      "Ġeliz": 8589,
      "Ġthank": 8590,
      "Ġ45": 8591,
      "Ġdesigners": 8592,
      "Ġfindings": 8593,
      "Ġplanets": 8594,
      "azi": 8595,
      "Ġtwin": 8596,
      "Ġended": 8597,
      "leton": 8598,
      "Ġcurse": 8599,
      "Ġadvancing": 8600,
      "Ġfinet": 8601,
      "Ġinfect": 8602,
      "Ġentropy": 8603,
      "Ġregulator": 8604,
      "Ġdebuts": 8605,
      "Ġinvestments": 8606,
      "Ġskys": 8607,
      "Ġbills": 8608,
      "Ġrelat": 8609,
      "Ġmarine": 8610,
      "Ġmarri": 8611,
      "Ġprocessors": 8612,
      "Ġqt": 8613,
      "Ġoptimizer": 8614,
      "Ġcorrel": 8615,
      "Ġvirgin": 8616,
      "verse": 8617,
      "Ġcollision": 8618,
      "Ġmagn": 8619,
      "Ġpackaging": 8620,
      "Ġverified": 8621,
      "track": 8622,
      "Ġmultipl": 8623,
      "Ġradiation": 8624,
      "Ġspeeding": 8625,
      "Ġimplementations": 8626,
      "Ġpause": 8627,
      "Ġbelow": 8628,
      "Ġimprovement": 8629,
      "Ġrevolutionize": 8630,
      "Ġboosts": 8631,
      "Ġmethane": 8632,
      "Ġbarrier": 8633,
      "Ġfoods": 8634,
      "idespread": 8635,
      "Ġscreening": 8636,
      "Ġimportance": 8637,
      "Ġethics": 8638,
      "Ġcardi": 8639,
      "Ġinnovative": 8640,
      "Ġaffected": 8641,
      "Ġunveiling": 8642,
      "writing": 8643,
      "Ġprotections": 8644,
      "Ġdiseases": 8645,
      "Ġjournalists": 8646,
      "Ġeleven": 8647,
      "Ġuncovers": 8648,
      "Ġfootage": 8649,
      "Ġbeginners": 8650,
      "ospace": 8651,
      "Ġlocked": 8652,
      "Ġregulations": 8653,
      "underst": 8654,
      "Ġprofession": 8655,
      "Ġnotebooks": 8656,
      "Ġmyths": 8657,
      "Ġdestroying": 8658,
      "Ġfitness": 8659,
      "Ġreduced": 8660,
      "Ġdelivering": 8661,
      "Ġaugmented": 8662,
      "techn": 8663,
      "Ġmeasurement": 8664,
      "ĠÂ·": 8665,
      "Ġrailway": 8666,
      "Ġexpressions": 8667,
      "Ġcouple": 8668,
      "Ġsorting": 8669,
      "Ġnationwide": 8670,
      "know": 8671,
      "Ġbottom": 8672,
      "Ġdinner": 8673,
      "Ġqueue": 8674,
      "Ġaliens": 8675,
      "Ġmosqu": 8676,
      "Ġlonge": 8677,
      "Ġrepresentation": 8678,
      "Ġfactorio": 8679,
      "Ġincreasingly": 8680,
      "Ġneurons": 8681,
      "Ġconstraints": 8682,
      "Ġillustrated": 8683,
      "Ġvoices": 8684,
      "Ġdismiss": 8685,
      "idelity": 8686,
      "Ġpsychedelics": 8687,
      "Ġwaterm": 8688,
      "Ġluxury": 8689,
      "Ġlynch": 8690,
      "Ġminerals": 8691,
      "Ġvintage": 8692,
      "Ġannoying": 8693,
      "Ġblueprint": 8694,
      "Ġenshittification": 8695,
      "Ġmilestone": 8696,
      "Ġsubmarine": 8697,
      "Ġindonesia": 8698,
      "Ġscrutiny": 8699,
      "Ġtragedy": 8700,
      ".\"": 8701,
      "88": 8702,
      "cut": 8703,
      "dl": 8704,
      "dark": 8705,
      "dep": 8706,
      "eon": 8707,
      "eff": 8708,
      "fting": 8709,
      "fund": 8710,
      "gent": 8711,
      "gate": 8712,
      "hist": 8713,
      "hire": 8714,
      "hoot": 8715,
      "ko": 8716,
      "math": 8717,
      "rating": 8718,
      "tf": 8719,
      "uan": 8720,
      "write": 8721,
      "wagen": 8722,
      "xl": 8723,
      "Ġides": 8724,
      "Ġaesth": 8725,
      "Ġti": 8726,
      "Ġtang": 8727,
      "Ġsod": 8728,
      "Ġsure": 8729,
      "Ġsink": 8730,
      "erge": 8731,
      "Ġcure": 8732,
      "Ġcob": 8733,
      "Ġcasc": 8734,
      "Ġfsd": 8735,
      "Ġwage": 8736,
      "Ġhex": 8737,
      "Ġbm": 8738,
      "Ġbath": 8739,
      "Ġdart": 8740,
      "Ġdsl": 8741,
      "Ġthumb": 8742,
      "rous": 8743,
      "rows": 8744,
      "Ġlg": 8745,
      "Ġlunch": 8746,
      "Ġlua": 8747,
      "icating": 8748,
      "Ġanime": 8749,
      "Ġgd": 8750,
      "stellar": 8751,
      "Ġnt": 8752,
      "acon": 8753,
      "Ġum": 8754,
      "Ġuae": 8755,
      "eliness": 8756,
      "Ġshifting": 8757,
      "olia": 8758,
      "utable": 8759,
      "imination": 8760,
      "igue": 8761,
      "oded": 8762,
      "Ġonto": 8763,
      "Ġwhales": 8764,
      "Ġchris": 8765,
      "Ġrc": 8766,
      "Ġrice": 8767,
      "ulate": 8768,
      "user": 8769,
      "opia": 8770,
      "uma": 8771,
      "umber": 8772,
      "Ġexpen": 8773,
      "Ġweights": 8774,
      "Ġclocks": 8775,
      "Ġclicks": 8776,
      "Ġunits": 8777,
      "Ġunreal": 8778,
      "Ġplastics": 8779,
      "ials": 8780,
      "ieves": 8781,
      "Ġbytes": 8782,
      "Ġadop": 8783,
      "kswagen": 8784,
      "Ġprism": 8785,
      "Ġnotification": 8786,
      "Ġwebp": 8787,
      "Ġwebgl": 8788,
      "Ġwebpage": 8789,
      "Ġacoust": 8790,
      "Ġinterstellar": 8791,
      "assian": 8792,
      "Ġevals": 8793,
      "Ġalliance": 8794,
      "Ġxl": 8795,
      "Ġapocalypse": 8796,
      "Ġguides": 8797,
      "Ġcrunch": 8798,
      "Ġsurpass": 8799,
      "Ġairline": 8800,
      "Ġearn": 8801,
      "Ġplanner": 8802,
      "Ġmedieval": 8803,
      "Ġbutter": 8804,
      "Ġmultilingual": 8805,
      "2002": 8806,
      "Ġparticles": 8807,
      "deep": 8808,
      "Ġ600": 8809,
      "Ġfiling": 8810,
      "Ġrises": 8811,
      "Ġdefe": 8812,
      "Ġgamers": 8813,
      "Ġpoised": 8814,
      "Ġentering": 8815,
      "Ġincor": 8816,
      "Ġerupt": 8817,
      "Ġtops": 8818,
      "Ġkept": 8819,
      "Ġdiscovering": 8820,
      "Ġextensible": 8821,
      "engers": 8822,
      "Ġjoint": 8823,
      "Ġlegisl": 8824,
      "Ġ2020": 8825,
      "Ġgovernments": 8826,
      "Ġcybercr": 8827,
      "Ġencoding": 8828,
      "Ġencycl": 8829,
      "Ġmessenger": 8830,
      "Ġheadless": 8831,
      "Ġdealers": 8832,
      "Ġblackout": 8833,
      "Ġcheating": 8834,
      "cedes": 8835,
      "Ġclassical": 8836,
      "Ġclassification": 8837,
      "Ġhalts": 8838,
      "Ġspotlight": 8839,
      "Ġpauses": 8840,
      "Ġidentified": 8841,
      "Ġorganizations": 8842,
      "anny": 8843,
      "going": 8844,
      "structured": 8845,
      "1994": 8846,
      "1995": 8847,
      "Ġrevolutionary": 8848,
      "Ġimmed": 8849,
      "Ġhotel": 8850,
      "Ġfavour": 8851,
      "Ġinvestigate": 8852,
      "Ġcleaner": 8853,
      "Ġslowing": 8854,
      "Ġcompletes": 8855,
      "Ġvolkswagen": 8856,
      "Ġstreets": 8857,
      "Ġexploitation": 8858,
      "Ġpsychological": 8859,
      "Ġminimalistic": 8860,
      "Ġsimplest": 8861,
      "Ġsentenced": 8862,
      "password": 8863,
      "Ġcomeback": 8864,
      "Ġconfirm": 8865,
      "Ġauthorities": 8866,
      "Ġcrowds": 8867,
      "Ġdownloader": 8868,
      "Ġcorporation": 8869,
      "Ġatlassian": 8870,
      "Ġdriverless": 8871,
      "Ġpositive": 8872,
      "Ġcampaigns": 8873,
      "Ġsavings": 8874,
      "Ġparkinson": 8875,
      "Ġhubble": 8876,
      "fried": 8877,
      "Ġawk": 8878,
      "holder": 8879,
      "Ġcivilization": 8880,
      "Ġokay": 8881,
      "Ġsimulations": 8882,
      "Ġegypt": 8883,
      "Ġvotes": 8884,
      "Ġvoters": 8885,
      "Ġassociation": 8886,
      "Ġcommittee": 8887,
      "Ġfalcon": 8888,
      "ifiers": 8889,
      "Ġcontributions": 8890,
      "Ġeastern": 8891,
      "Ġloved": 8892,
      "Ġbottlen": 8893,
      "ĠpokÃ©": 8894,
      "falls": 8895,
      "Ġprimary": 8896,
      "Ġpermission": 8897,
      "Ġforests": 8898,
      "Ġshrink": 8899,
      "Ġmortg": 8900,
      "Ġmortality": 8901,
      "Ġlawyers": 8902,
      "Ġchromium": 8903,
      "imensional": 8904,
      "Ġecho": 8905,
      "Ġopentele": 8906,
      "Ġrecordings": 8907,
      "Ġboundaries": 8908,
      "Ġchampions": 8909,
      "Ġwizard": 8910,
      "Ġfrequency": 8911,
      "Ġoutperforms": 8912,
      "Ġmathematicians": 8913,
      "Ġseveral": 8914,
      "Ġdeclares": 8915,
      "Ġvolcanic": 8916,
      "Ġacademia": 8917,
      "Ġdinosaur": 8918,
      "Ġawareness": 8919,
      "Ġtackle": 8920,
      "Ġorbital": 8921,
      "Ġugly": 8922,
      "Ġsuperconduct": 8923,
      "Ġocaml": 8924,
      "mortem": 8925,
      "Ġonboarding": 8926,
      "Ġleetcode": 8927,
      "Ġbuttons": 8928,
      "Ġsemantics": 8929,
      "Ġlongevity": 8930,
      "Ġencyclop": 8931,
      "Ġopentelemetry": 8932,
      "700": 8933,
      "bases": 8934,
      "cow": 8935,
      "fold": 8936,
      "hard": 8937,
      "neg": 8938,
      "olete": 8939,
      "pat": 8940,
      "sub": 8941,
      "tune": 8942,
      "urable": 8943,
      "wire": 8944,
      "inst": 8945,
      "Ġsourcing": 8946,
      "erland": 8947,
      "Ġcia": 8948,
      "oration": 8949,
      "Ġfights": 8950,
      "Ġffm": 8951,
      "Ġwy": 8952,
      "Ġwan": 8953,
      "Ġwidespread": 8954,
      "Ġmu": 8955,
      "itan": 8956,
      "Ġhood": 8957,
      "Ġhints": 8958,
      "Ġhobby": 8959,
      "Ġbiz": 8960,
      "Ġbros": 8961,
      "Ġbern": 8962,
      "Ġbask": 8963,
      "Ġborrow": 8964,
      "Ġbodies": 8965,
      "isc": 8966,
      "Ġlil": 8967,
      "Ġlying": 8968,
      "Ġinbox": 8969,
      "Ġtheories": 8970,
      "eding": 8971,
      "icts": 8972,
      "Ġgb": 8973,
      "Ġgcc": 8974,
      "Ġnba": 8975,
      "Ġeternal": 8976,
      "Ġrejects": 8977,
      "Ġshit": 8978,
      "olingo": 8979,
      "utors": 8980,
      "ithm": 8981,
      "chip": 8982,
      "Ġislands": 8983,
      "urt": 8984,
      "Ġrs": 8985,
      "ppers": 8986,
      "Ġasus": 8987,
      "uls": 8988,
      "ulated": 8989,
      "Ġjd": 8990,
      "Ġexceed": 8991,
      "atever": 8992,
      "Ġkv": 8993,
      "Ġworried": 8994,
      "Ġbeating": 8995,
      "Ġunra": 8996,
      "Ġspell": 8997,
      "Ġspying": 8998,
      "asted": 8999,
      "ipher": 9000,
      "Ġmodes": 9001,
      "orted": 9002,
      "Ġardu": 9003,
      "Ġwebapp": 9004,
      "Ġleaking": 9005,
      "phant": 9006,
      "Ġcontribution": 9007,
      "Ġorm": 9008,
      "Ġquad": 9009,
      "Ġmyself": 9010,
      "Ġblame": 9011,
      "Ġ2027": 9012,
      "Ġabund": 9013,
      "aches": 9014,
      "Ġlaunder": 9015,
      "epad": 9016,
      "Ġseattle": 9017,
      "Ġovercoming": 9018,
      "Ġtrapped": 9019,
      "Ġsystematic": 9020,
      "Ġzeal": 9021,
      "Ġindo": 9022,
      "Ġsmooth": 9023,
      "Ġvisibility": 9024,
      "Ġmonday": 9025,
      "Ġstrang": 9026,
      "concept": 9027,
      "Ġremot": 9028,
      "Ġremix": 9029,
      "Ġ42": 9030,
      "Ġinsane": 9031,
      "ologist": 9032,
      "Ġextrem": 9033,
      "Ġbright": 9034,
      "Ġconsult": 9035,
      "Ġparli": 9036,
      "Ġhumane": 9037,
      "Ġprotests": 9038,
      "Ġattribut": 9039,
      "Ġreads": 9040,
      "Ġ650": 9041,
      "launch": 9042,
      "Ġfilms": 9043,
      "Ġdetector": 9044,
      "Ġsubst": 9045,
      "Ġsubway": 9046,
      "Ġscholar": 9047,
      "Ġplayed": 9048,
      "Ġinfection": 9049,
      "Ġgambling": 9050,
      "prises": 9051,
      "Ġpoet": 9052,
      "Ġsupported": 9053,
      "Ġincidents": 9054,
      "Ġlooph": 9055,
      "Ġregret": 9056,
      "egu": 9057,
      "Ġformats": 9058,
      "Ġkeynote": 9059,
      "Ġtopic": 9060,
      "Ġtopics": 9061,
      "Ġlogical": 9062,
      "Ġpassive": 9063,
      "Ġreplaces": 9064,
      "retch": 9065,
      "Ġoptimal": 9066,
      "Ġgeosp": 9067,
      "Ġsmartwatch": 9068,
      "Ġsmallest": 9069,
      "Ġoperational": 9070,
      "Ġsilk": 9071,
      "Ġlabel": 9072,
      "Ġthreatening": 9073,
      "program": 9074,
      "Ġportal": 9075,
      "Ġportra": 9076,
      "Ġfallacy": 9077,
      "Ġpopul": 9078,
      "Ġdiscount": 9079,
      "Ġurges": 9080,
      "Ġobsolete": 9081,
      "Ġconnected": 9082,
      "Ġepstein": 9083,
      "Ġspeeds": 9084,
      "being": 9085,
      "Ġcritics": 9086,
      "Ġidentifying": 9087,
      "arent": 9088,
      "Ġcontextual": 9089,
      "Ġholiday": 9090,
      "Ġnaval": 9091,
      "Ġ128": 9092,
      "enews": 9093,
      "Ġinstalled": 9094,
      "Ġmassive": 9095,
[...]
